const unsigned char sine_model[] = { 0x1c, 0x00, 0x00, 0x00, 0x54, 0x46, 0x4c, 0x33, 0x14, 0x00, 0x20, 0x00, 0x1c, 0x00, 0x18, 0x00, 0x14, 0x00, 0x10, 0x00, 0x0c, 0x00, 0x00, 0x00, 0x08, 0x00, 0x04, 0x00, 0x14, 0x00, 0x00, 0x00, 0x1c, 0x00, 0x00, 0x00, 0x98, 0x00, 0x00, 0x00, 0xf0, 0x00, 0x00, 0x00, 0x94, 0x0b, 0x00, 0x00, 0xa4, 0x0b, 0x00, 0x00, 0x7c, 0x10, 0x00, 0x00, 0x03, 0x00, 0x00, 0x00, 0x01, 0x00, 0x00, 0x00, 0x10, 0x00, 0x00, 0x00, 0x00, 0x00, 0x0a, 0x00, 0x10, 0x00, 0x0c, 0x00, 0x08, 0x00, 0x04, 0x00, 0x0a, 0x00, 0x00, 0x00, 0x0c, 0x00, 0x00, 0x00, 0x1c, 0x00, 0x00, 0x00, 0x3c, 0x00, 0x00, 0x00, 0x0f, 0x00, 0x00, 0x00, 0x73, 0x65, 0x72, 0x76, 0x69, 0x6e, 0x67, 0x5f, 0x64, 0x65, 0x66, 0x61, 0x75, 0x6c, 0x74, 0x00, 0x01, 0x00, 0x00, 0x00, 0x04, 0x00, 0x00, 0x00, 0x90, 0xff, 0xff, 0xff, 0x09, 0x00, 0x00, 0x00, 0x04, 0x00, 0x00, 0x00, 0x08, 0x00, 0x00, 0x00, 0x6f, 0x75, 0x74, 0x70, 0x75, 0x74, 0x5f, 0x30, 0x00, 0x00, 0x00, 0x00, 0x01, 0x00, 0x00, 0x00, 0x04, 0x00, 0x00, 0x00, 0x3a, 0xf5, 0xff, 0xff, 0x04, 0x00, 0x00, 0x00, 0x0c, 0x00, 0x00, 0x00, 0x6b, 0x65, 0x72, 0x61, 0x73, 0x5f, 0x74, 0x65, 0x6e, 0x73, 0x6f, 0x72, 0x00, 0x00, 0x00, 0x00, 0x02, 0x00, 0x00, 0x00, 0x34, 0x00, 0x00, 0x00, 0x04, 0x00, 0x00, 0x00, 0xdc, 0xff, 0xff, 0xff, 0x0c, 0x00, 0x00, 0x00, 0x04, 0x00, 0x00, 0x00, 0x13, 0x00, 0x00, 0x00, 0x43, 0x4f, 0x4e, 0x56, 0x45, 0x52, 0x53, 0x49, 0x4f, 0x4e, 0x5f, 0x4d, 0x45, 0x54, 0x41, 0x44, 0x41, 0x54, 0x41, 0x00, 0x08, 0x00, 0x0c, 0x00, 0x08, 0x00, 0x04, 0x00, 0x08, 0x00, 0x00, 0x00, 0x0b, 0x00, 0x00, 0x00, 0x04, 0x00, 0x00, 0x00, 0x13, 0x00, 0x00, 0x00, 0x6d, 0x69, 0x6e, 0x5f, 0x72, 0x75, 0x6e, 0x74, 0x69, 0x6d, 0x65, 0x5f, 0x76, 0x65, 0x72, 0x73, 0x69, 0x6f, 0x6e, 0x00, 0x0d, 0x00, 0x00, 0x00, 0xa0, 0x0a, 0x00, 0x00, 0x98, 0x0a, 0x00, 0x00, 0x48, 0x0a, 0x00, 0x00, 0x30, 0x02, 0x00, 0x00, 0x1c, 0x02, 0x00, 0x00, 0xcc, 0x01, 0x00, 0x00, 0x3c, 0x01, 0x00, 0x00, 0xac, 0x00, 0x00, 0x00, 0xa4, 0x00, 0x00, 0x00, 0x9c, 0x00, 0x00, 0x00, 0x94, 0x00, 0x00, 0x00, 0x74, 0x00, 0x00, 0x00, 0x04, 0x00, 0x00, 0x00, 0xea, 0xf5, 0xff, 0xff, 0x04, 0x00, 0x00, 0x00, 0x60, 0x00, 0x00, 0x00, 0x10, 0x00, 0x00, 0x00, 0x00, 0x00, 0x00, 0x00, 0x08, 0x00, 0x0e, 0x00, 0x08, 0x00, 0x04, 0x00, 0x08, 0x00, 0x00, 0x00, 0x10, 0x00, 0x00, 0x00, 0x24, 0x00, 0x00, 0x00, 0x00, 0x00, 0x06, 0x00, 0x08, 0x00, 0x04, 0x00, 0x06, 0x00, 0x00, 0x00, 0x04, 0x00, 0x00, 0x00, 0x00, 0x00, 0x00, 0x00, 0x0c, 0x00, 0x18, 0x00, 0x14, 0x00, 0x10, 0x00, 0x0c, 0x00, 0x04, 0x00, 0x0c, 0x00, 0x00, 0x00, 0x81, 0x73, 0x35, 0xf5, 0x27, 0x00, 0xc7, 0x45, 0x02, 0x00, 0x00, 0x00, 0x02, 0x00, 0x00, 0x00, 0x04, 0x00, 0x00, 0x00, 0x06, 0x00, 0x00, 0x00, 0x32, 0x2e, 0x31, 0x37, 0x2e, 0x30, 0x00, 0x00, 0x56, 0xf6, 0xff, 0xff, 0x04, 0x00, 0x00, 0x00, 0x10, 0x00, 0x00, 0x00, 0x31, 0x2e, 0x35, 0x2e, 0x30, 0x00, 0x00, 0x00, 0x00, 0x00, 0x00, 0x00, 0x00, 0x00, 0x00, 0x00, 0x60, 0xf1, 0xff, 0xff, 0x64, 0xf1, 0xff, 0xff, 0x68, 0xf1, 0xff, 0xff, 0x7e, 0xf6, 0xff, 0xff, 0x04, 0x00, 0x00, 0x00, 0x80, 0x00, 0x00, 0x00, 0x45, 0x97, 0x45, 0x3e, 0x15, 0xcc, 0xac, 0x3e, 0xa7, 0x3f, 0x3d, 0xbe, 0x5c, 0x77, 0xa8, 0xbe, 0xe6, 0xd8, 0xa0, 0x3e, 0x30, 0xdf, 0x96, 0xbe, 0x9f, 0x43, 0x57, 0x3e, 0x25, 0xf2, 0x26, 0x3c, 0x6c, 0x8d, 0xd7, 0xbe, 0x96, 0x30, 0x58, 0xbe, 0x18, 0x75, 0xc7, 0xbc, 0xe8, 0xdc, 0x10, 0xbe, 0x3e, 0xd8, 0x94, 0x3e, 0xbe, 0x63, 0x92, 0x3d, 0x59, 0x52, 0xc1, 0xbe, 0xcb, 0xa1, 0xfc, 0x3d, 0xe3, 0x3f, 0xda, 0x3d, 0xa0, 0xe7, 0xe3, 0xbc, 0xae, 0x53, 0x5e, 0x3e, 0xb7, 0xf4, 0xaf, 0xbe, 0x44, 0x89, 0xe4, 0x3d, 0x40, 0x86, 0x21, 0xbe, 0xe1, 0x85, 0xdf, 0x3d, 0xa0, 0x07, 0xb5, 0xbe, 0x0f, 0x19, 0x71, 0x3e, 0xd6, 0xac, 0xcd, 0xbe, 0xac, 0x9d, 0x1a, 0xbe, 0x38, 0x5f, 0x88, 0xbe, 0x36, 0xfe, 0x86, 0x3e, 0x9b, 0xfe, 0x67, 0xbe, 0x9b, 0x36, 0xce, 0x3e, 0x8b, 0x4c, 0xaa, 0x3e, 0x0a, 0xf7, 0xff, 0xff, 0x04, 0x00, 0x00, 0x00, 0x80, 0x00, 0x00, 0x00, 0x49, 0x96, 0x1e, 0xbe, 0xba, 0x12, 0x2f, 0xbe, 0x00, 0x00, 0x00, 0x00, 0x00, 0x00, 0x00, 0x00, 0x41, 0xd9, 0x3a, 0xbf, 0x00, 0x00, 0x00, 0x00, 0x0b, 0x1e, 0xb4, 0xbe, 0x3b, 0x49, 0xdd, 0x3e, 0x00, 0x00, 0x00, 0x00, 0x00, 0x00, 0x00, 0x00, 0x68, 0x68, 0x36, 0x3f, 0x00, 0x00, 0x00, 0x00, 0x14, 0xe0, 0xe5, 0x3d, 0x43, 0xaa, 0x55, 0xbe, 0x00, 0x00, 0x00, 0x00, 0x33, 0xd0, 0xaa, 0xbe, 0x25, 0x6a, 0x55, 0xbe, 0x00, 0x00, 0x00, 0x00, 0xd1, 0x7c, 0x3f, 0xbf, 0x00, 0x00, 0x00, 0x00, 0xcc, 0xa2, 0x68, 0xbe, 0x00, 0x00, 0x00, 0x00, 0xb6, 0x7a, 0x41, 0x3e, 0x00, 0x00, 0x00, 0x00, 0x08, 0xf8, 0x58, 0x3e, 0x00, 0x00, 0x00, 0x00, 0x00, 0x00, 0x00, 0x00, 0x00, 0x00, 0x00, 0x00, 0x68, 0xd5, 0x27, 0xbb, 0x00, 0x00, 0x00, 0x00, 0xb3, 0x1f, 0xe0, 0xbe, 0xdc, 0x0e, 0x83, 0x3e, 0x96, 0xf7, 0xff, 0xff, 0x04, 0x00, 0x00, 0x00, 0x40, 0x00, 0x00, 0x00, 0x04, 0x0f, 0x74, 0xbc, 0xeb, 0xb2, 0x4d, 0x3e, 0xb5, 0xfc, 0x47, 0x3e, 0x83, 0x38, 0x3c, 0xbc, 0xa6, 0xf6, 0xd0, 0x3e, 0x7a, 0xc7, 0x5e, 0x3e, 0x03, 0x43, 0x27, 0x3e, 0xbb, 0xac, 0x38, 0xbd, 0x4d, 0xfa, 0xc1, 0x3a, 0x3d, 0x4a, 0x80, 0x3e, 0x96, 0x62, 0xaa, 0xbe, 0x4e, 0x26, 0xd3, 0xbe, 0x9f, 0xde, 0x71, 0x3e, 0x2f, 0x65, 0x85, 0x3d, 0xeb, 0xa9, 0x2c, 0x3e, 0x4d, 0x11, 0xc5, 0xbe, 0xe2, 0xf7, 0xff, 0xff, 0x04, 0x00, 0x00, 0x00, 0x04, 0x00, 0x00, 0x00, 0x77, 0xae, 0xa6, 0xbe, 0xf2, 0xf7, 0xff, 0xff, 0x04, 0x00, 0x00, 0x00, 0x00, 0x08, 0x00, 0x00, 0xac, 0x97, 0x83, 0xbd, 0xc4, 0xe5, 0xa6, 0xbe, 0x5a, 0x3c, 0x22, 0x3e, 0xda, 0xcf, 0x8e, 0xbe, 0x36, 0xf0, 0xce, 0xbd, 0x2c, 0x17, 0xd3, 0xbd, 0xc0, 0xf3, 0xdc, 0x3c, 0xdd, 0x46, 0xad, 0xbe, 0xaa, 0xfe, 0x41, 0x3e, 0x46, 0x20, 0x26, 0xbe, 0xdd, 0xdf, 0xac, 0x3d, 0x11, 0xaa, 0x83, 0xbe, 0x6c, 0xe1, 0xf6, 0xbd, 0x47, 0x29, 0x06, 0xbe, 0xc0, 0xeb, 0xe2, 0x3b, 0xc0, 0x36, 0x57, 0xbd, 0xaa, 0x8f, 0x6e, 0xbe, 0x6a, 0xc8, 0x4f, 0x3e, 0xaf, 0x4c, 0x95, 0xbe, 0x0d, 0x6d, 0x84, 0xbe, 0xb8, 0x0d, 0x45, 0x3d, 0x4a, 0xaa, 0x58, 0x3e, 0x19, 0x4a, 0xa7, 0x3e, 0xf4, 0x2e, 0x97, 0xbd, 0xa0, 0x79, 0x40, 0x3c, 0x65, 0xc3, 0x22, 0xbe, 0x5e, 0x03, 0xea, 0xbd, 0xaa, 0xc4, 0x41, 0x3e, 0x82, 0xe0, 0xab, 0x3e, 0x25, 0xfa, 0x5e, 0xbe, 0x0a, 0x7f, 0x41, 0xbe, 0xe3, 0x22, 0x81, 0xbe, 0x72, 0xc5, 0x6b, 0x3e, 0xf8, 0xa6, 0x67, 0x3e, 0xa8, 0x17, 0x91, 0x3d, 0x84, 0xe3, 0xa0, 0xbd, 0x4c, 0x79, 0x39, 0xbe, 0x3c, 0x80, 0x45, 0xbe, 0x1f, 0x0b, 0x30, 0x3e, 0x07, 0xc7, 0x60, 0x3e, 0x8c, 0x7c, 0x05, 0x3e, 0x80, 0x5d, 0x9b, 0x3c, 0x88, 0xed, 0x80, 0x3c, 0xdb, 0x28, 0xa8, 0x3e, 0xbc, 0x3b, 0x95, 0x3e, 0xa6, 0x55, 0x86, 0xbe, 0xf8, 0x52, 0x71, 0xbe, 0xc5, 0x51, 0x61, 0xbd, 0x21, 0xc9, 0xc9, 0xbd, 0xd8, 0xb6, 0x43, 0xbe, 0xde, 0x45, 0x2c, 0xbe, 0xed, 0xc4, 0xa5, 0x3e, 0x47, 0x45, 0x3f, 0x3d, 0x09, 0xf3, 0x98, 0x3e, 0x62, 0xfe, 0x89, 0x3e, 0xa0, 0x1d, 0x65, 0x3d, 0xc8, 0x64, 0x95, 0xbe, 0x98, 0xbe, 0x0a, 0x3d, 0x12, 0xa8, 0x8b, 0xbe, 0xa0, 0xb5, 0x81, 0xbe, 0x80, 0xed, 0xff, 0xbc, 0xf8, 0xbb, 0xa3, 0x3d, 0x82, 0x54, 0x8b, 0xbe, 0x6c, 0xec, 0x32, 0xbb, 0xae, 0x0f, 0x76, 0x3e, 0xe2, 0x05, 0x1b, 0xbe, 0x78, 0xd4, 0x26, 0xbd, 0x70, 0x10, 0x1e, 0xbd, 0x85, 0x5d, 0xcf, 0xbe, 0xc0, 0x29, 0x4a, 0xbd, 0xbc, 0xf4, 0x7d, 0x3e, 0x15, 0xbf, 0x2a, 0xbe, 0x03, 0x83, 0x8b, 0xbe, 0xff, 0x28, 0x8c, 0x3e, 0x49, 0xb1, 0xf5, 0x3e, 0x7c, 0x74, 0x9f, 0xbd, 0x4f, 0xf7, 0xf3, 0xbc, 0x81, 0x2a, 0x2a, 0x3e, 0x7e, 0x18, 0x2f, 0xbe, 0xd8, 0xaa, 0x39, 0xba, 0xa7, 0x39, 0x58, 0xbe, 0x7b, 0xf4, 0xb1, 0x3e, 0x10, 0x08, 0xb2, 0xbe, 0x80, 0xac, 0x3d, 0xbd, 0x20, 0xfd, 0xcf, 0xbe, 0x88, 0x4b, 0x4d, 0xbd, 0xa3, 0xd6, 0x26, 0xbc, 0xa0, 0xdf, 0x0b, 0x3d, 0x9d, 0x7d, 0x75, 0x3e, 0x86, 0x75, 0x5e, 0x3e, 0xb0, 0xb4, 0x82, 0x3d, 0x0e, 0x2b, 0x62, 0x3e, 0x64, 0x03, 0x9c, 0x3e, 0x1d, 0x5a, 0xa1, 0x3e, 0xc1, 0x8b, 0x7a, 0x3c, 0x38, 0xb9, 0xe1, 0xbd, 0x5e, 0x34, 0x6b, 0x3e, 0xc0, 0x82, 0xb1, 0xbc, 0x95, 0x05, 0x7e, 0xbe, 0x56, 0x9c, 0x2d, 0x3e, 0x70, 0x11, 0xb9, 0xbd, 0x76, 0x6b, 0x38, 0x3e, 0x89, 0x05, 0x8b, 0x3e, 0x70, 0x2e, 0x83, 0xbe, 0x57, 0x32, 0x88, 0xbe, 0xe4, 0x24, 0x50, 0xbe, 0x06, 0xf5, 0xa8, 0x3d, 0x40, 0x45, 0xf1, 0x3d, 0x49, 0x64, 0x0e, 0xbe, 0x92, 0xca, 0xa5, 0xbe, 0xa8, 0x41, 0x90, 0xbe, 0x02, 0x08, 0x7e, 0x3e, 0x1e, 0xeb, 0x72, 0x3e, 0xae, 0x99, 0x14, 0xbe, 0x81, 0x31, 0x40, 0xbe, 0x4f, 0xde, 0x9d, 0x3e, 0x60, 0x0b, 0x9f, 0xbc, 0x50, 0x8d, 0x86, 0xbc, 0x80, 0xcd, 0x18, 0xbe, 0x98, 0xe3, 0x69, 0x3d, 0x56, 0xb4, 0xf8, 0xbd, 0xf8, 0xa6, 0x25, 0xbd, 0x73, 0x71, 0x13, 0xbe, 0x00, 0xf1, 0xf5, 0xba, 0xd0, 0x3a, 0xd9, 0xbc, 0x65, 0x89, 0xac, 0x3e, 0xa5, 0x92, 0x9c, 0xbe, 0xb2, 0x3c, 0xa5, 0x3e, 0x25, 0xac, 0x0d, 0xbf, 0x92, 0xc6, 0x1b, 0xbf, 0xac, 0xe6, 0xbe, 0x3d, 0x70, 0xa7, 0xf6, 0xbd, 0xdc, 0x00, 0x1d, 0xbf, 0xf5, 0x06, 0x9a, 0x3e, 0x5c, 0x62, 0x7a, 0xbe, 0x08, 0xe9, 0xe2, 0x3e, 0xd0, 0xbb, 0xa5, 0x3c, 0x66, 0x61, 0x90, 0xbe, 0x07, 0x3b, 0xf5, 0x3e, 0x60, 0xe4, 0x01, 0x3c, 0x4c, 0x5d, 0x6b, 0xbf, 0xa7, 0x20, 0x35, 0x3d, 0x40, 0x99, 0xc2, 0xbc, 0x43, 0x47, 0xfc, 0x3d, 0x57, 0xa0, 0x82, 0x3e, 0x30, 0xbe, 0xa8, 0xbc, 0xc2, 0xea, 0x2b, 0x3d, 0xde, 0x95, 0xda, 0xbd, 0x9f, 0x67, 0x94, 0x3e, 0x22, 0xd4, 0xf4, 0xbd, 0xb8, 0x1b, 0x96, 0x3e, 0x6a, 0x89, 0x7f, 0x3e, 0xab, 0x0a, 0x04, 0xbf, 0xf6, 0x27, 0x47, 0x3e, 0x95, 0x8e, 0x8f, 0xbe, 0xf6, 0xeb, 0x05, 0x3e, 0xbd, 0xfe, 0xae, 0xbd, 0x68, 0x00, 0x3a, 0x3d, 0x0a, 0xa7, 0x3f, 0xbd, 0xac, 0xd2, 0xff, 0x3d, 0x1d, 0x5f, 0xb4, 0xbd, 0x7d, 0x9e, 0x41, 0xbe, 0x7e, 0xf6, 0x1c, 0x3e, 0xcb, 0xf4, 0x89, 0x3e, 0x2f, 0xca, 0xf5, 0xbe, 0xad, 0x69, 0xa0, 0x3e, 0xcc, 0x89, 0xd7, 0xbe, 0xc2, 0xc5, 0x00, 0xbe, 0xe0, 0x83, 0xb6, 0xbc, 0x56, 0xd5, 0xd5, 0xbd, 0xd5, 0x38, 0xe9, 0x3e, 0xa8, 0xdd, 0xe8, 0x3d, 0x56, 0x78, 0xa4, 0x3e, 0x43, 0xb1, 0x90, 0xbd, 0xc0, 0x77, 0xae, 0xbb, 0x21, 0xfc, 0xd8, 0xbe, 0x05, 0xd6, 0x24, 0xbf, 0x8d, 0xe2, 0x8b, 0x3e, 0xe2, 0x61, 0xc9, 0xbe, 0xb9, 0x07, 0x33, 0xbe, 0xd4, 0xb5, 0x28, 0xbf, 0x54, 0x6b, 0x97, 0xbe, 0x55, 0x5e, 0xce, 0x3e, 0x2d, 0x3d, 0xa0, 0xbe, 0x3d, 0xeb, 0x49, 0x3e, 0xbb, 0x72, 0xa6, 0x3e, 0x00, 0x95, 0xbd, 0xbb, 0xd0, 0xfe, 0x1b, 0xbd, 0x26, 0x4d, 0x8f, 0x3d, 0x87, 0xf9, 0xaf, 0x3e, 0x5a, 0xb8, 0x9c, 0xbe, 0x24, 0x37, 0xae, 0x3e, 0x10, 0x05, 0x92, 0x3d, 0xa1, 0x97, 0x0c, 0x3e, 0x34, 0xbf, 0xfd, 0xbd, 0xa6, 0x21, 0x07, 0x3e, 0xd8, 0xa2, 0x8b, 0xbe, 0xb3, 0x5f, 0x98, 0xbe, 0x39, 0x8d, 0xb4, 0xbe, 0xeb, 0xb1, 0x59, 0x3d, 0x8e, 0xb0, 0x83, 0xbe, 0x2f, 0x20, 0xae, 0x3e, 0xef, 0xd3, 0xd4, 0x3e, 0x3c, 0xff, 0xcd, 0xbd, 0x0a, 0xa2, 0x11, 0x3e, 0xc1, 0x4f, 0x09, 0xbd, 0x2e, 0xea, 0x04, 0x3e, 0x04, 0x46, 0x80, 0xbe, 0x4a, 0x47, 0x04, 0x3e, 0x80, 0x9a, 0x00, 0xbc, 0x56, 0x99, 0xdc, 0xbe, 0xa6, 0x86, 0x0d, 0x3e, 0xb8, 0x4e, 0x7f, 0xbe, 0x46, 0x94, 0x6f, 0xbe, 0x2a, 0xb9, 0x8a, 0xbe, 0x00, 0xf5, 0x0d, 0xbe, 0x31, 0xf4, 0xb0, 0x3e, 0x6c, 0x9b, 0x80, 0xbe, 0xd3, 0x46, 0x9f, 0x3e, 0xc6, 0x6e, 0x2b, 0x3e, 0xfe, 0xb3, 0xbe, 0xbd, 0x80, 0xd4, 0xe9, 0xbc, 0xe4, 0x91, 0xfd, 0x3d, 0x6a, 0x5d, 0x86, 0x3e, 0x1c, 0xf3, 0x90, 0x3d, 0xfd, 0x65, 0xa4, 0x3e, 0x06, 0xa1, 0x78, 0x3e, 0x6d, 0xaa, 0xaa, 0xbe, 0x1d, 0xf1, 0xa2, 0xbe, 0x48, 0xcd, 0x27, 0xbd, 0x28, 0x1b, 0xaf, 0xbe, 0x75, 0x4b, 0xd7, 0xbd, 0x18, 0x39, 0x05, 0xbd, 0x90, 0xfc, 0xb7, 0xbd, 0x4a, 0x3c, 0x72, 0x3e, 0x55, 0x54, 0xb3, 0x3e, 0x59, 0x0f, 0x44, 0xbe, 0xe6, 0x91, 0x58, 0xbe, 0x01, 0x80, 0xa3, 0xbe, 0x6e, 0xb0, 0x81, 0xbe, 0x46, 0x0d, 0x64, 0x3e, 0x59, 0xa6, 0x8a, 0x3e, 0x8e, 0x97, 0x55, 0x3e, 0xd8, 0x48, 0x58, 0x3d, 0xfc, 0x41, 0x9f, 0xbe, 0x4e, 0x9c, 0x22, 0xbe, 0xbe, 0xcf, 0x9b, 0xbe, 0x02, 0xf0, 0x6a, 0x3e, 0xc6, 0x9f, 0x89, 0xbe, 0x38, 0x5c, 0xd4, 0x3d, 0x58, 0x44, 0x38, 0xbd, 0x77, 0x82, 0x34, 0xbe, 0x9f, 0x79, 0xa9, 0xbe, 0x28, 0x21, 0x31, 0xbd, 0x5a, 0x13, 0x54, 0x3e, 0xf7, 0x7a, 0x27, 0x3e, 0x3c, 0xf4, 0xfb, 0xbe, 0xa9, 0xf1, 0x81, 0xbe, 0x4d, 0x20, 0x90, 0x3e, 0xe5, 0xd2, 0xb1, 0xbe, 0x21, 0x1d, 0x8a, 0x3e, 0xef, 0x5c, 0x99, 0x3e, 0xb3, 0x25, 0x63, 0xbe, 0x65, 0x51, 0x99, 0x3c, 0x88, 0xf9, 0xae, 0x3d, 0x6f, 0x07, 0x89, 0xbe, 0x74, 0x33, 0xe5, 0xbd, 0xfb, 0x86, 0x93, 0xbe, 0x84, 0x6c, 0x85, 0x3e, 0x1a, 0xf3, 0xb6, 0xbe, 0xa9, 0x1c, 0xa0, 0xbe, 0xbe, 0x26, 0x7b, 0x3e, 0x8f, 0x5c, 0x5c, 0xbe, 0x96, 0x38, 0x4b, 0x3e, 0x48, 0xdc, 0x7d, 0xbe, 0x40, 0x9f, 0xd6, 0x3c, 0xb8, 0xfd, 0x46, 0xbe, 0x20, 0x75, 0xd2, 0x3c, 0xba, 0x4c, 0x7c, 0xbe, 0xd7, 0x2d, 0x3b, 0xbe, 0xef, 0x26, 0x90, 0x3e, 0x86, 0xd1, 0x31, 0xbe, 0xc3, 0x73, 0x8c, 0xbe, 0x6a, 0x96, 0x6f, 0x3e, 0xcf, 0x9b, 0xc2, 0xba, 0x6e, 0xfe, 0x4d, 0x3e, 0x62, 0xf7, 0x0c, 0xbf, 0xfe, 0xab, 0xe7, 0x3d, 0x93, 0x20, 0xce, 0xbd, 0x14, 0xb9, 0x0d, 0xbe, 0x04, 0xb0, 0x92, 0xbd, 0x38, 0x50, 0x57, 0x3d, 0xc0, 0x59, 0x28, 0xbe, 0xb2, 0x7a, 0xf2, 0xbd, 0x23, 0x48, 0xb4, 0xbd, 0xa5, 0xc5, 0x97, 0x3e, 0x2b, 0x05, 0x98, 0xbe, 0x81, 0xae, 0xa8, 0xbe, 0x99, 0xb9, 0x8a, 0x3e, 0x13, 0x70, 0x85, 0xbe, 0xda, 0x13, 0x69, 0xbe, 0x62, 0x9f, 0x98, 0xbe, 0x07, 0x53, 0x6a, 0xbe, 0xd4, 0xda, 0x1f, 0xbf, 0xef, 0x9b, 0x06, 0xbf, 0xcf, 0xc5, 0x4b, 0xbe, 0xb6, 0x46, 0x01, 0xbf, 0x7b, 0x8c, 0x6e, 0xbe, 0x42, 0xd1, 0x8c, 0xbe, 0x49, 0xb9, 0x4e, 0xbe, 0x86, 0xce, 0x01, 0xbb, 0x27, 0x56, 0x98, 0x3e, 0xe2, 0x6e, 0x59, 0x3d, 0x70, 0x69, 0x84, 0x3c, 0x80, 0xe5, 0xd4, 0x3c, 0x0e, 0xd4, 0x8f, 0xbe, 0x84, 0x99, 0xad, 0x3e, 0x28, 0xa2, 0x74, 0xbd, 0xc2, 0xb4, 0xb8, 0xbd, 0xb1, 0x61, 0xaa, 0x3e, 0x55, 0x26, 0x68, 0x3e, 0x13, 0x53, 0x95, 0x3e, 0x79, 0x65, 0x63, 0xbe, 0x6b, 0x7b, 0x94, 0x3e, 0xdb, 0x15, 0xea, 0x3d, 0x9c, 0xfb, 0x8c, 0xbd, 0xfc, 0xe1, 0x0e, 0x3e, 0x7c, 0x29, 0x2a, 0xbd, 0x0e, 0x46, 0x66, 0x3e, 0x5d, 0x43, 0x80, 0xbe, 0xbf, 0x07, 0x0f, 0xbf, 0x0a, 0x98, 0xb3, 0xbe, 0xb2, 0x84, 0x16, 0x3e, 0x83, 0x36, 0x91, 0xbd, 0xd6, 0xc0, 0x1e, 0x3e, 0xf8, 0x57, 0xcb, 0x3e, 0xc7, 0x45, 0x1a, 0xbe, 0x51, 0xc7, 0xa0, 0xbe, 0x97, 0x00, 0x10, 0x3f, 0xca, 0x23, 0x48, 0x3e, 0x04, 0xa6, 0x32, 0x3e, 0x21, 0xd5, 0xac, 0x3e, 0xb6, 0xf1, 0xbc, 0xbe, 0xfc, 0xd3, 0xeb, 0x3d, 0x25, 0xb9, 0xc5, 0x39, 0x86, 0xc9, 0xaf, 0xbe, 0x80, 0xf3, 0x95, 0xbe, 0xa2, 0xde, 0x4e, 0x3e, 0xcd, 0x06, 0x99, 0x3e, 0xd6, 0xc2, 0x3c, 0x3e, 0xf8, 0xe6, 0x95, 0xbd, 0x3f, 0xa5, 0x1a, 0xbd, 0xd3, 0x6c, 0x3e, 0x3e, 0xb5, 0x43, 0xc5, 0x3c, 0xab, 0x76, 0xab, 0xbe, 0x58, 0xd8, 0x65, 0xbe, 0xea, 0xee, 0xe1, 0x3e, 0xfd, 0x14, 0xa3, 0x3e, 0xe0, 0xbf, 0x3d, 0x3e, 0xcf, 0x04, 0x0e, 0xbf, 0xfd, 0xf5, 0x17, 0xbe, 0x00, 0x7b, 0x25, 0x3b, 0x43, 0xf9, 0x11, 0xbf, 0xe0, 0x06, 0xe4, 0x3c, 0xac, 0xbc, 0xc1, 0xbd, 0xfb, 0x6b, 0x8d, 0x3e, 0xba, 0x84, 0x7a, 0x3e, 0x1f, 0x25, 0xfe, 0x3e, 0xae, 0x04, 0xa2, 0x3d, 0x1c, 0x07, 0xcc, 0x3d, 0xc4, 0xd8, 0xb9, 0x3e, 0x8e, 0x42, 0x4e, 0x3e, 0xcc, 0x1b, 0x1f, 0xbe, 0xfc, 0x54, 0xe9, 0x3d, 0x80, 0x99, 0x9b, 0x3d, 0x1a, 0x04, 0x7e, 0xbe, 0x2f, 0x31, 0xc9, 0xbe, 0x73, 0x5e, 0xa3, 0x3e, 0x5e, 0x0e, 0x17, 0xbe, 0x40, 0x17, 0x1e, 0x3c, 0xbd, 0x30, 0x92, 0x3e, 0x6d, 0x0b, 0x0f, 0xbe, 0x20, 0x33, 0xce, 0x3e, 0x3c, 0x68, 0x37, 0xbc, 0x53, 0x7f, 0xbc, 0xbc, 0x40, 0x53, 0xbb, 0x3d, 0xaa, 0x1c, 0x49, 0x3e, 0xec, 0xb3, 0x23, 0xbe, 0xa5, 0xc6, 0xe5, 0xbe, 0xd0, 0x29, 0xf7, 0xbd, 0x5d, 0xd1, 0xa6, 0xbd, 0xa6, 0xc0, 0xb8, 0x3d, 0x15, 0xd2, 0x9f, 0x3e, 0x7c, 0xe1, 0x0a, 0xbe, 0xfc, 0x35, 0xed, 0xbd, 0x20, 0xff, 0x56, 0x3c, 0xfe, 0x21, 0xb0, 0xbb, 0x6d, 0x44, 0x81, 0x3e, 0x62, 0xb3, 0x81, 0xbe, 0x91, 0xb9, 0xa3, 0xbe, 0xd1, 0xd3, 0xee, 0xbe, 0x74, 0x8c, 0xec, 0x3d, 0xdb, 0x32, 0x05, 0xbf, 0x9c, 0xdf, 0x55, 0xbe, 0xb5, 0x7f, 0x36, 0xbf, 0xe0, 0x49, 0xaf, 0xbc, 0x36, 0xba, 0x80, 0x3e, 0x36, 0xa3, 0xb0, 0xbe, 0xf1, 0x0c, 0xd9, 0xbd, 0xc0, 0x7b, 0x0e, 0xbc, 0x84, 0xdd, 0x9c, 0x3d, 0x70, 0x73, 0x75, 0xbd, 0xe4, 0x3a, 0x94, 0x3e, 0xe8, 0x08, 0x59, 0x3d, 0x5a, 0x12, 0xc9, 0xbe, 0x8b, 0x6a, 0xa9, 0x3e, 0x6b, 0x92, 0x94, 0x3e, 0x40, 0xe8, 0x9b, 0xbd, 0x9d, 0x3e, 0x69, 0xbe, 0xe6, 0x24, 0x03, 0xbe, 0xd2, 0xa9, 0xcd, 0xbe, 0x31, 0xd9, 0x89, 0xbe, 0xb1, 0x97, 0x29, 0xbe, 0x92, 0x1f, 0xc5, 0xbd, 0x9b, 0x33, 0x8e, 0x3e, 0x70, 0x29, 0x6c, 0xbd, 0xac, 0x1d, 0xe7, 0x3c, 0x2c, 0x26, 0xa2, 0xbd, 0x85, 0x02, 0x70, 0xbd, 0x0a, 0x49, 0x4f, 0x3e, 0x40, 0x24, 0x96, 0xbd, 0xa4, 0xd0, 0x8d, 0xbe, 0x2e, 0x8a, 0x90, 0xbe, 0x35, 0x3c, 0xa2, 0x3e, 0x5f, 0xb1, 0x00, 0xbf, 0x60, 0x7b, 0x56, 0xbd, 0x28, 0xc3, 0x14, 0xbe, 0x45, 0x2c, 0x83, 0xbe, 0x8b, 0x33, 0x51, 0xbe, 0x10, 0x01, 0xfc, 0x3c, 0xd7, 0x23, 0x1f, 0x3e, 0xbe, 0x83, 0x31, 0x3e, 0xeb, 0x06, 0x99, 0xbe, 0xbb, 0xa6, 0x8e, 0x3e, 0x36, 0x35, 0x92, 0x3e, 0xf0, 0x7f, 0xe7, 0x3d, 0xcf, 0x4c, 0x49, 0x3e, 0x56, 0x37, 0x33, 0x3e, 0xf7, 0x15, 0x7a, 0x3c, 0xd1, 0x9a, 0x47, 0x3e, 0x70, 0x9a, 0x84, 0x3c, 0xe7, 0x49, 0x80, 0x3e, 0x18, 0xd0, 0x58, 0x3d, 0xfe, 0x94, 0x11, 0xbe, 0x68, 0x1f, 0x25, 0xbd, 0xda, 0x37, 0xd4, 0x3e, 0x18, 0x73, 0xf5, 0x3d, 0xa0, 0xe2, 0x93, 0x3d, 0x9d, 0x7e, 0xfc, 0x3e, 0xd0, 0xa7, 0x71, 0x3d, 0x31, 0x39, 0x71, 0xbe, 0x24, 0x65, 0x89, 0xbe, 0x64, 0x1d, 0x98, 0xbd, 0x33, 0xc2, 0x21, 0xbd, 0xac, 0x0c, 0xaa, 0xbe, 0x32, 0x4f, 0x13, 0x3e, 0x31, 0xcc, 0x37, 0xbf, 0xc8, 0x74, 0xac, 0xbd, 0xd5, 0x2a, 0xc0, 0xbc, 0x84, 0x84, 0x85, 0xbe, 0xa5, 0x55, 0x43, 0xbe, 0x65, 0x51, 0x00, 0xbe, 0x00, 0x3e, 0x46, 0x3e, 0xd4, 0x0f, 0x01, 0xbe, 0x57, 0xae, 0xab, 0x3e, 0x10, 0x64, 0x01, 0xbd, 0x79, 0xd4, 0x89, 0x3e, 0x60, 0x5d, 0xcc, 0x3d, 0x2f, 0x91, 0x12, 0x3e, 0xdd, 0x4b, 0xb7, 0x3e, 0xd2, 0xe4, 0x59, 0x3e, 0x84, 0x9b, 0x7d, 0xbd, 0x8f, 0xed, 0xa1, 0x3e, 0x00, 0x5f, 0xac, 0x3c, 0x38, 0x2a, 0x1c, 0x3d, 0x62, 0x9a, 0x86, 0xbe, 0x8b, 0xe7, 0x03, 0xbe, 0x0e, 0x7b, 0x06, 0x3e, 0xb6, 0xf3, 0x17, 0x3e, 0xaa, 0x46, 0x2d, 0x3e, 0x2f, 0x9a, 0xf8, 0xbe, 0x0f, 0x66, 0x2e, 0xbe, 0x0c, 0xe3, 0x13, 0x3e, 0x4f, 0x26, 0x81, 0xbe, 0x00, 0xb2, 0x89, 0xbb, 0x51, 0x8b, 0x22, 0x3e, 0x9a, 0xed, 0x73, 0x3e, 0x24, 0xf6, 0x8b, 0xbe, 0x5a, 0xc6, 0xde, 0x3e, 0xe0, 0xbb, 0x0b, 0xbc, 0xe5, 0xb8, 0x2d, 0x3e, 0x57, 0x98, 0x13, 0xbe, 0x1b, 0x9e, 0xda, 0xbd, 0xb4, 0x1b, 0xe9, 0xbd, 0xf1, 0x9a, 0x13, 0x3d, 0xc6, 0xb6, 0x4e, 0x3e, 0x12, 0xb7, 0x14, 0x3e, 0xf0, 0x21, 0x12, 0x3d, 0x82, 0x1a, 0x07, 0x3e, 0x2f, 0xfc, 0x61, 0xbe, 0xbe, 0xa6, 0x32, 0xbd, 0xb7, 0x25, 0x49, 0x3e, 0x00, 0x00, 0x06, 0x00, 0x08, 0x00, 0x04, 0x00, 0x06, 0x00, 0x00, 0x00, 0x04, 0x00, 0x00, 0x00, 0x40, 0x00, 0x00, 0x00, 0x6c, 0xd9, 0xc0, 0x3e, 0xb4, 0x49, 0x01, 0xbf, 0xf7, 0x3e, 0xd6, 0xbe, 0x3f, 0x52, 0xdd, 0x3e, 0xc5, 0xb5, 0x1a, 0xbf, 0x0c, 0x68, 0x8e, 0x3f, 0xb4, 0x03, 0x30, 0xbf, 0x75, 0x46, 0x9a, 0x3e, 0x27, 0x9a, 0x0b, 0x3f, 0xc3, 0xe8, 0x69, 0x3f, 0xbe, 0x5b, 0x0c, 0x3f, 0x59, 0x6a, 0x2a, 0x3f, 0x90, 0xcc, 0xa5, 0x3f, 0x82, 0x11, 0xb5, 0xbd, 0x83, 0x19, 0x29, 0xbe, 0x7a, 0x69, 0xc6, 0x3e, 0x40, 0xfb, 0xff, 0xff, 0x44, 0xfb, 0xff, 0xff, 0x0f, 0x00, 0x00, 0x00, 0x4d, 0x4c, 0x49, 0x52, 0x20, 0x43, 0x6f, 0x6e, 0x76, 0x65, 0x72, 0x74, 0x65, 0x64, 0x2e, 0x00, 0x01, 0x00, 0x00, 0x00, 0x14, 0x00, 0x00, 0x00, 0x00, 0x00, 0x0e, 0x00, 0x18, 0x00, 0x14, 0x00, 0x10, 0x00, 0x0c, 0x00, 0x08, 0x00, 0x04, 0x00, 0x0e, 0x00, 0x00, 0x00, 0x14, 0x00, 0x00, 0x00, 0x1c, 0x00, 0x00, 0x00, 0xd8, 0x00, 0x00, 0x00, 0xdc, 0x00, 0x00, 0x00, 0xe0, 0x00, 0x00, 0x00, 0x04, 0x00, 0x00, 0x00, 0x6d, 0x61, 0x69, 0x6e, 0x00, 0x00, 0x00, 0x00, 0x03, 0x00, 0x00, 0x00, 0x80, 0x00, 0x00, 0x00, 0x38, 0x00, 0x00, 0x00, 0x04, 0x00, 0x00, 0x00, 0x9a, 0xff, 0xff, 0xff, 0x10, 0x00, 0x00, 0x00, 0x00, 0x00, 0x00, 0x08, 0x0c, 0x00, 0x00, 0x00, 0x10, 0x00, 0x00, 0x00, 0xbc, 0xfb, 0xff, 0xff, 0x01, 0x00, 0x00, 0x00, 0x09, 0x00, 0x00, 0x00, 0x03, 0x00, 0x00, 0x00, 0x08, 0x00, 0x00, 0x00, 0x01, 0x00, 0x00, 0x00, 0x03, 0x00, 0x00, 0x00, 0xca, 0xff, 0xff, 0xff, 0x10, 0x00, 0x00, 0x00, 0x00, 0x00, 0x00, 0x08, 0x10, 0x00, 0x00, 0x00, 0x14, 0x00, 0x00, 0x00, 0xba, 0xff, 0xff, 0xff, 0x00, 0x00, 0x00, 0x01, 0x01, 0x00, 0x00, 0x00, 0x08, 0x00, 0x00, 0x00, 0x03, 0x00, 0x00, 0x00, 0x07, 0x00, 0x00, 0x00, 0x02, 0x00, 0x00, 0x00, 0x04, 0x00, 0x00, 0x00, 0x00, 0x00, 0x0e, 0x00, 0x16, 0x00, 0x00, 0x00, 0x10, 0x00, 0x0c, 0x00, 0x0b, 0x00, 0x04, 0x00, 0x0e, 0x00, 0x00, 0x00, 0x18, 0x00, 0x00, 0x00, 0x00, 0x00, 0x00, 0x08, 0x18, 0x00, 0x00, 0x00, 0x1c, 0x00, 0x00, 0x00, 0x00, 0x00, 0x06, 0x00, 0x08, 0x00, 0x07, 0x00, 0x06, 0x00, 0x00, 0x00, 0x00, 0x00, 0x00, 0x01, 0x01, 0x00, 0x00, 0x00, 0x07, 0x00, 0x00, 0x00, 0x03, 0x00, 0x00, 0x00, 0x00, 0x00, 0x00, 0x00, 0x06, 0x00, 0x00, 0x00, 0x05, 0x00, 0x00, 0x00, 0x01, 0x00, 0x00, 0x00, 0x09, 0x00, 0x00, 0x00, 0x01, 0x00, 0x00, 0x00, 0x00, 0x00, 0x00, 0x00, 0x0a, 0x00, 0x00, 0x00, 0x6c, 0x03, 0x00, 0x00, 0x14, 0x03, 0x00, 0x00, 0xbc, 0x02, 0x00, 0x00, 0x80, 0x02, 0x00, 0x00, 0x28, 0x02, 0x00, 0x00, 0xd4, 0x01, 0x00, 0x00, 0x88, 0x01, 0x00, 0x00, 0xf8, 0x00, 0x00, 0x00, 0x60, 0x00, 0x00, 0x00, 0x04, 0x00, 0x00, 0x00, 0xd2, 0xfc, 0xff, 0xff, 0x00, 0x00, 0x00, 0x01, 0x14, 0x00, 0x00, 0x00, 0x1c, 0x00, 0x00, 0x00, 0x1c, 0x00, 0x00, 0x00, 0x0a, 0x00, 0x00, 0x00, 0x34, 0x00, 0x00, 0x00, 0x02, 0x00, 0x00, 0x00, 0xff, 0xff, 0xff, 0xff, 0x01, 0x00, 0x00, 0x00, 0xbc, 0xfc, 0xff, 0xff, 0x1b, 0x00, 0x00, 0x00, 0x53, 0x74, 0x61, 0x74, 0x65, 0x66, 0x75, 0x6c, 0x50, 0x61, 0x72, 0x74, 0x69, 0x74, 0x69, 0x6f, 0x6e, 0x65, 0x64, 0x43, 0x61, 0x6c, 0x6c, 0x5f, 0x31, 0x3a, 0x30, 0x00, 0x02, 0x00, 0x00, 0x00, 0x01, 0x00, 0x00, 0x00, 0x01, 0x00, 0x00, 0x00, 0x2a, 0xfd, 0xff, 0xff, 0x00, 0x00, 0x00, 0x01, 0x14, 0x00, 0x00, 0x00, 0x1c, 0x00, 0x00, 0x00, 0x1c, 0x00, 0x00, 0x00, 0x09, 0x00, 0x00, 0x00, 0x70, 0x00, 0x00, 0x00, 0x02, 0x00, 0x00, 0x00, 0xff, 0xff, 0xff, 0xff, 0x10, 0x00, 0x00, 0x00, 0x14, 0xfd, 0xff, 0xff, 0x54, 0x00, 0x00, 0x00, 0x73, 0x65, 0x71, 0x75, 0x65, 0x6e, 0x74, 0x69, 0x61, 0x6c, 0x5f, 0x31, 0x2f, 0x64, 0x65, 0x6e, 0x73, 0x65, 0x5f, 0x31, 0x5f, 0x32, 0x2f, 0x4d, 0x61, 0x74, 0x4d, 0x75, 0x6c, 0x3b, 0x73, 0x65, 0x71, 0x75, 0x65, 0x6e, 0x74, 0x69, 0x61, 0x6c, 0x5f, 0x31, 0x2f, 0x64, 0x65, 0x6e, 0x73, 0x65, 0x5f, 0x31, 0x5f, 0x32, 0x2f, 0x52, 0x65, 0x6c, 0x75, 0x3b, 0x73, 0x65, 0x71, 0x75, 0x65, 0x6e, 0x74, 0x69, 0x61, 0x6c, 0x5f, 0x31, 0x2f, 0x64, 0x65, 0x6e, 0x73, 0x65, 0x5f, 0x31, 0x5f, 0x32, 0x2f, 0x41, 0x64, 0x64, 0x00, 0x00, 0x00, 0x00, 0x02, 0x00, 0x00, 0x00, 0x01, 0x00, 0x00, 0x00, 0x10, 0x00, 0x00, 0x00, 0xbe, 0xfd, 0xff, 0xff, 0x00, 0x00, 0x00, 0x01, 0x14, 0x00, 0x00, 0x00, 0x1c, 0x00, 0x00, 0x00, 0x1c, 0x00, 0x00, 0x00, 0x08, 0x00, 0x00, 0x00, 0x68, 0x00, 0x00, 0x00, 0x02, 0x00, 0x00, 0x00, 0xff, 0xff, 0xff, 0xff, 0x20, 0x00, 0x00, 0x00, 0xa8, 0xfd, 0xff, 0xff, 0x4e, 0x00, 0x00, 0x00, 0x73, 0x65, 0x71, 0x75, 0x65, 0x6e, 0x74, 0x69, 0x61, 0x6c, 0x5f, 0x31, 0x2f, 0x64, 0x65, 0x6e, 0x73, 0x65, 0x5f, 0x31, 0x2f, 0x4d, 0x61, 0x74, 0x4d, 0x75, 0x6c, 0x3b, 0x73, 0x65, 0x71, 0x75, 0x65, 0x6e, 0x74, 0x69, 0x61, 0x6c, 0x5f, 0x31, 0x2f, 0x64, 0x65, 0x6e, 0x73, 0x65, 0x5f, 0x31, 0x2f, 0x52, 0x65, 0x6c, 0x75, 0x3b, 0x73, 0x65, 0x71, 0x75, 0x65, 0x6e, 0x74, 0x69, 0x61, 0x6c, 0x5f, 0x31, 0x2f, 0x64, 0x65, 0x6e, 0x73, 0x65, 0x5f, 0x31, 0x2f, 0x41, 0x64, 0x64, 0x00, 0x00, 0x02, 0x00, 0x00, 0x00, 0x01, 0x00, 0x00, 0x00, 0x20, 0x00, 0x00, 0x00, 0x9e, 0xfe, 0xff, 0xff, 0x00, 0x00, 0x00, 0x01, 0x10, 0x00, 0x00, 0x00, 0x10, 0x00, 0x00, 0x00, 0x07, 0x00, 0x00, 0x00, 0x28, 0x00, 0x00, 0x00, 0x24, 0xfe, 0xff, 0xff, 0x1b, 0x00, 0x00, 0x00, 0x73, 0x65, 0x71, 0x75, 0x65, 0x6e, 0x74, 0x69, 0x61, 0x6c, 0x5f, 0x31, 0x2f, 0x64, 0x65, 0x6e, 0x73, 0x65, 0x5f, 0x31, 0x2f, 0x4d, 0x61, 0x74, 0x4d, 0x75, 0x6c, 0x00, 0x02, 0x00, 0x00, 0x00, 0x20, 0x00, 0x00, 0x00, 0x01, 0x00, 0x00, 0x00, 0xe6, 0xfe, 0xff, 0xff, 0x00, 0x00, 0x00, 0x01, 0x10, 0x00, 0x00, 0x00, 0x10, 0x00, 0x00, 0x00, 0x06, 0x00, 0x00, 0x00, 0x34, 0x00, 0x00, 0x00, 0x6c, 0xfe, 0xff, 0xff, 0x27, 0x00, 0x00, 0x00, 0x73, 0x65, 0x71, 0x75, 0x65, 0x6e, 0x74, 0x69, 0x61, 0x6c, 0x5f, 0x31, 0x2f, 0x64, 0x65, 0x6e, 0x73, 0x65, 0x5f, 0x31, 0x2f, 0x41, 0x64, 0x64, 0x2f, 0x52, 0x65, 0x61, 0x64, 0x56, 0x61, 0x72, 0x69, 0x61, 0x62, 0x6c, 0x65, 0x4f, 0x70, 0x00, 0x01, 0x00, 0x00, 0x00, 0x20, 0x00, 0x00, 0x00, 0x36, 0xff, 0xff, 0xff, 0x00, 0x00, 0x00, 0x01, 0x10, 0x00, 0x00, 0x00, 0x10, 0x00, 0x00, 0x00, 0x05, 0x00, 0x00, 0x00, 0x38, 0x00, 0x00, 0x00, 0xbc, 0xfe, 0xff, 0xff, 0x29, 0x00, 0x00, 0x00, 0x73, 0x65, 0x71, 0x75, 0x65, 0x6e, 0x74, 0x69, 0x61, 0x6c, 0x5f, 0x31, 0x2f, 0x64, 0x65, 0x6e, 0x73, 0x65, 0x5f, 0x31, 0x5f, 0x32, 0x2f, 0x41, 0x64, 0x64, 0x2f, 0x52, 0x65, 0x61, 0x64, 0x56, 0x61, 0x72, 0x69, 0x61, 0x62, 0x6c, 0x65, 0x4f, 0x70, 0x00, 0x00, 0x00, 0x01, 0x00, 0x00, 0x00, 0x10, 0x00, 0x00, 0x00, 0x8a, 0xff, 0xff, 0xff, 0x00, 0x00, 0x00, 0x01, 0x10, 0x00, 0x00, 0x00, 0x10, 0x00, 0x00, 0x00, 0x04, 0x00, 0x00, 0x00, 0x1c, 0x00, 0x00, 0x00, 0x10, 0xff, 0xff, 0xff, 0x0f, 0x00, 0x00, 0x00, 0x61, 0x72, 0x69, 0x74, 0x68, 0x2e, 0x63, 0x6f, 0x6e, 0x73, 0x74, 0x61, 0x6e, 0x74, 0x32, 0x00, 0x01, 0x00, 0x00, 0x00, 0x01, 0x00, 0x00, 0x00, 0xc2, 0xff, 0xff, 0xff, 0x00, 0x00, 0x00, 0x01, 0x10, 0x00, 0x00, 0x00, 0x10, 0x00, 0x00, 0x00, 0x03, 0x00, 0x00, 0x00, 0x1c, 0x00, 0x00, 0x00, 0x48, 0xff, 0xff, 0xff, 0x0f, 0x00, 0x00, 0x00, 0x61, 0x72, 0x69, 0x74, 0x68, 0x2e, 0x63, 0x6f, 0x6e, 0x73, 0x74, 0x61, 0x6e, 0x74, 0x31, 0x00, 0x02, 0x00, 0x00, 0x00, 0x10, 0x00, 0x00, 0x00, 0x20, 0x00, 0x00, 0x00, 0x00, 0x00, 0x16, 0x00, 0x18, 0x00, 0x14, 0x00, 0x00, 0x00, 0x10, 0x00, 0x0c, 0x00, 0x08, 0x00, 0x00, 0x00, 0x00, 0x00, 0x00, 0x00, 0x07, 0x00, 0x16, 0x00, 0x00, 0x00, 0x00, 0x00, 0x00, 0x01, 0x10, 0x00, 0x00, 0x00, 0x10, 0x00, 0x00, 0x00, 0x02, 0x00, 0x00, 0x00, 0x1c, 0x00, 0x00, 0x00, 0x9c, 0xff, 0xff, 0xff, 0x0e, 0x00, 0x00, 0x00, 0x61, 0x72, 0x69, 0x74, 0x68, 0x2e, 0x63, 0x6f, 0x6e, 0x73, 0x74, 0x61, 0x6e, 0x74, 0x00, 0x00, 0x02, 0x00, 0x00, 0x00, 0x01, 0x00, 0x00, 0x00, 0x10, 0x00, 0x00, 0x00, 0x00, 0x00, 0x16, 0x00, 0x1c, 0x00, 0x18, 0x00, 0x00, 0x00, 0x14, 0x00, 0x10, 0x00, 0x0c, 0x00, 0x00, 0x00, 0x00, 0x00, 0x08, 0x00, 0x07, 0x00, 0x16, 0x00, 0x00, 0x00, 0x00, 0x00, 0x00, 0x01, 0x14, 0x00, 0x00, 0x00, 0x20, 0x00, 0x00, 0x00, 0x20, 0x00, 0x00, 0x00, 0x01, 0x00, 0x00, 0x00, 0x3c, 0x00, 0x00, 0x00, 0x02, 0x00, 0x00, 0x00, 0xff, 0xff, 0xff, 0xff, 0x01, 0x00, 0x00, 0x00, 0x04, 0x00, 0x04, 0x00, 0x04, 0x00, 0x00, 0x00, 0x1e, 0x00, 0x00, 0x00, 0x73, 0x65, 0x72, 0x76, 0x69, 0x6e, 0x67, 0x5f, 0x64, 0x65, 0x66, 0x61, 0x75, 0x6c, 0x74, 0x5f, 0x6b, 0x65, 0x72, 0x61, 0x73, 0x5f, 0x74, 0x65, 0x6e, 0x73, 0x6f, 0x72, 0x3a, 0x30, 0x00, 0x00, 0x02, 0x00, 0x00, 0x00, 0x01, 0x00, 0x00, 0x00, 0x01, 0x00, 0x00, 0x00, 0x01, 0x00, 0x00, 0x00, 0x10, 0x00, 0x00, 0x00, 0x0c, 0x00, 0x0c, 0x00, 0x0b, 0x00, 0x00, 0x00, 0x00, 0x00, 0x04, 0x00, 0x0c, 0x00, 0x00, 0x00, 0x09, 0x00, 0x00, 0x00, 0x00, 0x00, 0x00, 0x09 };
