/** model size = 4688 bytes **/
const unsigned char modelData[] = { 0x1c, 0x00, 0x00, 0x00, 0x54, 0x46, 0x4c, 0x33, 0x14, 0x00, 0x20, 0x00, 0x1c, 0x00, 0x18, 0x00, 0x14, 0x00, 0x10, 0x00, 0x0c, 0x00, 0x00, 0x00, 0x08, 0x00, 0x04, 0x00, 0x14, 0x00, 0x00, 0x00, 0x1c, 0x00, 0x00, 0x00, 0x98, 0x00, 0x00, 0x00, 0xf0, 0x00, 0x00, 0x00, 0x14, 0x0d, 0x00, 0x00, 0x24, 0x0d, 0x00, 0x00, 0xfc, 0x11, 0x00, 0x00, 0x03, 0x00, 0x00, 0x00, 0x01, 0x00, 0x00, 0x00, 0x10, 0x00, 0x00, 0x00, 0x00, 0x00, 0x0a, 0x00, 0x10, 0x00, 0x0c, 0x00, 0x08, 0x00, 0x04, 0x00, 0x0a, 0x00, 0x00, 0x00, 0x0c, 0x00, 0x00, 0x00, 0x1c, 0x00, 0x00, 0x00, 0x3c, 0x00, 0x00, 0x00, 0x0f, 0x00, 0x00, 0x00, 0x73, 0x65, 0x72, 0x76, 0x69, 0x6e, 0x67, 0x5f, 0x64, 0x65, 0x66, 0x61, 0x75, 0x6c, 0x74, 0x00, 0x01, 0x00, 0x00, 0x00, 0x04, 0x00, 0x00, 0x00, 0x90, 0xff, 0xff, 0xff, 0x09, 0x00, 0x00, 0x00, 0x04, 0x00, 0x00, 0x00, 0x08, 0x00, 0x00, 0x00, 0x6f, 0x75, 0x74, 0x70, 0x75, 0x74, 0x5f, 0x30, 0x00, 0x00, 0x00, 0x00, 0x01, 0x00, 0x00, 0x00, 0x04, 0x00, 0x00, 0x00, 0xba, 0xf3, 0xff, 0xff, 0x04, 0x00, 0x00, 0x00, 0x0c, 0x00, 0x00, 0x00, 0x6b, 0x65, 0x72, 0x61, 0x73, 0x5f, 0x74, 0x65, 0x6e, 0x73, 0x6f, 0x72, 0x00, 0x00, 0x00, 0x00, 0x02, 0x00, 0x00, 0x00, 0x34, 0x00, 0x00, 0x00, 0x04, 0x00, 0x00, 0x00, 0xdc, 0xff, 0xff, 0xff, 0x0c, 0x00, 0x00, 0x00, 0x04, 0x00, 0x00, 0x00, 0x13, 0x00, 0x00, 0x00, 0x43, 0x4f, 0x4e, 0x56, 0x45, 0x52, 0x53, 0x49, 0x4f, 0x4e, 0x5f, 0x4d, 0x45, 0x54, 0x41, 0x44, 0x41, 0x54, 0x41, 0x00, 0x08, 0x00, 0x0c, 0x00, 0x08, 0x00, 0x04, 0x00, 0x08, 0x00, 0x00, 0x00, 0x0b, 0x00, 0x00, 0x00, 0x04, 0x00, 0x00, 0x00, 0x13, 0x00, 0x00, 0x00, 0x6d, 0x69, 0x6e, 0x5f, 0x72, 0x75, 0x6e, 0x74, 0x69, 0x6d, 0x65, 0x5f, 0x76, 0x65, 0x72, 0x73, 0x69, 0x6f, 0x6e, 0x00, 0x0d, 0x00, 0x00, 0x00, 0x20, 0x0c, 0x00, 0x00, 0x18, 0x0c, 0x00, 0x00, 0xc8, 0x0b, 0x00, 0x00, 0xb0, 0x03, 0x00, 0x00, 0x9c, 0x03, 0x00, 0x00, 0x4c, 0x03, 0x00, 0x00, 0xbc, 0x02, 0x00, 0x00, 0xac, 0x00, 0x00, 0x00, 0xa4, 0x00, 0x00, 0x00, 0x9c, 0x00, 0x00, 0x00, 0x94, 0x00, 0x00, 0x00, 0x74, 0x00, 0x00, 0x00, 0x04, 0x00, 0x00, 0x00, 0x6a, 0xf4, 0xff, 0xff, 0x04, 0x00, 0x00, 0x00, 0x60, 0x00, 0x00, 0x00, 0x10, 0x00, 0x00, 0x00, 0x00, 0x00, 0x00, 0x00, 0x08, 0x00, 0x0e, 0x00, 0x08, 0x00, 0x04, 0x00, 0x08, 0x00, 0x00, 0x00, 0x10, 0x00, 0x00, 0x00, 0x24, 0x00, 0x00, 0x00, 0x00, 0x00, 0x06, 0x00, 0x08, 0x00, 0x04, 0x00, 0x06, 0x00, 0x00, 0x00, 0x04, 0x00, 0x00, 0x00, 0x00, 0x00, 0x00, 0x00, 0x0c, 0x00, 0x18, 0x00, 0x14, 0x00, 0x10, 0x00, 0x0c, 0x00, 0x04, 0x00, 0x0c, 0x00, 0x00, 0x00, 0x81, 0x73, 0x35, 0xf5, 0x27, 0x00, 0xc7, 0x45, 0x02, 0x00, 0x00, 0x00, 0x02, 0x00, 0x00, 0x00, 0x04, 0x00, 0x00, 0x00, 0x06, 0x00, 0x00, 0x00, 0x32, 0x2e, 0x31, 0x37, 0x2e, 0x30, 0x00, 0x00, 0xd6, 0xf4, 0xff, 0xff, 0x04, 0x00, 0x00, 0x00, 0x10, 0x00, 0x00, 0x00, 0x31, 0x2e, 0x35, 0x2e, 0x30, 0x00, 0x00, 0x00, 0x00, 0x00, 0x00, 0x00, 0x00, 0x00, 0x00, 0x00, 0xe0, 0xef, 0xff, 0xff, 0xe4, 0xef, 0xff, 0xff, 0xe8, 0xef, 0xff, 0xff, 0xfe, 0xf4, 0xff, 0xff, 0x04, 0x00, 0x00, 0x00, 0x00, 0x02, 0x00, 0x00, 0x8a, 0xf7, 0xb7, 0xbe, 0x00, 0x5d, 0x66, 0x3d, 0x98, 0xd0, 0x7c, 0x3e, 0x2b, 0x57, 0xa2, 0xbe, 0x8e, 0x02, 0x94, 0x3e, 0xaf, 0xba, 0xe5, 0x3d, 0x83, 0x67, 0xb1, 0xbe, 0x65, 0xf4, 0x28, 0xbd, 0x2a, 0x18, 0x8c, 0x3e, 0x48, 0x79, 0x98, 0x3d, 0xb2, 0xee, 0xa9, 0xbe, 0x88, 0xab, 0xc7, 0xbe, 0x3e, 0xf5, 0xbe, 0x3e, 0x3a, 0x2d, 0x3e, 0xbe, 0x7b, 0xf6, 0x59, 0xbe, 0x94, 0xdc, 0x36, 0xbd, 0xa8, 0x4e, 0x2c, 0xbe, 0xdf, 0x28, 0x9e, 0x3e, 0x5c, 0x47, 0x1e, 0xbe, 0x38, 0x43, 0x49, 0x3e, 0xaf, 0x20, 0x03, 0x3e, 0x9a, 0x98, 0x9e, 0x3e, 0x74, 0xef, 0x9b, 0x3e, 0x4f, 0x74, 0xac, 0x3e, 0x24, 0x25, 0xb3, 0x3d, 0x40, 0xcc, 0x0d, 0xbc, 0x60, 0x1d, 0xd2, 0xbc, 0x28, 0x68, 0x80, 0xbd, 0xe0, 0x1d, 0x56, 0x3d, 0xa0, 0x68, 0xf2, 0x3c, 0xbc, 0x82, 0x37, 0x3e, 0x01, 0xa3, 0xc0, 0xbe, 0x5e, 0x74, 0xad, 0xbe, 0x5d, 0x5e, 0x98, 0x3e, 0xb5, 0x0f, 0x8e, 0x3e, 0xd4, 0x75, 0xf8, 0x3d, 0x37, 0x67, 0xef, 0xbe, 0x84, 0xb2, 0x85, 0xbe, 0x94, 0x09, 0x9d, 0x3e, 0x43, 0x86, 0x53, 0x3e, 0x80, 0x85, 0xa4, 0xbd, 0xfc, 0xf3, 0x6b, 0xbe, 0x64, 0x6d, 0xce, 0xbd, 0x9d, 0x4f, 0xcb, 0xbe, 0x61, 0x90, 0x80, 0x3d, 0xd9, 0xe2, 0xc7, 0x3d, 0x35, 0x8a, 0x21, 0x3d, 0x73, 0xee, 0x97, 0xbd, 0xf0, 0x78, 0xb4, 0xbe, 0x64, 0xa5, 0x89, 0xbd, 0x66, 0x95, 0xcb, 0xbe, 0x68, 0xa8, 0xb1, 0xbe, 0x19, 0x43, 0x09, 0x3e, 0x12, 0x37, 0xc1, 0x3e, 0xc9, 0x2e, 0x8b, 0xbe, 0x5b, 0x1a, 0x1d, 0xbd, 0x53, 0x78, 0xa7, 0xbe, 0x43, 0x54, 0x21, 0x3e, 0x43, 0xe6, 0x8f, 0xbe, 0xc7, 0x35, 0x3d, 0x3e, 0xd8, 0xd8, 0x4d, 0x3e, 0x7a, 0xd5, 0xc4, 0xbe, 0x3f, 0x93, 0x6f, 0x3e, 0x62, 0x98, 0xb1, 0x3d, 0xc5, 0x9c, 0xb6, 0xbe, 0x6f, 0x8e, 0x6b, 0xbe, 0x0e, 0xd7, 0x04, 0xbe, 0xc3, 0x11, 0xc8, 0xbe, 0x04, 0xd1, 0xf9, 0xbd, 0x24, 0x15, 0x3a, 0xbe, 0x9f, 0x86, 0x92, 0xbe, 0xe4, 0x64, 0xfc, 0xbd, 0x0a, 0x2d, 0x94, 0xbe, 0x76, 0xa6, 0x84, 0x3e, 0x73, 0x4b, 0x12, 0xbd, 0x00, 0x8c, 0x5a, 0xbd, 0x04, 0x83, 0x90, 0xbe, 0xc0, 0xa4, 0x93, 0xbe, 0x91, 0xe1, 0xb8, 0xbe, 0xb8, 0x6f, 0x4d, 0xbe, 0x20, 0xe5, 0xb5, 0x3e, 0xc9, 0xfb, 0xb6, 0xbc, 0x3d, 0x3c, 0xae, 0x3d, 0x10, 0xa7, 0x2f, 0x3e, 0x1a, 0x30, 0xa8, 0x3e, 0x5e, 0xfb, 0xcd, 0xbd, 0x28, 0xb0, 0x0f, 0xbd, 0xe7, 0x51, 0x17, 0xbe, 0xbc, 0x5c, 0x41, 0x3e, 0xc7, 0x3f, 0xe9, 0xbe, 0xf0, 0xa0, 0x7b, 0xbe, 0xac, 0xf7, 0xac, 0x3d, 0x8b, 0xbb, 0x65, 0xbd, 0xe7, 0xcd, 0x2b, 0x3e, 0x2b, 0x71, 0xd3, 0xbe, 0xb6, 0x72, 0xd2, 0x3d, 0x1c, 0xb1, 0x50, 0xbe, 0xec, 0x3a, 0x86, 0x3e, 0x34, 0x6f, 0x1b, 0x3e, 0xb9, 0xa3, 0xa3, 0xbe, 0x18, 0xbb, 0x0c, 0x3e, 0x44, 0xa0, 0xf8, 0xbd, 0xea, 0x29, 0x82, 0xbe, 0x88, 0x1b, 0xc9, 0xbe, 0x7e, 0xfe, 0x9d, 0x3e, 0xab, 0xc3, 0xa6, 0xbe, 0xd0, 0xea, 0x71, 0xbe, 0x63, 0x90, 0x2d, 0xbc, 0x9c, 0x9d, 0xff, 0xbd, 0xfe, 0xc8, 0xa6, 0x3e, 0xb2, 0x4b, 0x15, 0xbe, 0x5e, 0x09, 0xac, 0xbe, 0x5b, 0x38, 0xad, 0xbe, 0x1a, 0x4d, 0x0c, 0xbe, 0xca, 0xf4, 0x62, 0x3e, 0xe7, 0xc6, 0xf6, 0x3d, 0x90, 0xf6, 0x21, 0x3e, 0x60, 0xbc, 0xb4, 0xbe, 0x24, 0xbf, 0xd7, 0xbd, 0x50, 0x07, 0xb2, 0xbd, 0x89, 0x92, 0xa4, 0xbe, 0x36, 0x98, 0x80, 0x3e, 0xfc, 0x7d, 0x4e, 0x3e, 0x3b, 0x9a, 0x44, 0xbe, 0x58, 0xb1, 0x5a, 0xbd, 0x7e, 0x09, 0x76, 0xbe, 0x88, 0x4e, 0x41, 0x3d, 0xa0, 0x34, 0x75, 0xbc, 0x0a, 0xf7, 0xff, 0xff, 0x04, 0x00, 0x00, 0x00, 0x80, 0x00, 0x00, 0x00, 0x00, 0x00, 0x00, 0x00, 0x86, 0xd2, 0x50, 0xbe, 0x00, 0x00, 0x00, 0x00, 0x99, 0x6d, 0x1f, 0x3d, 0xe4, 0x0f, 0x83, 0x3c, 0x66, 0xa0, 0x8b, 0x3d, 0x00, 0x00, 0x00, 0x00, 0x00, 0x00, 0x00, 0x00, 0xe0, 0x8c, 0x59, 0xbe, 0x7d, 0x85, 0x25, 0xbe, 0x00, 0x00, 0x00, 0x00, 0x29, 0xd6, 0x94, 0xbd, 0x00, 0x00, 0x00, 0x00, 0x28, 0x0e, 0x8d, 0xbc, 0x5f, 0x26, 0x31, 0x3e, 0x19, 0x37, 0x01, 0xbe, 0x00, 0x00, 0x00, 0x00, 0x00, 0x00, 0x00, 0x00, 0x81, 0x09, 0xfe, 0xbc, 0x00, 0x00, 0x00, 0x00, 0xe7, 0x29, 0xb3, 0xbd, 0x10, 0x44, 0x93, 0xbb, 0x47, 0x9e, 0x42, 0x3e, 0x9d, 0xa2, 0xe5, 0xbd, 0x00, 0x00, 0x00, 0x00, 0x00, 0x00, 0x00, 0x00, 0x42, 0xa6, 0xb4, 0x3d, 0x00, 0x00, 0x00, 0x00, 0x05, 0xf8, 0x7a, 0xbe, 0x00, 0x00, 0x00, 0x00, 0x00, 0x00, 0x00, 0x00, 0x00, 0x00, 0x00, 0x00, 0x96, 0xf7, 0xff, 0xff, 0x04, 0x00, 0x00, 0x00, 0x40, 0x00, 0x00, 0x00, 0x82, 0x65, 0x58, 0x3d, 0x8a, 0x0e, 0x02, 0xbd, 0x00, 0x00, 0x00, 0x00, 0x26, 0x70, 0xb3, 0xbd, 0x17, 0x4e, 0x9a, 0x3d, 0x00, 0x00, 0x00, 0x00, 0x00, 0x00, 0x00, 0x00, 0x00, 0x00, 0x00, 0x00, 0x00, 0x00, 0x00, 0x00, 0x27, 0x80, 0x44, 0x3c, 0x00, 0x00, 0x00, 0x00, 0x4d, 0x76, 0x7e, 0xbd, 0x97, 0x7e, 0xb7, 0xbc, 0x77, 0xe2, 0x72, 0xbd, 0x6b, 0xa9, 0xb2, 0x3e, 0x54, 0x34, 0xbe, 0x3e, 0xe2, 0xf7, 0xff, 0xff, 0x04, 0x00, 0x00, 0x00, 0x04, 0x00, 0x00, 0x00, 0xb0, 0x56, 0x9f, 0x3d, 0xf2, 0xf7, 0xff, 0xff, 0x04, 0x00, 0x00, 0x00, 0x00, 0x08, 0x00, 0x00, 0xa8, 0xd8, 0x07, 0xbd, 0x17, 0x8d, 0x05, 0x3e, 0x57, 0x92, 0xae, 0xbe, 0x80, 0xef, 0x53, 0x3e, 0xf9, 0x34, 0x99, 0x3e, 0x27, 0x21, 0x2d, 0x3e, 0x3a, 0x42, 0x4f, 0x3e, 0x48, 0x13, 0xaa, 0xbe, 0xd0, 0xb6, 0xb9, 0xbd, 0xf5, 0xdb, 0xb3, 0x3e, 0x4e, 0xf3, 0x54, 0x3e, 0x1d, 0x73, 0x20, 0x3e, 0xe3, 0x13, 0x87, 0x3e, 0x77, 0xed, 0xa8, 0xbe, 0x06, 0xab, 0xe3, 0x3c, 0xd8, 0xd9, 0x6b, 0xbe, 0x27, 0xf9, 0x9d, 0x3e, 0xe6, 0xd8, 0x2a, 0x3e, 0x6b, 0x58, 0x85, 0xbe, 0x02, 0xde, 0x5a, 0x3e, 0x0f, 0x4b, 0x58, 0xbd, 0x60, 0x1d, 0x20, 0xbd, 0x44, 0x3b, 0x41, 0x3e, 0x61, 0x3c, 0xfc, 0xbc, 0xa0, 0xc1, 0xc8, 0xbd, 0x18, 0x2c, 0xc9, 0xbd, 0x71, 0x8b, 0x5f, 0xbe, 0x00, 0x94, 0x28, 0xbb, 0x98, 0xcf, 0x94, 0xbd, 0x2e, 0x23, 0x4b, 0x3e, 0x91, 0xab, 0x90, 0xbe, 0x8b, 0x19, 0xa0, 0x3e, 0x2e, 0x92, 0x6d, 0x3e, 0x5a, 0xc0, 0x15, 0x3d, 0xe1, 0xba, 0x99, 0xbe, 0xb4, 0x53, 0x18, 0x3d, 0x6c, 0x46, 0x27, 0x3c, 0x3a, 0x35, 0xa5, 0xbd, 0xfc, 0x6c, 0xbd, 0x3d, 0x08, 0xd7, 0x1c, 0xbd, 0x82, 0x6e, 0x52, 0xbe, 0x98, 0x67, 0xb0, 0xbe, 0xe7, 0xd7, 0x3f, 0xbe, 0x98, 0x61, 0x11, 0xbe, 0x19, 0x00, 0xad, 0x3e, 0xb0, 0x38, 0x53, 0x3e, 0xa6, 0x1b, 0x15, 0x3e, 0x63, 0xdb, 0x70, 0xbe, 0x9f, 0x67, 0x05, 0xbe, 0x2d, 0xbe, 0xb3, 0x3e, 0xec, 0x0a, 0xa0, 0xbd, 0x00, 0x75, 0x66, 0xbd, 0xd4, 0x66, 0xa7, 0xbd, 0xe0, 0x30, 0xf9, 0x3c, 0x48, 0x3d, 0xd9, 0x3d, 0x4e, 0x2c, 0x8e, 0x3e, 0x1b, 0x99, 0xb2, 0xbe, 0x96, 0x24, 0x60, 0xbe, 0x33, 0x37, 0x9e, 0x3e, 0xfd, 0x80, 0x83, 0x3e, 0x50, 0xa2, 0x8a, 0xbd, 0xbe, 0xff, 0xfe, 0xbd, 0x80, 0xd2, 0xb0, 0xbd, 0x1c, 0xfa, 0x43, 0xbe, 0xb7, 0x70, 0x20, 0xbe, 0x08, 0x60, 0x03, 0x3e, 0x95, 0x05, 0x15, 0xbe, 0x7f, 0x99, 0xb3, 0x3e, 0x13, 0x40, 0x2e, 0xbe, 0xfd, 0xdb, 0xaa, 0xbe, 0x49, 0xe6, 0x65, 0xbe, 0x96, 0x32, 0x3c, 0x3e, 0xb8, 0x48, 0x33, 0x3d, 0xc4, 0xd8, 0x9d, 0xbe, 0x2e, 0x84, 0x5f, 0x3e, 0xfa, 0xc4, 0x55, 0x3e, 0x58, 0x02, 0x0b, 0x3e, 0xb6, 0xdd, 0xd9, 0xbd, 0x00, 0xea, 0x06, 0x3d, 0xbf, 0xce, 0x77, 0xbe, 0xa0, 0x2f, 0x54, 0x3c, 0x33, 0x28, 0x83, 0x3e, 0x75, 0xaf, 0xa7, 0x3e, 0xc3, 0x0b, 0xac, 0x3e, 0x20, 0xe3, 0x9d, 0x3c, 0xa7, 0xf7, 0x81, 0x3e, 0xe1, 0x60, 0x92, 0xbe, 0x52, 0x23, 0x85, 0xbe, 0x06, 0xa1, 0x7d, 0x3e, 0xee, 0xb7, 0x4f, 0x3e, 0x40, 0xe0, 0xd2, 0x3c, 0x10, 0xd4, 0x3a, 0xbe, 0x80, 0x74, 0x9b, 0xbc, 0xee, 0x97, 0x29, 0x3e, 0xf1, 0x69, 0x81, 0x3e, 0x1a, 0x71, 0x3b, 0x3e, 0xe1, 0xa1, 0x10, 0xbe, 0xb7, 0xc0, 0xb4, 0x3d, 0x58, 0xfd, 0x2a, 0x3d, 0x34, 0x71, 0x83, 0x3d, 0x10, 0x75, 0x60, 0x3e, 0xf8, 0xa6, 0x86, 0xbe, 0xc0, 0x71, 0x5d, 0xbc, 0x40, 0x42, 0xca, 0x3d, 0x09, 0x48, 0xd0, 0xbd, 0x2f, 0x94, 0x2c, 0xbd, 0xb0, 0x59, 0xc3, 0x3d, 0x01, 0x48, 0xe8, 0xbc, 0x29, 0x16, 0x98, 0xbe, 0xd9, 0x79, 0x3a, 0x3d, 0xe2, 0x67, 0x4f, 0x3e, 0x70, 0x6e, 0x88, 0x3e, 0x07, 0x99, 0xb0, 0x3e, 0x2a, 0x36, 0x3d, 0x3e, 0xb5, 0xfe, 0xf8, 0x3d, 0xb8, 0x51, 0xc5, 0xbd, 0xac, 0x29, 0x88, 0x3e, 0xf6, 0x3d, 0x8b, 0x3e, 0x56, 0xb4, 0xac, 0x3d, 0x79, 0x65, 0xc2, 0xbd, 0x48, 0xd3, 0x33, 0xbe, 0xfb, 0xbb, 0x91, 0xbe, 0x5f, 0xe3, 0x03, 0xbe, 0xbe, 0xb9, 0x65, 0x3e, 0x0b, 0x36, 0xb4, 0x3d, 0xe4, 0x8b, 0xa9, 0x3d, 0x28, 0x98, 0x10, 0x3d, 0x8c, 0xd0, 0xec, 0xbd, 0x06, 0x19, 0xa2, 0xbe, 0xa1, 0x1d, 0x98, 0x3d, 0xb2, 0x98, 0x66, 0x3e, 0x77, 0x07, 0x3f, 0x3e, 0x53, 0x9d, 0xa1, 0x3e, 0x35, 0xdf, 0x04, 0x3d, 0x76, 0x73, 0x5d, 0x3e, 0xb6, 0x4e, 0x4e, 0x3e, 0xe5, 0xc3, 0xd1, 0xbd, 0x5b, 0xea, 0x58, 0xbe, 0x75, 0xda, 0x9a, 0x3e, 0xd6, 0xff, 0x8c, 0xbd, 0x2b, 0x80, 0xb4, 0x3e, 0x68, 0xdf, 0x7b, 0x3e, 0xd0, 0xf1, 0x9a, 0x3e, 0xc7, 0x8f, 0xd0, 0x3d, 0xd9, 0x41, 0x57, 0xbe, 0x32, 0x50, 0x84, 0xbe, 0xf5, 0x59, 0x03, 0xbe, 0xa0, 0xf2, 0x4a, 0xbe, 0x50, 0x5a, 0x4e, 0xbe, 0xd1, 0xdd, 0x60, 0x3e, 0xe0, 0xbe, 0xa5, 0x3d, 0xad, 0x87, 0x12, 0xbe, 0x3a, 0xb5, 0x55, 0xbe, 0x30, 0x55, 0x59, 0xbd, 0x84, 0x47, 0x15, 0xbe, 0xe0, 0x63, 0x95, 0x3d, 0x99, 0x19, 0x02, 0x3e, 0x40, 0x4e, 0x2f, 0xbc, 0xcd, 0xab, 0x83, 0xbe, 0xe0, 0x87, 0x61, 0xbd, 0x6c, 0x39, 0x9f, 0xbe, 0x60, 0x71, 0x38, 0x3c, 0xbc, 0x1e, 0xbb, 0xbd, 0x49, 0x6c, 0x80, 0x3e, 0xb7, 0x7b, 0x9d, 0xbe, 0xec, 0x05, 0x9c, 0xbe, 0x44, 0x5d, 0xce, 0xbd, 0x38, 0x32, 0x8c, 0xbe, 0x2e, 0xdf, 0x4a, 0xbe, 0xb6, 0x4c, 0x65, 0xbe, 0x64, 0x46, 0x8f, 0xbe, 0xae, 0xa4, 0xea, 0xbd, 0x72, 0xed, 0x4d, 0x3e, 0xc0, 0xbc, 0xe4, 0x3c, 0x13, 0x46, 0x88, 0xbe, 0xa2, 0xc8, 0x26, 0xbe, 0x66, 0xd1, 0x5b, 0x3e, 0x7a, 0x04, 0x55, 0x3e, 0xf5, 0x9d, 0xa1, 0x3e, 0x18, 0x0a, 0x24, 0xbd, 0xe4, 0x97, 0x98, 0x3d, 0xe0, 0x66, 0x86, 0xbe, 0xa2, 0x24, 0x68, 0x3e, 0x22, 0x72, 0x7f, 0x3e, 0xf8, 0x7f, 0x38, 0xbe, 0x7c, 0xdc, 0x20, 0xbe, 0x18, 0x5a, 0xdb, 0x3d, 0xee, 0x30, 0x81, 0xbe, 0x51, 0x0f, 0x82, 0xbe, 0xf4, 0x4e, 0xb9, 0x3d, 0x0c, 0x1b, 0xdf, 0x3d, 0x58, 0x39, 0x84, 0xbe, 0x32, 0x05, 0xa4, 0xbe, 0x50, 0x79, 0x07, 0x3e, 0x96, 0x89, 0x4c, 0x3e, 0x96, 0xb0, 0x4d, 0x3e, 0x20, 0x95, 0x9c, 0xbd, 0x38, 0x96, 0x09, 0x3d, 0xb6, 0xe4, 0x6a, 0x3e, 0x69, 0x63, 0x9f, 0x3e, 0x10, 0xc9, 0x86, 0xbc, 0xf6, 0x4a, 0xe2, 0xbd, 0x16, 0x60, 0x41, 0x3e, 0x3b, 0xd4, 0x05, 0xbe, 0xe7, 0xa7, 0x96, 0xbe, 0xde, 0x5b, 0x59, 0x3e, 0xa6, 0x51, 0x02, 0x3e, 0x57, 0x30, 0x11, 0xbe, 0x7d, 0xc5, 0x9e, 0x3e, 0x27, 0xe5, 0x9d, 0x3e, 0xb5, 0xd2, 0x80, 0xbe, 0xcf, 0xf1, 0x74, 0xbe, 0x65, 0x77, 0x0e, 0xbe, 0x99, 0xa2, 0x66, 0xbe, 0xe0, 0xa5, 0xc6, 0x3c, 0xbc, 0xb1, 0x87, 0xbe, 0x17, 0x80, 0x71, 0xbe, 0xd0, 0x6c, 0xad, 0xbe, 0x40, 0xfc, 0xac, 0xbe, 0xe4, 0x51, 0xdc, 0x3d, 0xf0, 0x8a, 0x0f, 0x3d, 0xfd, 0xd0, 0xaa, 0x3e, 0xff, 0xfc, 0x9a, 0x3e, 0x18, 0x79, 0xef, 0x3d, 0xec, 0xee, 0xc3, 0xbd, 0x99, 0xa4, 0xab, 0x3e, 0x60, 0x00, 0x80, 0x3c, 0x77, 0x44, 0x1e, 0xbe, 0x7f, 0x67, 0x0c, 0xbe, 0xd0, 0x40, 0xd2, 0x3c, 0x01, 0x32, 0xb1, 0x3e, 0x00, 0x80, 0xf1, 0x38, 0xfb, 0xd6, 0x42, 0xbe, 0xb0, 0x2d, 0x0b, 0xbd, 0x13, 0xff, 0xa5, 0x3e, 0x90, 0xa7, 0xeb, 0x3d, 0x36, 0xb3, 0x17, 0x3e, 0x02, 0x31, 0x14, 0xbe, 0x40, 0xf1, 0xb1, 0x3b, 0x9d, 0x8d, 0xac, 0xbe, 0xb8, 0x63, 0x36, 0xbe, 0x00, 0xd2, 0xea, 0xbc, 0x00, 0x12, 0x67, 0x3d, 0x44, 0x5f, 0x97, 0x3d, 0x24, 0x14, 0x9f, 0xbd, 0x20, 0xc7, 0x3d, 0x3c, 0xa8, 0xa6, 0xaa, 0xbe, 0xc8, 0x66, 0x44, 0xbe, 0x98, 0xbf, 0x4c, 0xbe, 0xa5, 0xe1, 0xa0, 0x3e, 0xd0, 0xce, 0x42, 0xbd, 0x75, 0x35, 0x82, 0x3e, 0x2c, 0x59, 0x6a, 0xbe, 0xcd, 0xfe, 0x91, 0x3e, 0x8f, 0x73, 0xb0, 0xbe, 0x96, 0x14, 0xd4, 0xbd, 0xb4, 0x6b, 0x8d, 0xbe, 0x5e, 0xe6, 0x77, 0xbe, 0x05, 0x05, 0xaa, 0x3e, 0x33, 0xb9, 0x3d, 0xbe, 0xd2, 0xa3, 0x90, 0xbe, 0x40, 0x27, 0x67, 0x3c, 0xb8, 0x39, 0x41, 0xbe, 0xfe, 0x9e, 0x95, 0xbe, 0x08, 0x0a, 0x74, 0xbe, 0x77, 0x03, 0x21, 0xbe, 0x7c, 0x07, 0xa5, 0xbe, 0x22, 0xa2, 0x2f, 0x3e, 0x90, 0xff, 0x0d, 0x3d, 0x90, 0x35, 0x91, 0xbe, 0x5d, 0x73, 0xa9, 0x3e, 0x81, 0x0f, 0x91, 0x3e, 0x5c, 0x99, 0xa8, 0x3d, 0x2f, 0x67, 0xac, 0xbe, 0x6a, 0x12, 0x77, 0x3e, 0xe0, 0xe3, 0xe3, 0x3c, 0x68, 0xae, 0x55, 0xbd, 0xa8, 0x46, 0x4a, 0x3d, 0xc1, 0x01, 0x94, 0x3e, 0xe0, 0xed, 0x91, 0xbe, 0x70, 0xd4, 0xe3, 0xbc, 0xa9, 0xd7, 0x32, 0xbe, 0x00, 0xb9, 0x72, 0x3c, 0xdc, 0xa6, 0xe1, 0x3d, 0x79, 0xad, 0x93, 0x3e, 0x1a, 0xbe, 0xd6, 0xbd, 0x4b, 0x8d, 0xae, 0x3e, 0x97, 0x9a, 0x68, 0xbe, 0x46, 0x6c, 0x29, 0xbe, 0x06, 0xbc, 0xb8, 0xbe, 0xc8, 0x20, 0x8d, 0xbe, 0xa2, 0x59, 0xab, 0xbe, 0xb7, 0xe2, 0x84, 0xbe, 0xeb, 0x71, 0x1f, 0x3d, 0x3a, 0x8f, 0x32, 0xbe, 0xc4, 0x2a, 0x96, 0xbe, 0x6e, 0xa6, 0x87, 0x3e, 0x4d, 0x4b, 0x24, 0x3e, 0x92, 0x7a, 0xf5, 0xbd, 0x42, 0x04, 0x4b, 0xbe, 0x4a, 0x41, 0x36, 0x3e, 0x3e, 0x50, 0xe2, 0xbd, 0x3a, 0x99, 0xea, 0xbd, 0x1a, 0x22, 0x50, 0x3e, 0x16, 0xe1, 0x27, 0x3e, 0x98, 0x4c, 0xb3, 0xbd, 0xe0, 0xaf, 0x0c, 0xbd, 0x67, 0xc7, 0xb3, 0xbe, 0xb9, 0x6b, 0x2a, 0xbe, 0xa6, 0xa1, 0x7f, 0xbe, 0xc4, 0x3d, 0x5e, 0xbe, 0xa8, 0x14, 0x82, 0x3e, 0x23, 0x55, 0x92, 0xbe, 0x4b, 0x8d, 0x83, 0x3e, 0x90, 0x2f, 0xae, 0xbd, 0x20, 0xc2, 0x93, 0xbe, 0xd7, 0xa5, 0x13, 0xbe, 0xb7, 0xe3, 0xb0, 0xbe, 0x7e, 0xee, 0xb1, 0xbe, 0xa7, 0xe3, 0xab, 0xbe, 0x65, 0x34, 0x5a, 0xbe, 0x20, 0xd3, 0xc1, 0x3c, 0x68, 0x1f, 0xa4, 0xbd, 0x60, 0x11, 0xa7, 0x3c, 0xef, 0x7f, 0x3b, 0xbe, 0x22, 0x60, 0xa2, 0xbe, 0x7a, 0x82, 0x58, 0xbe, 0x6c, 0x68, 0x95, 0xbd, 0x5a, 0x34, 0x1c, 0x3e, 0x16, 0xde, 0x75, 0x3e, 0xe8, 0x99, 0x31, 0xbd, 0xc9, 0xd3, 0xb3, 0x3e, 0xcd, 0x86, 0x9a, 0xbe, 0x12, 0xc2, 0xac, 0xbe, 0x9c, 0x26, 0xde, 0xbd, 0xe9, 0x11, 0xb0, 0x3e, 0x02, 0x4a, 0xde, 0xbd, 0x77, 0xc7, 0x90, 0xbe, 0xfc, 0xcc, 0xcb, 0xbd, 0xaf, 0x3b, 0xb3, 0xbe, 0x40, 0xa2, 0x3f, 0xbe, 0x50, 0xa1, 0x25, 0x3d, 0x34, 0xb2, 0xa4, 0xbe, 0x87, 0xaa, 0x93, 0x3e, 0xd8, 0xad, 0x12, 0x3d, 0xd0, 0xf1, 0x60, 0xbd, 0xa2, 0x83, 0xdb, 0xbd, 0x2b, 0x6b, 0xab, 0x3e, 0x94, 0xae, 0x37, 0xbe, 0x96, 0xe6, 0x73, 0x3e, 0xce, 0xff, 0x2e, 0x3e, 0x0a, 0xf0, 0x60, 0x3e, 0x78, 0x92, 0x52, 0xbd, 0xb2, 0xde, 0x73, 0x3e, 0x34, 0x0b, 0x63, 0xbe, 0xb1, 0x91, 0xa5, 0xbd, 0xee, 0xa0, 0x52, 0x3e, 0xb7, 0xfb, 0x01, 0xbd, 0xda, 0x00, 0x6a, 0x3e, 0x25, 0xf6, 0xad, 0x3e, 0xef, 0x95, 0x7e, 0x3e, 0xb8, 0xdb, 0x95, 0x3e, 0x48, 0x60, 0x31, 0x3d, 0x31, 0xf3, 0x45, 0x3e, 0x08, 0x56, 0x5b, 0x3d, 0xdd, 0x5f, 0x2b, 0xbe, 0x11, 0xad, 0x7e, 0x3d, 0x33, 0xd1, 0xd7, 0xbd, 0xff, 0x88, 0x82, 0x3e, 0x2c, 0x90, 0x44, 0xbe, 0xc0, 0xb3, 0x9f, 0xbe, 0x90, 0xf2, 0x86, 0xbe, 0xd0, 0x3c, 0xa2, 0xbe, 0x8a, 0xce, 0x58, 0x3e, 0x09, 0xc8, 0x0d, 0xbd, 0x70, 0xb3, 0x42, 0x3e, 0xab, 0x09, 0xa4, 0xbe, 0x90, 0x79, 0xd7, 0xbc, 0xe9, 0xd5, 0x3b, 0xbe, 0x84, 0x8c, 0xa4, 0xbd, 0xd6, 0xc3, 0x04, 0x3d, 0xa0, 0xcf, 0xcd, 0x3d, 0xf6, 0x12, 0x45, 0x3e, 0xd3, 0xd7, 0xb4, 0x3e, 0x6c, 0xc1, 0xb7, 0xbd, 0x74, 0x5e, 0x6f, 0x3e, 0xe0, 0x5d, 0x93, 0x3d, 0xb5, 0x85, 0xdc, 0xbd, 0x14, 0x48, 0x5b, 0xbe, 0xa0, 0x28, 0x23, 0x3d, 0xfd, 0x39, 0x80, 0x3e, 0x0d, 0x50, 0x91, 0x3e, 0xe9, 0x37, 0x99, 0x3c, 0x56, 0x79, 0x59, 0xbb, 0x80, 0x56, 0xad, 0x3b, 0xb0, 0x27, 0x40, 0xbe, 0xc0, 0x62, 0xa1, 0xbd, 0x4d, 0x68, 0xb6, 0xbe, 0x33, 0x8c, 0x4d, 0xbd, 0xf9, 0x36, 0x69, 0xbd, 0x0e, 0xdf, 0x7e, 0x3e, 0x12, 0x9c, 0x56, 0x3e, 0x0e, 0x8e, 0x7d, 0x3e, 0x5c, 0x3f, 0x73, 0xbe, 0x2a, 0x3a, 0x90, 0xbd, 0xb0, 0xcf, 0x16, 0x3d, 0xeb, 0xc4, 0x7d, 0x3e, 0x66, 0xd3, 0xb4, 0x3d, 0x10, 0xd4, 0x8a, 0x3c, 0x4d, 0x99, 0x91, 0x3e, 0x91, 0x0e, 0x8e, 0x3d, 0x50, 0xbd, 0x29, 0x3d, 0x31, 0x45, 0x52, 0x3e, 0xa2, 0x05, 0x41, 0x3e, 0xc0, 0xbb, 0xc3, 0xbb, 0xb3, 0x28, 0x4f, 0xbe, 0x6a, 0xe5, 0x7f, 0x3e, 0x5c, 0x76, 0xdd, 0x3d, 0x2c, 0x20, 0x93, 0x3d, 0xef, 0x5b, 0x1c, 0x3d, 0x67, 0x5e, 0xff, 0xbd, 0x97, 0x4a, 0x38, 0xbe, 0xee, 0x7b, 0x60, 0x3e, 0xb4, 0xfb, 0xed, 0x3d, 0x2e, 0x5e, 0x71, 0xbc, 0x9d, 0xfe, 0x35, 0xbd, 0x18, 0x74, 0x1d, 0x3d, 0x3b, 0x75, 0xd2, 0x3d, 0x74, 0x55, 0x9c, 0xbd, 0x14, 0x91, 0xb3, 0xbe, 0x03, 0xf1, 0x52, 0xbd, 0xf3, 0xb1, 0x10, 0xbe, 0x42, 0x67, 0x6f, 0x3e, 0x29, 0x5a, 0x81, 0x3e, 0xa4, 0xcd, 0x02, 0x3e, 0x54, 0x4e, 0x8f, 0xbd, 0xca, 0xef, 0x20, 0x3e, 0xd7, 0x19, 0xa4, 0x3e, 0x4e, 0xeb, 0x7f, 0x3e, 0xb4, 0xa9, 0x39, 0x3e, 0xa8, 0x70, 0xc0, 0x3d, 0x52, 0xde, 0x4a, 0x3e, 0x63, 0x73, 0xa1, 0x3e, 0xa1, 0xc7, 0x8c, 0xbe, 0x89, 0x03, 0x61, 0x3e, 0x2e, 0x58, 0x69, 0xbe, 0x28, 0xed, 0x0b, 0x3d, 0x44, 0xda, 0xf3, 0x3d, 0x1b, 0xab, 0xb3, 0x3e, 0xba, 0x59, 0x54, 0xbe, 0xba, 0xe6, 0x1f, 0x3e, 0xa8, 0x6b, 0x4a, 0xbd, 0xc6, 0x5b, 0x9f, 0xbe, 0xa3, 0xfe, 0x0d, 0x3e, 0xea, 0x66, 0x59, 0x3e, 0x18, 0x88, 0x83, 0xbe, 0x88, 0xe0, 0xef, 0xbe, 0xdf, 0x2b, 0xb6, 0x3d, 0x27, 0xee, 0x9f, 0x3e, 0xcc, 0x86, 0xa5, 0xbe, 0xfe, 0xd9, 0x30, 0x3e, 0x58, 0xca, 0xb5, 0xbe, 0x95, 0x62, 0x73, 0x3e, 0x27, 0x91, 0x39, 0x3e, 0xa2, 0x90, 0x51, 0xbe, 0x98, 0xff, 0x53, 0x3d, 0x48, 0xd9, 0xac, 0xbe, 0x10, 0xfd, 0x01, 0xbe, 0x43, 0xec, 0xf7, 0xbb, 0xae, 0xec, 0x36, 0x3d, 0x53, 0x3d, 0x40, 0x3f, 0xa3, 0xfa, 0x81, 0x3c, 0x44, 0x22, 0x8f, 0xbd, 0xdd, 0xfd, 0xa0, 0xbe, 0x67, 0x2a, 0xbd, 0x3e, 0xab, 0x32, 0xa4, 0xbe, 0xbd, 0x46, 0xbb, 0xbd, 0xe0, 0xa1, 0x5a, 0xbd, 0x1b, 0xd6, 0x8e, 0xbe, 0x38, 0x70, 0x74, 0x3d, 0x1a, 0xc5, 0x3d, 0x3e, 0x78, 0xcf, 0xd6, 0xbe, 0xce, 0x82, 0x0d, 0x3e, 0x69, 0x29, 0x6a, 0xbe, 0x4a, 0xe3, 0x86, 0x3e, 0xee, 0x83, 0xf2, 0xbd, 0x9f, 0x19, 0x72, 0xbe, 0xf1, 0xd5, 0x8c, 0x3e, 0x5c, 0xc4, 0x36, 0xbe, 0x3b, 0xb4, 0x0b, 0xbe, 0xc0, 0x7c, 0xcf, 0x3d, 0xec, 0xfa, 0x55, 0xbc, 0x12, 0x6b, 0x6a, 0x3e, 0x40, 0xa7, 0xcd, 0xbe, 0x66, 0x0f, 0xdc, 0x3e, 0x38, 0x85, 0x83, 0xbe, 0xd0, 0x1c, 0x3c, 0xbd, 0x0c, 0xe5, 0xc7, 0x3d, 0xc4, 0x0e, 0x9f, 0xbe, 0x46, 0x37, 0x32, 0x3e, 0xad, 0xa5, 0x8b, 0x3e, 0xe9, 0xdd, 0x82, 0x3e, 0x6d, 0xc5, 0xa5, 0x3c, 0x19, 0xbe, 0xe9, 0xbd, 0x18, 0xef, 0xe2, 0xbd, 0xed, 0x06, 0xa9, 0x3e, 0x39, 0x2c, 0x31, 0xbe, 0x45, 0x81, 0xa4, 0x3e, 0xad, 0xe6, 0x17, 0xbe, 0xb0, 0x9e, 0x9c, 0xbe, 0xea, 0x31, 0x70, 0xbe, 0x66, 0xe4, 0x34, 0xbe, 0x00, 0x00, 0x06, 0x00, 0x08, 0x00, 0x04, 0x00, 0x06, 0x00, 0x00, 0x00, 0x04, 0x00, 0x00, 0x00, 0x40, 0x00, 0x00, 0x00, 0xed, 0xed, 0x88, 0x3d, 0x7c, 0xfe, 0x16, 0xbe, 0x5c, 0x5d, 0xfe, 0x3e, 0x80, 0xd0, 0x7e, 0xbe, 0x06, 0x14, 0x07, 0x3e, 0x83, 0x3e, 0x03, 0xbf, 0x80, 0x55, 0x51, 0xbe, 0xfa, 0xb4, 0x43, 0xbe, 0xed, 0xde, 0x10, 0xbf, 0x10, 0xae, 0x05, 0xbf, 0xb8, 0xe4, 0xda, 0xbe, 0xda, 0xfa, 0x1c, 0xbd, 0x2f, 0x19, 0xc3, 0xbe, 0xbb, 0x06, 0xe2, 0xbd, 0x78, 0xa5, 0xb2, 0x3d, 0x9f, 0x09, 0x4f, 0x3e, 0x40, 0xfb, 0xff, 0xff, 0x44, 0xfb, 0xff, 0xff, 0x0f, 0x00, 0x00, 0x00, 0x4d, 0x4c, 0x49, 0x52, 0x20, 0x43, 0x6f, 0x6e, 0x76, 0x65, 0x72, 0x74, 0x65, 0x64, 0x2e, 0x00, 0x01, 0x00, 0x00, 0x00, 0x14, 0x00, 0x00, 0x00, 0x00, 0x00, 0x0e, 0x00, 0x18, 0x00, 0x14, 0x00, 0x10, 0x00, 0x0c, 0x00, 0x08, 0x00, 0x04, 0x00, 0x0e, 0x00, 0x00, 0x00, 0x14, 0x00, 0x00, 0x00, 0x1c, 0x00, 0x00, 0x00, 0xd8, 0x00, 0x00, 0x00, 0xdc, 0x00, 0x00, 0x00, 0xe0, 0x00, 0x00, 0x00, 0x04, 0x00, 0x00, 0x00, 0x6d, 0x61, 0x69, 0x6e, 0x00, 0x00, 0x00, 0x00, 0x03, 0x00, 0x00, 0x00, 0x80, 0x00, 0x00, 0x00, 0x38, 0x00, 0x00, 0x00, 0x04, 0x00, 0x00, 0x00, 0x9a, 0xff, 0xff, 0xff, 0x10, 0x00, 0x00, 0x00, 0x00, 0x00, 0x00, 0x08, 0x0c, 0x00, 0x00, 0x00, 0x10, 0x00, 0x00, 0x00, 0xbc, 0xfb, 0xff, 0xff, 0x01, 0x00, 0x00, 0x00, 0x09, 0x00, 0x00, 0x00, 0x03, 0x00, 0x00, 0x00, 0x08, 0x00, 0x00, 0x00, 0x01, 0x00, 0x00, 0x00, 0x03, 0x00, 0x00, 0x00, 0xca, 0xff, 0xff, 0xff, 0x10, 0x00, 0x00, 0x00, 0x00, 0x00, 0x00, 0x08, 0x10, 0x00, 0x00, 0x00, 0x14, 0x00, 0x00, 0x00, 0xba, 0xff, 0xff, 0xff, 0x00, 0x00, 0x00, 0x01, 0x01, 0x00, 0x00, 0x00, 0x08, 0x00, 0x00, 0x00, 0x03, 0x00, 0x00, 0x00, 0x07, 0x00, 0x00, 0x00, 0x02, 0x00, 0x00, 0x00, 0x04, 0x00, 0x00, 0x00, 0x00, 0x00, 0x0e, 0x00, 0x16, 0x00, 0x00, 0x00, 0x10, 0x00, 0x0c, 0x00, 0x0b, 0x00, 0x04, 0x00, 0x0e, 0x00, 0x00, 0x00, 0x18, 0x00, 0x00, 0x00, 0x00, 0x00, 0x00, 0x08, 0x18, 0x00, 0x00, 0x00, 0x1c, 0x00, 0x00, 0x00, 0x00, 0x00, 0x06, 0x00, 0x08, 0x00, 0x07, 0x00, 0x06, 0x00, 0x00, 0x00, 0x00, 0x00, 0x00, 0x01, 0x01, 0x00, 0x00, 0x00, 0x07, 0x00, 0x00, 0x00, 0x03, 0x00, 0x00, 0x00, 0x00, 0x00, 0x00, 0x00, 0x06, 0x00, 0x00, 0x00, 0x05, 0x00, 0x00, 0x00, 0x01, 0x00, 0x00, 0x00, 0x09, 0x00, 0x00, 0x00, 0x01, 0x00, 0x00, 0x00, 0x00, 0x00, 0x00, 0x00, 0x0a, 0x00, 0x00, 0x00, 0x6c, 0x03, 0x00, 0x00, 0x14, 0x03, 0x00, 0x00, 0xbc, 0x02, 0x00, 0x00, 0x80, 0x02, 0x00, 0x00, 0x28, 0x02, 0x00, 0x00, 0xd4, 0x01, 0x00, 0x00, 0x88, 0x01, 0x00, 0x00, 0xf8, 0x00, 0x00, 0x00, 0x60, 0x00, 0x00, 0x00, 0x04, 0x00, 0x00, 0x00, 0xd2, 0xfc, 0xff, 0xff, 0x00, 0x00, 0x00, 0x01, 0x14, 0x00, 0x00, 0x00, 0x1c, 0x00, 0x00, 0x00, 0x1c, 0x00, 0x00, 0x00, 0x0a, 0x00, 0x00, 0x00, 0x34, 0x00, 0x00, 0x00, 0x02, 0x00, 0x00, 0x00, 0xff, 0xff, 0xff, 0xff, 0x01, 0x00, 0x00, 0x00, 0xbc, 0xfc, 0xff, 0xff, 0x1b, 0x00, 0x00, 0x00, 0x53, 0x74, 0x61, 0x74, 0x65, 0x66, 0x75, 0x6c, 0x50, 0x61, 0x72, 0x74, 0x69, 0x74, 0x69, 0x6f, 0x6e, 0x65, 0x64, 0x43, 0x61, 0x6c, 0x6c, 0x5f, 0x31, 0x3a, 0x30, 0x00, 0x02, 0x00, 0x00, 0x00, 0x01, 0x00, 0x00, 0x00, 0x01, 0x00, 0x00, 0x00, 0x2a, 0xfd, 0xff, 0xff, 0x00, 0x00, 0x00, 0x01, 0x14, 0x00, 0x00, 0x00, 0x1c, 0x00, 0x00, 0x00, 0x1c, 0x00, 0x00, 0x00, 0x09, 0x00, 0x00, 0x00, 0x70, 0x00, 0x00, 0x00, 0x02, 0x00, 0x00, 0x00, 0xff, 0xff, 0xff, 0xff, 0x10, 0x00, 0x00, 0x00, 0x14, 0xfd, 0xff, 0xff, 0x54, 0x00, 0x00, 0x00, 0x73, 0x65, 0x71, 0x75, 0x65, 0x6e, 0x74, 0x69, 0x61, 0x6c, 0x5f, 0x31, 0x2f, 0x64, 0x65, 0x6e, 0x73, 0x65, 0x5f, 0x31, 0x5f, 0x32, 0x2f, 0x4d, 0x61, 0x74, 0x4d, 0x75, 0x6c, 0x3b, 0x73, 0x65, 0x71, 0x75, 0x65, 0x6e, 0x74, 0x69, 0x61, 0x6c, 0x5f, 0x31, 0x2f, 0x64, 0x65, 0x6e, 0x73, 0x65, 0x5f, 0x31, 0x5f, 0x32, 0x2f, 0x52, 0x65, 0x6c, 0x75, 0x3b, 0x73, 0x65, 0x71, 0x75, 0x65, 0x6e, 0x74, 0x69, 0x61, 0x6c, 0x5f, 0x31, 0x2f, 0x64, 0x65, 0x6e, 0x73, 0x65, 0x5f, 0x31, 0x5f, 0x32, 0x2f, 0x41, 0x64, 0x64, 0x00, 0x00, 0x00, 0x00, 0x02, 0x00, 0x00, 0x00, 0x01, 0x00, 0x00, 0x00, 0x10, 0x00, 0x00, 0x00, 0xbe, 0xfd, 0xff, 0xff, 0x00, 0x00, 0x00, 0x01, 0x14, 0x00, 0x00, 0x00, 0x1c, 0x00, 0x00, 0x00, 0x1c, 0x00, 0x00, 0x00, 0x08, 0x00, 0x00, 0x00, 0x68, 0x00, 0x00, 0x00, 0x02, 0x00, 0x00, 0x00, 0xff, 0xff, 0xff, 0xff, 0x20, 0x00, 0x00, 0x00, 0xa8, 0xfd, 0xff, 0xff, 0x4e, 0x00, 0x00, 0x00, 0x73, 0x65, 0x71, 0x75, 0x65, 0x6e, 0x74, 0x69, 0x61, 0x6c, 0x5f, 0x31, 0x2f, 0x64, 0x65, 0x6e, 0x73, 0x65, 0x5f, 0x31, 0x2f, 0x4d, 0x61, 0x74, 0x4d, 0x75, 0x6c, 0x3b, 0x73, 0x65, 0x71, 0x75, 0x65, 0x6e, 0x74, 0x69, 0x61, 0x6c, 0x5f, 0x31, 0x2f, 0x64, 0x65, 0x6e, 0x73, 0x65, 0x5f, 0x31, 0x2f, 0x52, 0x65, 0x6c, 0x75, 0x3b, 0x73, 0x65, 0x71, 0x75, 0x65, 0x6e, 0x74, 0x69, 0x61, 0x6c, 0x5f, 0x31, 0x2f, 0x64, 0x65, 0x6e, 0x73, 0x65, 0x5f, 0x31, 0x2f, 0x41, 0x64, 0x64, 0x00, 0x00, 0x02, 0x00, 0x00, 0x00, 0x01, 0x00, 0x00, 0x00, 0x20, 0x00, 0x00, 0x00, 0x9e, 0xfe, 0xff, 0xff, 0x00, 0x00, 0x00, 0x01, 0x10, 0x00, 0x00, 0x00, 0x10, 0x00, 0x00, 0x00, 0x07, 0x00, 0x00, 0x00, 0x28, 0x00, 0x00, 0x00, 0x24, 0xfe, 0xff, 0xff, 0x1b, 0x00, 0x00, 0x00, 0x73, 0x65, 0x71, 0x75, 0x65, 0x6e, 0x74, 0x69, 0x61, 0x6c, 0x5f, 0x31, 0x2f, 0x64, 0x65, 0x6e, 0x73, 0x65, 0x5f, 0x31, 0x2f, 0x4d, 0x61, 0x74, 0x4d, 0x75, 0x6c, 0x00, 0x02, 0x00, 0x00, 0x00, 0x20, 0x00, 0x00, 0x00, 0x04, 0x00, 0x00, 0x00, 0xe6, 0xfe, 0xff, 0xff, 0x00, 0x00, 0x00, 0x01, 0x10, 0x00, 0x00, 0x00, 0x10, 0x00, 0x00, 0x00, 0x06, 0x00, 0x00, 0x00, 0x34, 0x00, 0x00, 0x00, 0x6c, 0xfe, 0xff, 0xff, 0x27, 0x00, 0x00, 0x00, 0x73, 0x65, 0x71, 0x75, 0x65, 0x6e, 0x74, 0x69, 0x61, 0x6c, 0x5f, 0x31, 0x2f, 0x64, 0x65, 0x6e, 0x73, 0x65, 0x5f, 0x31, 0x2f, 0x41, 0x64, 0x64, 0x2f, 0x52, 0x65, 0x61, 0x64, 0x56, 0x61, 0x72, 0x69, 0x61, 0x62, 0x6c, 0x65, 0x4f, 0x70, 0x00, 0x01, 0x00, 0x00, 0x00, 0x20, 0x00, 0x00, 0x00, 0x36, 0xff, 0xff, 0xff, 0x00, 0x00, 0x00, 0x01, 0x10, 0x00, 0x00, 0x00, 0x10, 0x00, 0x00, 0x00, 0x05, 0x00, 0x00, 0x00, 0x38, 0x00, 0x00, 0x00, 0xbc, 0xfe, 0xff, 0xff, 0x29, 0x00, 0x00, 0x00, 0x73, 0x65, 0x71, 0x75, 0x65, 0x6e, 0x74, 0x69, 0x61, 0x6c, 0x5f, 0x31, 0x2f, 0x64, 0x65, 0x6e, 0x73, 0x65, 0x5f, 0x31, 0x5f, 0x32, 0x2f, 0x41, 0x64, 0x64, 0x2f, 0x52, 0x65, 0x61, 0x64, 0x56, 0x61, 0x72, 0x69, 0x61, 0x62, 0x6c, 0x65, 0x4f, 0x70, 0x00, 0x00, 0x00, 0x01, 0x00, 0x00, 0x00, 0x10, 0x00, 0x00, 0x00, 0x8a, 0xff, 0xff, 0xff, 0x00, 0x00, 0x00, 0x01, 0x10, 0x00, 0x00, 0x00, 0x10, 0x00, 0x00, 0x00, 0x04, 0x00, 0x00, 0x00, 0x1c, 0x00, 0x00, 0x00, 0x10, 0xff, 0xff, 0xff, 0x0f, 0x00, 0x00, 0x00, 0x61, 0x72, 0x69, 0x74, 0x68, 0x2e, 0x63, 0x6f, 0x6e, 0x73, 0x74, 0x61, 0x6e, 0x74, 0x32, 0x00, 0x01, 0x00, 0x00, 0x00, 0x01, 0x00, 0x00, 0x00, 0xc2, 0xff, 0xff, 0xff, 0x00, 0x00, 0x00, 0x01, 0x10, 0x00, 0x00, 0x00, 0x10, 0x00, 0x00, 0x00, 0x03, 0x00, 0x00, 0x00, 0x1c, 0x00, 0x00, 0x00, 0x48, 0xff, 0xff, 0xff, 0x0f, 0x00, 0x00, 0x00, 0x61, 0x72, 0x69, 0x74, 0x68, 0x2e, 0x63, 0x6f, 0x6e, 0x73, 0x74, 0x61, 0x6e, 0x74, 0x31, 0x00, 0x02, 0x00, 0x00, 0x00, 0x10, 0x00, 0x00, 0x00, 0x20, 0x00, 0x00, 0x00, 0x00, 0x00, 0x16, 0x00, 0x18, 0x00, 0x14, 0x00, 0x00, 0x00, 0x10, 0x00, 0x0c, 0x00, 0x08, 0x00, 0x00, 0x00, 0x00, 0x00, 0x00, 0x00, 0x07, 0x00, 0x16, 0x00, 0x00, 0x00, 0x00, 0x00, 0x00, 0x01, 0x10, 0x00, 0x00, 0x00, 0x10, 0x00, 0x00, 0x00, 0x02, 0x00, 0x00, 0x00, 0x1c, 0x00, 0x00, 0x00, 0x9c, 0xff, 0xff, 0xff, 0x0e, 0x00, 0x00, 0x00, 0x61, 0x72, 0x69, 0x74, 0x68, 0x2e, 0x63, 0x6f, 0x6e, 0x73, 0x74, 0x61, 0x6e, 0x74, 0x00, 0x00, 0x02, 0x00, 0x00, 0x00, 0x01, 0x00, 0x00, 0x00, 0x10, 0x00, 0x00, 0x00, 0x00, 0x00, 0x16, 0x00, 0x1c, 0x00, 0x18, 0x00, 0x00, 0x00, 0x14, 0x00, 0x10, 0x00, 0x0c, 0x00, 0x00, 0x00, 0x00, 0x00, 0x08, 0x00, 0x07, 0x00, 0x16, 0x00, 0x00, 0x00, 0x00, 0x00, 0x00, 0x01, 0x14, 0x00, 0x00, 0x00, 0x20, 0x00, 0x00, 0x00, 0x20, 0x00, 0x00, 0x00, 0x01, 0x00, 0x00, 0x00, 0x3c, 0x00, 0x00, 0x00, 0x02, 0x00, 0x00, 0x00, 0xff, 0xff, 0xff, 0xff, 0x04, 0x00, 0x00, 0x00, 0x04, 0x00, 0x04, 0x00, 0x04, 0x00, 0x00, 0x00, 0x1e, 0x00, 0x00, 0x00, 0x73, 0x65, 0x72, 0x76, 0x69, 0x6e, 0x67, 0x5f, 0x64, 0x65, 0x66, 0x61, 0x75, 0x6c, 0x74, 0x5f, 0x6b, 0x65, 0x72, 0x61, 0x73, 0x5f, 0x74, 0x65, 0x6e, 0x73, 0x6f, 0x72, 0x3a, 0x30, 0x00, 0x00, 0x02, 0x00, 0x00, 0x00, 0x01, 0x00, 0x00, 0x00, 0x04, 0x00, 0x00, 0x00, 0x01, 0x00, 0x00, 0x00, 0x10, 0x00, 0x00, 0x00, 0x0c, 0x00, 0x0c, 0x00, 0x0b, 0x00, 0x00, 0x00, 0x00, 0x00, 0x04, 0x00, 0x0c, 0x00, 0x00, 0x00, 0x09, 0x00, 0x00, 0x00, 0x00, 0x00, 0x00, 0x09 };
