#pragma once

#ifdef __has_attribute
#define HAVE_ATTRIBUTE(x) __has_attribute(x)
#else
#define HAVE_ATTRIBUTE(x) 0
#endif
#if HAVE_ATTRIBUTE(aligned) || (defined(__GNUC__) && !defined(__clang__))
#define DATA_ALIGN_ATTRIBUTE __attribute__((aligned(4)))
#else
#define DATA_ALIGN_ATTRIBUTE
#endif

// automatically configure network
#define TF_NUM_INPUTS 4
#define TF_NUM_OUTPUTS 1
#define TF_NUM_OPS 2

/**
 * Call this function to register the ops
 * that have been detected
 */
template<class TF>
void registerNetworkOps(TF& nn) {
    nn.resolver.AddFullyConnected();
    nn.resolver.AddSoftmax();
    
}


// model data
const unsigned char tfModel[14084] DATA_ALIGN_ATTRIBUTE = { 0x1c, 0x00, 0x00, 0x00, 0x54, 0x46, 0x4c, 0x33, 0x14, 0x00, 0x20, 0x00, 0x1c, 0x00, 0x18, 0x00, 0x14, 0x00, 0x10, 0x00, 0x0c, 0x00, 0x00, 0x00, 0x08, 0x00, 0x04, 0x00, 0x14, 0x00, 0x00, 0x00, 0x1c, 0x00, 0x00, 0x00, 0x8c, 0x00, 0x00, 0x00, 0xe4, 0x00, 0x00, 0x00, 0x24, 0x30, 0x00, 0x00, 0x34, 0x30, 0x00, 0x00, 0xb0, 0x36, 0x00, 0x00, 0x03, 0x00, 0x00, 0x00, 0x01, 0x00, 0x00, 0x00, 0x10, 0x00, 0x00, 0x00, 0x00, 0x00, 0x0a, 0x00, 0x10, 0x00, 0x0c, 0x00, 0x08, 0x00, 0x04, 0x00, 0x0a, 0x00, 0x00, 0x00, 0x0c, 0x00, 0x00, 0x00, 0x1c, 0x00, 0x00, 0x00, 0x38, 0x00, 0x00, 0x00, 0x0f, 0x00, 0x00, 0x00, 0x73, 0x65, 0x72, 0x76, 0x69, 0x6e, 0x67, 0x5f, 0x64, 0x65, 0x66, 0x61, 0x75, 0x6c, 0x74, 0x00, 0x01, 0x00, 0x00, 0x00, 0x04, 0x00, 0x00, 0x00, 0x9c, 0xff, 0xff, 0xff, 0x0c, 0x00, 0x00, 0x00, 0x04, 0x00, 0x00, 0x00, 0x07, 0x00, 0x00, 0x00, 0x64, 0x65, 0x6e, 0x73, 0x65, 0x5f, 0x37, 0x00, 0x01, 0x00, 0x00, 0x00, 0x04, 0x00, 0x00, 0x00, 0x6a, 0xd0, 0xff, 0xff, 0x04, 0x00, 0x00, 0x00, 0x07, 0x00, 0x00, 0x00, 0x69, 0x6e, 0x70, 0x75, 0x74, 0x5f, 0x32, 0x00, 0x02, 0x00, 0x00, 0x00, 0x34, 0x00, 0x00, 0x00, 0x04, 0x00, 0x00, 0x00, 0xdc, 0xff, 0xff, 0xff, 0x0f, 0x00, 0x00, 0x00, 0x04, 0x00, 0x00, 0x00, 0x13, 0x00, 0x00, 0x00, 0x43, 0x4f, 0x4e, 0x56, 0x45, 0x52, 0x53, 0x49, 0x4f, 0x4e, 0x5f, 0x4d, 0x45, 0x54, 0x41, 0x44, 0x41, 0x54, 0x41, 0x00, 0x08, 0x00, 0x0c, 0x00, 0x08, 0x00, 0x04, 0x00, 0x08, 0x00, 0x00, 0x00, 0x0e, 0x00, 0x00, 0x00, 0x04, 0x00, 0x00, 0x00, 0x13, 0x00, 0x00, 0x00, 0x6d, 0x69, 0x6e, 0x5f, 0x72, 0x75, 0x6e, 0x74, 0x69, 0x6d, 0x65, 0x5f, 0x76, 0x65, 0x72, 0x73, 0x69, 0x6f, 0x6e, 0x00, 0x10, 0x00, 0x00, 0x00, 0x3c, 0x2f, 0x00, 0x00, 0x34, 0x2f, 0x00, 0x00, 0x20, 0x2f, 0x00, 0x00, 0xc8, 0x2e, 0x00, 0x00, 0x38, 0x2e, 0x00, 0x00, 0x28, 0x2d, 0x00, 0x00, 0x18, 0x29, 0x00, 0x00, 0x08, 0x09, 0x00, 0x00, 0xf8, 0x00, 0x00, 0x00, 0xa8, 0x00, 0x00, 0x00, 0xa0, 0x00, 0x00, 0x00, 0x98, 0x00, 0x00, 0x00, 0x90, 0x00, 0x00, 0x00, 0x88, 0x00, 0x00, 0x00, 0x68, 0x00, 0x00, 0x00, 0x04, 0x00, 0x00, 0x00, 0x1e, 0xd1, 0xff, 0xff, 0x04, 0x00, 0x00, 0x00, 0x54, 0x00, 0x00, 0x00, 0x0c, 0x00, 0x00, 0x00, 0x08, 0x00, 0x0e, 0x00, 0x08, 0x00, 0x04, 0x00, 0x08, 0x00, 0x00, 0x00, 0x10, 0x00, 0x00, 0x00, 0x24, 0x00, 0x00, 0x00, 0x00, 0x00, 0x06, 0x00, 0x08, 0x00, 0x04, 0x00, 0x06, 0x00, 0x00, 0x00, 0x04, 0x00, 0x00, 0x00, 0x00, 0x00, 0x00, 0x00, 0x00, 0x00, 0x0a, 0x00, 0x10, 0x00, 0x0c, 0x00, 0x08, 0x00, 0x04, 0x00, 0x0a, 0x00, 0x00, 0x00, 0x02, 0x00, 0x00, 0x00, 0x02, 0x00, 0x00, 0x00, 0x04, 0x00, 0x00, 0x00, 0x06, 0x00, 0x00, 0x00, 0x32, 0x2e, 0x31, 0x35, 0x2e, 0x31, 0x00, 0x00, 0x7e, 0xd1, 0xff, 0xff, 0x04, 0x00, 0x00, 0x00, 0x10, 0x00, 0x00, 0x00, 0x31, 0x2e, 0x35, 0x2e, 0x30, 0x00, 0x00, 0x00, 0x00, 0x00, 0x00, 0x00, 0x00, 0x00, 0x00, 0x00, 0x1c, 0xcb, 0xff, 0xff, 0x20, 0xcb, 0xff, 0xff, 0x24, 0xcb, 0xff, 0xff, 0x28, 0xcb, 0xff, 0xff, 0xaa, 0xd1, 0xff, 0xff, 0x04, 0x00, 0x00, 0x00, 0x40, 0x00, 0x00, 0x00, 0x89, 0x69, 0x2d, 0x3e, 0x58, 0xf1, 0x2d, 0xbe, 0x13, 0x53, 0xa2, 0x3d, 0x9a, 0xe9, 0x04, 0xbf, 0x43, 0xc3, 0x08, 0xbf, 0x55, 0x31, 0x76, 0xbe, 0xc9, 0x98, 0x3a, 0x3d, 0x80, 0xa1, 0xc4, 0x3d, 0x20, 0x27, 0x74, 0xbe, 0x50, 0xfa, 0xcd, 0x3e, 0xa0, 0x56, 0x34, 0xbe, 0xa0, 0x3b, 0x92, 0x3e, 0x4e, 0x03, 0x08, 0xbe, 0x77, 0x7f, 0xd5, 0xbe, 0x1f, 0xa6, 0x71, 0x3e, 0x72, 0x9c, 0x01, 0x3f, 0xf6, 0xd1, 0xff, 0xff, 0x04, 0x00, 0x00, 0x00, 0x00, 0x08, 0x00, 0x00, 0xc6, 0xbe, 0x69, 0x3e, 0x30, 0xf5, 0x0b, 0x3e, 0x0b, 0xba, 0x12, 0xbe, 0x7c, 0xdf, 0xa5, 0x3d, 0xa0, 0x85, 0x36, 0xbd, 0x47, 0x86, 0x8e, 0x3e, 0xda, 0x94, 0xf7, 0xbd, 0xc9, 0x05, 0x90, 0xbe, 0x30, 0x23, 0x2f, 0x3e, 0xb0, 0x67, 0x32, 0xbd, 0x52, 0x6e, 0xbf, 0x3d, 0x97, 0x91, 0x9f, 0x3e, 0xa8, 0x2f, 0x0a, 0x3d, 0x91, 0x80, 0x1c, 0x3e, 0xed, 0x5d, 0x9b, 0x3e, 0x89, 0xfd, 0x5b, 0x3d, 0x4d, 0x47, 0x11, 0x3d, 0xad, 0xaa, 0x91, 0x3e, 0x5b, 0x0c, 0x56, 0xbe, 0x3a, 0x0d, 0x1e, 0xbd, 0x55, 0xee, 0x3b, 0x3e, 0x5e, 0xdc, 0x48, 0x3e, 0x42, 0x26, 0x2b, 0x3e, 0x0d, 0x8b, 0x9d, 0x3e, 0xf4, 0xb7, 0xbb, 0x3e, 0x48, 0xa8, 0x58, 0x3c, 0x28, 0xc1, 0x77, 0xbe, 0xfa, 0xb3, 0x7a, 0x3e, 0x6b, 0x79, 0xaf, 0x3e, 0x26, 0x86, 0xab, 0x3e, 0xc8, 0x12, 0x24, 0xbe, 0x0d, 0x5d, 0x57, 0x3c, 0x9f, 0xf0, 0x90, 0x3e, 0x67, 0xbc, 0x88, 0xbe, 0x87, 0xbb, 0x86, 0x3e, 0x8a, 0xd4, 0x30, 0x3d, 0x10, 0xa3, 0x85, 0x3d, 0xd2, 0x1d, 0x38, 0x3e, 0x8d, 0xbc, 0x65, 0x3d, 0x8e, 0x9c, 0x83, 0xbd, 0x68, 0x26, 0x47, 0xbe, 0xb6, 0x0e, 0x3a, 0xbe, 0x32, 0x89, 0x4e, 0xbc, 0x30, 0x5f, 0x92, 0xbe, 0x34, 0xf8, 0xab, 0xbe, 0x04, 0xde, 0x90, 0xbe, 0xca, 0xb1, 0x9a, 0xbe, 0x6f, 0x26, 0x4a, 0xbe, 0x0d, 0x2d, 0x7d, 0xbe, 0x1b, 0xb5, 0x9c, 0x3e, 0x8a, 0xab, 0x93, 0xbc, 0x79, 0x26, 0x03, 0x3e, 0xd8, 0xab, 0x97, 0x3c, 0x13, 0xd9, 0x74, 0x3e, 0x14, 0x05, 0xa4, 0xba, 0x3f, 0xcf, 0x8b, 0x3d, 0x0d, 0xb2, 0xb8, 0xbd, 0x6e, 0x6c, 0x93, 0x3e, 0x51, 0xe0, 0x96, 0x3e, 0x6c, 0x48, 0xa4, 0xbe, 0xe4, 0x52, 0xb4, 0xbe, 0x1e, 0x43, 0x34, 0xbd, 0x78, 0x7b, 0xa7, 0xbd, 0x38, 0x79, 0xad, 0xbe, 0x36, 0xd3, 0x2e, 0x3e, 0xdc, 0x21, 0xda, 0x3d, 0xb4, 0x8e, 0xb0, 0xbd, 0x83, 0xd6, 0x2e, 0xbe, 0x77, 0xd0, 0x52, 0xbe, 0x22, 0xb5, 0x41, 0x3e, 0x77, 0x6a, 0xa5, 0xbd, 0xd6, 0x13, 0x24, 0x3e, 0x03, 0x35, 0x40, 0x3d, 0x33, 0xe7, 0xaf, 0xbe, 0x0c, 0x8c, 0x90, 0x3d, 0x02, 0xa9, 0x7b, 0xbe, 0xdc, 0x12, 0x0d, 0x3e, 0x1a, 0x4e, 0xa1, 0x3d, 0x40, 0xbb, 0x9c, 0xbe, 0x1d, 0xa6, 0x37, 0x3c, 0x51, 0xd2, 0x5b, 0xbe, 0x00, 0x6f, 0xec, 0x3b, 0x19, 0x8b, 0x92, 0xbe, 0xe1, 0x80, 0xdd, 0x3c, 0x95, 0x3e, 0x62, 0x3e, 0xb7, 0x42, 0xad, 0x3e, 0xea, 0xee, 0xf3, 0x3c, 0x1c, 0x8d, 0x9d, 0x3e, 0x07, 0xf5, 0xfe, 0x3e, 0x15, 0xf7, 0x95, 0x3e, 0xb0, 0xb9, 0xb1, 0x3d, 0xf8, 0x04, 0x96, 0xbe, 0x87, 0x4f, 0x2e, 0xbe, 0xf5, 0xcd, 0x85, 0xbe, 0x88, 0x83, 0xcb, 0xbd, 0x66, 0x80, 0x09, 0x3d, 0x47, 0x1c, 0x95, 0x3e, 0xa8, 0x0f, 0x8e, 0xbd, 0x38, 0x3a, 0x81, 0xbd, 0xac, 0xb8, 0xa5, 0x3e, 0xb4, 0x16, 0x40, 0xbe, 0x1c, 0x2b, 0x83, 0xbe, 0x7c, 0x7e, 0x25, 0x3c, 0xc0, 0x14, 0x4f, 0x3c, 0x54, 0x36, 0x70, 0x3e, 0xf2, 0xae, 0x82, 0xbe, 0x13, 0x89, 0x4e, 0xbe, 0x2e, 0x3c, 0x67, 0x3e, 0xe1, 0x54, 0x8f, 0x3e, 0x90, 0xcb, 0x97, 0xbe, 0x78, 0x81, 0x6d, 0x3d, 0xd7, 0xa2, 0x96, 0xbe, 0xaf, 0xf7, 0x3c, 0x3e, 0x52, 0x4c, 0x9a, 0xbe, 0xa0, 0x9a, 0x41, 0xbe, 0x5a, 0xfc, 0x64, 0x3e, 0x28, 0x79, 0x95, 0x3e, 0x49, 0x7f, 0x94, 0xbc, 0x7d, 0x14, 0x1d, 0x3e, 0xa7, 0x7a, 0x93, 0xbe, 0xe8, 0x42, 0x38, 0xbe, 0x5e, 0x05, 0xa8, 0x3e, 0x50, 0x7d, 0xd7, 0xbc, 0xc1, 0x01, 0x85, 0xbe, 0x5f, 0x70, 0xb9, 0xbc, 0xcc, 0xe6, 0xc8, 0x3b, 0x49, 0x0d, 0x9a, 0x3e, 0x4f, 0x81, 0xfe, 0x3d, 0xf7, 0x47, 0x0c, 0xbe, 0xa5, 0x22, 0x8c, 0x3e, 0xf4, 0x4c, 0x9e, 0xbe, 0x6b, 0x10, 0xa8, 0xbe, 0x4e, 0xf0, 0x3e, 0x3e, 0xe8, 0xe2, 0x0e, 0x3d, 0x60, 0x19, 0xf2, 0xbc, 0xec, 0x59, 0x3c, 0xbe, 0x26, 0x7d, 0x04, 0x3e, 0x0a, 0x09, 0x60, 0x3e, 0xbc, 0xb2, 0x15, 0xbe, 0xe1, 0x6a, 0xa5, 0x3e, 0x5e, 0x62, 0x6e, 0x3e, 0xab, 0xbe, 0xa8, 0xbe, 0x28, 0x30, 0xa9, 0xbe, 0xc5, 0xf7, 0x3a, 0xbe, 0xbe, 0xf4, 0x10, 0xbe, 0x04, 0xc2, 0x81, 0x3d, 0x1f, 0xe2, 0x56, 0xbe, 0x42, 0xe7, 0x5e, 0x3e, 0xef, 0x3b, 0xa3, 0x3e, 0x48, 0xfb, 0x90, 0xbd, 0x60, 0xba, 0x19, 0x3d, 0xc4, 0x8a, 0x42, 0xbe, 0x2a, 0x7a, 0x7d, 0x3e, 0xc5, 0xcd, 0x9c, 0x3e, 0xa8, 0xd3, 0x99, 0x3d, 0x71, 0x23, 0xab, 0x3e, 0xf0, 0xad, 0x94, 0xbc, 0x84, 0xbd, 0x48, 0xbe, 0x2f, 0x19, 0x92, 0x3e, 0xf0, 0x31, 0xc7, 0xbd, 0xd0, 0xe6, 0xf2, 0xbc, 0xb0, 0x8f, 0xd6, 0x3c, 0xa6, 0xf7, 0xe6, 0xbd, 0x41, 0xaf, 0xe6, 0xbd, 0x80, 0x77, 0x25, 0x3d, 0x0d, 0xa6, 0x95, 0x3e, 0x1b, 0x84, 0x0b, 0x3d, 0x38, 0xd4, 0x06, 0x3c, 0xcd, 0x56, 0x57, 0xbc, 0x58, 0x2b, 0x1e, 0xbe, 0x8b, 0x8f, 0x9b, 0xbe, 0x7d, 0x3e, 0x68, 0xbe, 0xdb, 0x8f, 0x90, 0x3e, 0x01, 0x67, 0x84, 0xbd, 0x2a, 0x50, 0x57, 0xbe, 0x3a, 0x5d, 0x89, 0xbe, 0x5e, 0xee, 0x90, 0xbd, 0xae, 0x89, 0x2b, 0x3e, 0x79, 0x2b, 0x4a, 0x3d, 0x4b, 0xaf, 0x49, 0x3e, 0xfd, 0x2c, 0x6e, 0xbe, 0xe6, 0xc3, 0x9d, 0x3e, 0x05, 0x9c, 0xd7, 0x3d, 0x38, 0xaa, 0x14, 0x3e, 0x05, 0x59, 0x30, 0x3e, 0x64, 0x77, 0xdb, 0x3d, 0xc8, 0x71, 0xc9, 0x3d, 0xd6, 0x9a, 0x6b, 0xbe, 0x79, 0x8d, 0x33, 0x3e, 0xd1, 0xd5, 0x54, 0x3e, 0x29, 0x7e, 0x90, 0x3e, 0x73, 0x40, 0x3c, 0x3e, 0xe9, 0x0d, 0x89, 0x3e, 0xc8, 0x49, 0x70, 0xbe, 0xf9, 0xca, 0x86, 0x3e, 0xbb, 0x23, 0x2a, 0xbd, 0xc2, 0x12, 0x79, 0xbe, 0x68, 0x40, 0xf5, 0xbd, 0x24, 0xb2, 0x9b, 0xbe, 0x99, 0xa8, 0x41, 0x3e, 0x16, 0x6a, 0x8e, 0xbe, 0xd4, 0xc7, 0xd3, 0xbd, 0xb4, 0xeb, 0x27, 0xbe, 0xd9, 0x3d, 0x07, 0xbe, 0xe8, 0x51, 0x47, 0xbe, 0xb4, 0xe1, 0x63, 0xbc, 0xfe, 0x5b, 0x4e, 0xbe, 0x3e, 0x09, 0x5c, 0x3e, 0x5e, 0x8b, 0xab, 0x3e, 0xb1, 0xcd, 0x37, 0xbe, 0xc1, 0xb0, 0xe2, 0x3c, 0x5a, 0x98, 0x92, 0xbe, 0x7e, 0x2f, 0x64, 0xbe, 0xb9, 0xf0, 0x8b, 0x3e, 0xd5, 0xa0, 0x0d, 0xbe, 0xb5, 0x70, 0xa8, 0xbd, 0x46, 0x4c, 0x4c, 0x3e, 0x7c, 0x64, 0x1b, 0xbd, 0x64, 0xa5, 0x92, 0xbe, 0xb7, 0x2b, 0xa9, 0xbe, 0xfe, 0x1d, 0x44, 0x3e, 0x2d, 0x63, 0xac, 0x3e, 0xca, 0x5f, 0x17, 0x3e, 0x81, 0x16, 0x5c, 0xbe, 0x7b, 0x36, 0x33, 0xbe, 0xb0, 0x5b, 0xfb, 0x3d, 0x82, 0xce, 0xe1, 0xbd, 0x98, 0xad, 0x13, 0x3e, 0x76, 0x55, 0x2a, 0xbe, 0x70, 0xd5, 0x39, 0xbe, 0xf4, 0xb9, 0xa1, 0xbe, 0x20, 0x51, 0xc4, 0xbd, 0x31, 0xaa, 0x4a, 0xbe, 0x30, 0x04, 0x91, 0x3c, 0xc0, 0xa6, 0xf4, 0xbc, 0xc0, 0x5d, 0xa2, 0x3b, 0xe8, 0xdc, 0xa4, 0x3d, 0x2e, 0xea, 0x6d, 0xbe, 0xf8, 0xef, 0x08, 0x3e, 0xe0, 0x01, 0x0d, 0x3d, 0xdd, 0x83, 0x85, 0x3e, 0x38, 0x08, 0x83, 0xbe, 0x40, 0xa1, 0x31, 0x3d, 0xf3, 0xf0, 0x6b, 0xbe, 0x99, 0x51, 0x8c, 0xbe, 0x78, 0xda, 0x0c, 0xbe, 0x80, 0x84, 0x43, 0xbc, 0xa0, 0x32, 0x75, 0xbc, 0xa4, 0x0f, 0xfe, 0x3d, 0xaa, 0xdf, 0x96, 0xbe, 0x9b, 0x30, 0x9f, 0x3e, 0xc0, 0xda, 0xe1, 0xbd, 0x92, 0xcf, 0x50, 0xbe, 0x3a, 0xec, 0x48, 0x3e, 0x80, 0xe9, 0x1d, 0x3b, 0x82, 0xf2, 0x36, 0xbe, 0x97, 0x9c, 0x40, 0xbe, 0x80, 0xe8, 0x0d, 0xbb, 0xa0, 0xe7, 0xd9, 0xbc, 0x8a, 0xc2, 0x83, 0xbe, 0x7f, 0xc6, 0x9c, 0xbe, 0xf2, 0x18, 0x41, 0x3e, 0x0c, 0x7c, 0x64, 0xbe, 0x16, 0x99, 0x7d, 0x3e, 0x1c, 0x40, 0x12, 0x3e, 0xcd, 0x77, 0x26, 0xbe, 0x4a, 0xd9, 0x55, 0xbe, 0xf2, 0x85, 0x65, 0x3e, 0x56, 0x91, 0x22, 0x3e, 0x6e, 0x53, 0x32, 0x3e, 0xc0, 0xfd, 0x70, 0x3d, 0x00, 0x3c, 0xe2, 0x39, 0x94, 0xe1, 0xc5, 0xbd, 0x3a, 0x10, 0x40, 0x3e, 0x1e, 0xcf, 0x5e, 0x3e, 0x32, 0x14, 0x03, 0xbe, 0x2c, 0xfb, 0xed, 0xbd, 0x46, 0x85, 0x5d, 0x3e, 0xf1, 0x62, 0xa8, 0xbe, 0x80, 0xe7, 0x8a, 0xbc, 0xc2, 0x2b, 0xa1, 0xbe, 0x14, 0x3e, 0xeb, 0x3d, 0x1d, 0x94, 0x98, 0x3e, 0xc3, 0xfa, 0x23, 0xbe, 0x28, 0xbd, 0x18, 0x3d, 0x34, 0xa7, 0x96, 0xbe, 0x95, 0x27, 0x8a, 0x3e, 0xcd, 0xd9, 0x2a, 0xbe, 0xc0, 0xf6, 0xcf, 0x3b, 0x24, 0x0a, 0xf5, 0xbd, 0xce, 0xb5, 0x3f, 0x3e, 0xe0, 0x9f, 0x4f, 0xbd, 0x43, 0xaa, 0xb2, 0xbe, 0x0b, 0xe8, 0x8f, 0x3e, 0x04, 0x64, 0xb2, 0xbe, 0x7f, 0x52, 0x6a, 0xbe, 0xd2, 0x68, 0x3b, 0xbe, 0xcc, 0x2d, 0x9e, 0xbe, 0x78, 0x9a, 0x4c, 0xbe, 0xab, 0x4b, 0xad, 0xbe, 0x75, 0x42, 0xb3, 0xbe, 0xc2, 0xdc, 0x6b, 0x3e, 0x36, 0x2a, 0x45, 0x3e, 0x30, 0xb5, 0xfd, 0x3c, 0xa0, 0xed, 0xf9, 0x3d, 0x62, 0x54, 0x60, 0xbe, 0xec, 0x5d, 0xd0, 0xbd, 0x2b, 0x0b, 0x1e, 0xbe, 0x59, 0x1b, 0x04, 0xbe, 0x7b, 0x55, 0xb1, 0x3e, 0x6e, 0xc5, 0x55, 0x3e, 0xd7, 0xee, 0xaa, 0xbe, 0x2d, 0x00, 0x8f, 0x3e, 0xea, 0xb7, 0x93, 0xbe, 0xb1, 0x88, 0x31, 0xbe, 0x61, 0x85, 0x74, 0xbe, 0x3e, 0x1d, 0x9a, 0xbe, 0x0b, 0x62, 0x9e, 0xbe, 0xa0, 0xac, 0xcb, 0xbc, 0x60, 0xbe, 0xdd, 0x3c, 0x87, 0xec, 0xaa, 0x3e, 0x5e, 0x43, 0x79, 0xbe, 0xc0, 0x73, 0x4d, 0xbd, 0x72, 0xca, 0x95, 0x3e, 0xe0, 0xe9, 0x30, 0x3c, 0xa0, 0xf3, 0x00, 0xbd, 0x46, 0xd0, 0x85, 0xbe, 0x90, 0x99, 0x8c, 0x3e, 0x4a, 0x8a, 0xd8, 0xbd, 0x9a, 0x76, 0x7f, 0xbe, 0xad, 0xdb, 0x58, 0xbe, 0x32, 0xbc, 0x4a, 0x3e, 0xde, 0x83, 0x91, 0xbe, 0xb0, 0xa7, 0xcd, 0xbd, 0x2a, 0x1c, 0x21, 0x3e, 0xaa, 0x40, 0x8e, 0x3e, 0x4e, 0x72, 0xa7, 0xbd, 0x41, 0xbc, 0xa9, 0xbe, 0xc1, 0x50, 0x7c, 0x3e, 0x44, 0x1b, 0x3a, 0xbe, 0x38, 0x49, 0x23, 0x3d, 0xef, 0x26, 0x07, 0x3e, 0x96, 0x60, 0xac, 0x3e, 0xb7, 0x26, 0x02, 0x3d, 0x88, 0xbc, 0xb4, 0xbe, 0xf5, 0x12, 0x23, 0x3d, 0x91, 0xe1, 0x89, 0x3e, 0x40, 0xc2, 0xee, 0xbb, 0x77, 0x92, 0xac, 0xbe, 0x53, 0xc2, 0x99, 0xbe, 0x17, 0x31, 0x84, 0x3e, 0xc2, 0xbf, 0x1e, 0xbe, 0xaf, 0xa2, 0x95, 0x3e, 0x86, 0x12, 0x6e, 0x3e, 0x40, 0xc5, 0xa3, 0xbc, 0x92, 0x6d, 0xa6, 0x3e, 0x80, 0xd4, 0xab, 0xbb, 0x8f, 0xb4, 0xa5, 0x3e, 0x2f, 0x9e, 0xe9, 0xbd, 0x1c, 0xd7, 0x9b, 0x3e, 0x9a, 0x25, 0x89, 0xbe, 0xc2, 0x17, 0x95, 0xbe, 0x15, 0x9d, 0x8b, 0x3e, 0x21, 0xcf, 0xa2, 0x3e, 0x7e, 0x26, 0xa4, 0xbe, 0xb4, 0x76, 0x24, 0xbe, 0x1d, 0xc3, 0x3a, 0xbe, 0xf3, 0x5f, 0x85, 0x3e, 0x09, 0xcf, 0xae, 0xbe, 0xeb, 0x04, 0xb2, 0x3e, 0xd1, 0xe5, 0x9a, 0xbb, 0x97, 0xfa, 0x9d, 0x3e, 0x01, 0x6f, 0xa1, 0x3d, 0xf5, 0xe6, 0x03, 0xbe, 0x75, 0x03, 0x57, 0xbc, 0xf6, 0x5e, 0x33, 0x3e, 0xed, 0x06, 0xe8, 0x3e, 0xa1, 0xbd, 0x16, 0x3b, 0x3c, 0xd5, 0x8b, 0xbe, 0x80, 0x18, 0x57, 0xbc, 0xa5, 0xcc, 0x8d, 0x3e, 0xf1, 0x94, 0x1d, 0xbb, 0xf0, 0x10, 0xd8, 0x3d, 0x6a, 0x83, 0x78, 0xbe, 0x70, 0x46, 0xb2, 0x3d, 0x24, 0x7d, 0xcc, 0x3d, 0x51, 0x64, 0x18, 0xbe, 0x70, 0x8b, 0xa5, 0xbe, 0x51, 0xc3, 0x67, 0xbe, 0x99, 0x8a, 0x90, 0x3e, 0x5d, 0xf4, 0x8d, 0x3e, 0x84, 0xaf, 0xae, 0x3d, 0x10, 0xc0, 0xcc, 0x3c, 0xce, 0xd6, 0x30, 0x3e, 0x48, 0x5f, 0xb2, 0xbd, 0x90, 0x53, 0x96, 0x3c, 0xd7, 0xd9, 0xa7, 0xbe, 0xfe, 0x1c, 0x7c, 0x3e, 0xc8, 0x3c, 0x49, 0xbd, 0x80, 0x00, 0x33, 0xbd, 0xde, 0x73, 0x16, 0x3e, 0x06, 0x39, 0x9b, 0xbe, 0xca, 0x50, 0x40, 0x3e, 0xd6, 0x06, 0x6b, 0x3e, 0x3b, 0x5a, 0x2b, 0xbe, 0xb2, 0xc8, 0x9a, 0xbe, 0x2e, 0x37, 0x3d, 0xbe, 0x34, 0x6e, 0xb1, 0x3d, 0xcd, 0x63, 0x9c, 0x3e, 0x6f, 0x45, 0x38, 0xbe, 0x80, 0xaf, 0x10, 0xbd, 0x30, 0x94, 0xe7, 0x3c, 0x79, 0x66, 0x27, 0xbe, 0x5e, 0x43, 0x20, 0x3e, 0x37, 0x7a, 0x92, 0xbe, 0x48, 0x7f, 0x81, 0x3d, 0x08, 0xf0, 0xab, 0xbd, 0x82, 0x35, 0x76, 0xbe, 0x5c, 0xd8, 0x27, 0xbe, 0x18, 0xa2, 0x79, 0x3e, 0x5b, 0x5e, 0x52, 0xbe, 0xfe, 0xe9, 0x73, 0xbe, 0xa0, 0xb7, 0x07, 0x3d, 0xbf, 0xd1, 0x6b, 0x3e, 0xc9, 0xda, 0x36, 0xbe, 0x65, 0x5c, 0xb1, 0x3e, 0xf8, 0x1e, 0x43, 0x3d, 0x3c, 0xf1, 0xe3, 0xbd, 0xcc, 0xeb, 0xb6, 0x3d, 0x89, 0x12, 0xa1, 0x3a, 0xa7, 0x62, 0x9b, 0x3e, 0xe7, 0x6e, 0x38, 0x3e, 0xcd, 0xcb, 0x81, 0x3e, 0x55, 0x32, 0xa7, 0xbe, 0x51, 0xa3, 0x98, 0xbe, 0xf6, 0xf8, 0x50, 0x3e, 0xd2, 0xae, 0x84, 0x3e, 0x03, 0x0d, 0x12, 0x3e, 0xd2, 0x97, 0x8d, 0x3e, 0x00, 0x3c, 0xb5, 0x3e, 0x8a, 0x79, 0xa0, 0xbe, 0x8b, 0x0a, 0xa8, 0xbe, 0xaa, 0xc6, 0xfa, 0xbd, 0xd4, 0x4b, 0xd9, 0xbd, 0xef, 0x30, 0xd8, 0xbd, 0x51, 0x10, 0x05, 0x3e, 0xdc, 0x9b, 0xb7, 0x3d, 0x86, 0x25, 0xe3, 0xbd, 0x9a, 0x4f, 0x55, 0xbe, 0x70, 0xf7, 0x8f, 0xbc, 0xa7, 0xe8, 0x80, 0x3e, 0xa5, 0x02, 0x10, 0x3e, 0x5d, 0x8b, 0x3e, 0xbe, 0x68, 0x2f, 0x4e, 0x3d, 0x4e, 0x91, 0x96, 0xbe, 0xdd, 0xa1, 0xb2, 0x3e, 0x22, 0x9a, 0xae, 0xbd, 0x92, 0x72, 0xa9, 0xbe, 0x58, 0x27, 0x9c, 0x3e, 0xdc, 0xc2, 0xa8, 0x3d, 0x54, 0x51, 0xa1, 0xbd, 0x8c, 0x7f, 0x1b, 0x3e, 0xa0, 0xd9, 0x07, 0x3d, 0x7f, 0xe4, 0x3e, 0xbe, 0x22, 0x17, 0xd8, 0x3d, 0x60, 0x84, 0x90, 0x3c, 0x6c, 0xc0, 0x39, 0xbe, 0x7f, 0xe1, 0xa7, 0xbe, 0xae, 0xe8, 0x3e, 0x3e, 0x04, 0x6e, 0x7d, 0xbe, 0x63, 0x0e, 0x7d, 0xbe, 0x4a, 0x52, 0x80, 0xbe, 0xde, 0x10, 0x0b, 0xbc, 0xbd, 0x21, 0x55, 0x3c, 0xf0, 0xcd, 0x66, 0xbd, 0x10, 0x6f, 0x17, 0xbe, 0x49, 0x81, 0x75, 0x3d, 0xdd, 0xfd, 0x3d, 0x3e, 0x50, 0xc7, 0x0e, 0x3d, 0x01, 0x6d, 0x8b, 0xbe, 0x20, 0xef, 0xa2, 0xbe, 0x52, 0xd2, 0x1d, 0x3e, 0x22, 0x9c, 0x64, 0x3e, 0x63, 0xfb, 0x8d, 0x3e, 0x60, 0x0e, 0x46, 0x3d, 0x6f, 0xe1, 0x4a, 0xbe, 0x40, 0x61, 0xf5, 0x3d, 0x71, 0xcd, 0xb4, 0xbe, 0xa8, 0x9c, 0xaf, 0xbe, 0xd1, 0x0c, 0x13, 0xbe, 0x92, 0xac, 0x6d, 0xbe, 0x68, 0x7f, 0x95, 0x3d, 0xf0, 0x87, 0xcc, 0xbd, 0xf4, 0xda, 0xff, 0x3d, 0x13, 0x30, 0x3b, 0xbe, 0x43, 0x7a, 0x9c, 0x3e, 0x0b, 0x3b, 0xa0, 0xbe, 0x02, 0xc8, 0xa9, 0xbe, 0x7d, 0xb6, 0xb3, 0xbe, 0xe5, 0x4e, 0x92, 0xbe, 0x78, 0xfd, 0x8a, 0xbe, 0xb8, 0xcb, 0x9f, 0xbd, 0x94, 0xe8, 0x27, 0xbe, 0xc4, 0xb9, 0xe0, 0x3d, 0x76, 0x74, 0x54, 0x3e, 0x8f, 0xf1, 0x97, 0x3e, 0x6e, 0xb5, 0x5e, 0x3e, 0x2b, 0xa7, 0xb2, 0xbe, 0x07, 0x1b, 0xa2, 0x3e, 0xae, 0x52, 0x71, 0xbe, 0xfd, 0xf7, 0xa2, 0x3e, 0x92, 0xaa, 0x20, 0x3e, 0x02, 0xda, 0xff, 0xff, 0x04, 0x00, 0x00, 0x00, 0x00, 0x20, 0x00, 0x00, 0x00, 0xb8, 0x89, 0xb9, 0x50, 0x54, 0xbb, 0xbd, 0x48, 0x7c, 0xea, 0x3d, 0xf4, 0x15, 0x10, 0xbe, 0xb0, 0x5c, 0x6d, 0xbe, 0xa0, 0x02, 0x3e, 0xbe, 0x88, 0xc0, 0x6e, 0x3e, 0x00, 0xed, 0x22, 0x3d, 0x60, 0x56, 0x87, 0x3c, 0x4c, 0xa8, 0x66, 0xbe, 0x80, 0xe8, 0x6a, 0x3e, 0x60, 0xd2, 0xff, 0x3c, 0x00, 0xac, 0xc4, 0xbd, 0xdc, 0x3a, 0x06, 0x3e, 0x80, 0xa2, 0xba, 0xbd, 0x98, 0x6e, 0x41, 0x3e, 0xa4, 0xce, 0x34, 0xbe, 0x18, 0xf4, 0x9e, 0x3d, 0x78, 0xd3, 0xdb, 0x3d, 0x00, 0x6f, 0x63, 0xbe, 0x98, 0x62, 0xd0, 0x3d, 0x0c, 0x13, 0x2d, 0x3e, 0xe0, 0x0a, 0x02, 0x3e, 0xe0, 0x22, 0x82, 0x3c, 0xd0, 0x41, 0x3c, 0xbd, 0x80, 0xea, 0xf4, 0x3d, 0x28, 0x75, 0x23, 0xbe, 0xe8, 0x9c, 0xc0, 0x3d, 0xa0, 0x9a, 0xbb, 0x3d, 0xc0, 0x3f, 0x3d, 0xbd, 0x88, 0x51, 0xf9, 0xbd, 0xc0, 0x49, 0x05, 0xbc, 0x38, 0x10, 0xee, 0x3d, 0xbc, 0x95, 0x36, 0xbe, 0xd8, 0x7a, 0xfc, 0xbd, 0x38, 0x7c, 0x82, 0x3d, 0xf0, 0x19, 0x56, 0x3d, 0x60, 0x58, 0x13, 0xbd, 0xc0, 0x97, 0xf4, 0x3c, 0x64, 0xb1, 0x7d, 0xbe, 0x30, 0xa6, 0x31, 0x3d, 0x30, 0x42, 0x41, 0x3d, 0x18, 0xda, 0x29, 0x3e, 0x28, 0x11, 0x43, 0xbe, 0x94, 0x16, 0x10, 0xbe, 0x50, 0x88, 0xad, 0xbd, 0x34, 0x79, 0x78, 0xbe, 0x68, 0x38, 0x4c, 0x3e, 0x34, 0xf3, 0x62, 0xbe, 0x80, 0x55, 0x22, 0xbd, 0xb4, 0x31, 0x3e, 0xbe, 0x14, 0xa4, 0x13, 0x3e, 0xc4, 0x84, 0x65, 0xbe, 0xb0, 0xfb, 0x70, 0xbd, 0xb8, 0x3c, 0xb2, 0xbd, 0x38, 0x34, 0xbb, 0xbd, 0x60, 0x12, 0xa6, 0xbd, 0xe8, 0xd5, 0xbc, 0xbd, 0xcc, 0x77, 0x22, 0xbe, 0xec, 0xa2, 0x3d, 0x3e, 0x00, 0x2a, 0x00, 0x3d, 0x10, 0x7d, 0xec, 0xbd, 0x60, 0xb2, 0x28, 0xbe, 0xe4, 0x1e, 0x5d, 0xbe, 0x40, 0x9c, 0x31, 0xbc, 0xb0, 0xc4, 0xe7, 0xbd, 0xa0, 0xc9, 0x3e, 0xbe, 0xfc, 0x2e, 0x2e, 0x3e, 0x68, 0x08, 0x4c, 0xbe, 0xd8, 0x6e, 0x14, 0xbe, 0xf8, 0x87, 0xc7, 0xbd, 0x54, 0xf4, 0x5b, 0x3e, 0x98, 0x2c, 0x83, 0xbd, 0x80, 0x15, 0x62, 0xbe, 0x78, 0xa3, 0x68, 0x3e, 0x1c, 0x93, 0x64, 0x3e, 0xb8, 0xd7, 0xad, 0x3d, 0x10, 0x2f, 0x01, 0x3d, 0xb8, 0xc5, 0x79, 0xbe, 0x90, 0xcb, 0x75, 0x3d, 0xa8, 0x6f, 0x4d, 0x3e, 0x78, 0xca, 0x0b, 0xbe, 0x80, 0x86, 0xfa, 0x3c, 0x78, 0x13, 0x72, 0xbe, 0x68, 0xc9, 0xb4, 0xbd, 0x98, 0xfc, 0xba, 0x3d, 0xc0, 0x5b, 0x3e, 0x3d, 0x78, 0x8b, 0x9b, 0x3d, 0x30, 0xde, 0xe5, 0xbd, 0xfc, 0x02, 0x23, 0xbe, 0xe0, 0x1d, 0xba, 0xbc, 0x20, 0xf5, 0x22, 0x3d, 0x00, 0xfa, 0x99, 0x3c, 0xfc, 0xd1, 0x6c, 0xbe, 0x00, 0x4a, 0xad, 0xbc, 0x24, 0x74, 0x48, 0xbe, 0xe8, 0x26, 0x05, 0xbe, 0x00, 0x0c, 0x39, 0x3a, 0x40, 0x1a, 0xc3, 0x3c, 0xf0, 0x2b, 0x23, 0xbe, 0xb8, 0xaa, 0x98, 0x3d, 0x28, 0x8d, 0x25, 0x3e, 0x3c, 0xc0, 0x0c, 0x3e, 0xc8, 0xdc, 0x4d, 0xbe, 0x74, 0x91, 0x47, 0xbe, 0x4c, 0xb8, 0x1c, 0x3e, 0x00, 0x71, 0x5f, 0xbe, 0x10, 0x59, 0xc2, 0xbd, 0x64, 0x5e, 0x73, 0xbe, 0xdc, 0x95, 0x36, 0x3e, 0xf0, 0xaa, 0xfc, 0xbd, 0xfc, 0x12, 0x3b, 0x3e, 0xa0, 0x27, 0xb4, 0x3c, 0x58, 0x1a, 0xb4, 0xbd, 0xc0, 0x95, 0x07, 0x3e, 0x70, 0x07, 0x2a, 0xbd, 0xc0, 0xc0, 0xf3, 0xbd, 0x10, 0x60, 0x97, 0xbd, 0x88, 0xcf, 0x69, 0x3e, 0x40, 0xe2, 0xe2, 0x3d, 0xb8, 0x1f, 0x1c, 0xbe, 0x00, 0x92, 0x8a, 0x3a, 0xcc, 0x3e, 0x1e, 0xbe, 0xfc, 0xdd, 0x4a, 0xbe, 0x48, 0xef, 0xfe, 0xbd, 0xfc, 0x0d, 0x0b, 0xbe, 0xb0, 0x6d, 0x48, 0xbd, 0x80, 0x5e, 0xdf, 0x3c, 0x28, 0xd4, 0xdf, 0x3d, 0xe4, 0xbd, 0x77, 0x3e, 0x34, 0x06, 0x3f, 0xbe, 0xa8, 0x84, 0xa4, 0xbd, 0x80, 0x44, 0x06, 0x3c, 0x10, 0x62, 0x95, 0x3d, 0xe0, 0x83, 0xda, 0xbc, 0x18, 0x1d, 0x84, 0x3d, 0x90, 0x19, 0xad, 0xbd, 0x00, 0x67, 0x1e, 0xbc, 0x80, 0x95, 0x03, 0xbe, 0x20, 0x05, 0x38, 0x3d, 0xb0, 0x15, 0x93, 0x3d, 0x3c, 0xe0, 0x64, 0xbe, 0x48, 0xa0, 0xef, 0x3d, 0xa0, 0xd0, 0xe5, 0x3d, 0x48, 0x29, 0x11, 0x3e, 0x80, 0xa7, 0x76, 0x3d, 0xac, 0x08, 0x6a, 0xbe, 0x68, 0x6f, 0x66, 0xbe, 0x20, 0x19, 0xa5, 0xbc, 0x40, 0x9f, 0x23, 0x3d, 0x1c, 0xb6, 0x38, 0xbe, 0x88, 0x20, 0x0d, 0x3e, 0x54, 0x88, 0x17, 0xbe, 0x20, 0x42, 0x49, 0x3d, 0x48, 0xf8, 0x1b, 0xbe, 0x00, 0xb5, 0x9d, 0xbc, 0x90, 0x3a, 0xf1, 0xbd, 0x18, 0x86, 0x58, 0x3e, 0x60, 0x64, 0xc6, 0x3d, 0x48, 0x6c, 0x71, 0x3e, 0xb0, 0x74, 0xca, 0x3d, 0xd0, 0xe6, 0x41, 0xbd, 0x98, 0x06, 0x66, 0xbe, 0x70, 0x14, 0xb6, 0x3d, 0x40, 0xf8, 0x7f, 0x3c, 0x64, 0x19, 0x3e, 0x3e, 0x44, 0xff, 0x10, 0x3e, 0x60, 0x97, 0x5b, 0x3e, 0x80, 0xcf, 0x3f, 0x3d, 0x70, 0x43, 0x5e, 0xbe, 0x58, 0x5b, 0xd9, 0xbd, 0xc0, 0xbb, 0xe8, 0x3d, 0x2c, 0xbd, 0x28, 0xbe, 0xdc, 0x33, 0x0a, 0xbe, 0x20, 0x40, 0x6a, 0xbd, 0xc0, 0xc4, 0x1e, 0xbc, 0xc8, 0xc9, 0xce, 0x3d, 0xc8, 0xbb, 0xb2, 0x3d, 0x00, 0xd6, 0xf4, 0xba, 0x80, 0x61, 0xe9, 0xbb, 0xf0, 0xeb, 0x48, 0x3d, 0x18, 0xb8, 0xc6, 0xbd, 0x18, 0x8f, 0x61, 0xbe, 0x90, 0x75, 0xd6, 0xbd, 0xd8, 0x77, 0x6e, 0xbe, 0x54, 0x0f, 0x60, 0x3e, 0xb0, 0xc8, 0xa2, 0xbd, 0x58, 0x34, 0x09, 0x3e, 0xe8, 0xf6, 0x41, 0xbe, 0xe0, 0xa1, 0xbb, 0xbc, 0x80, 0xd1, 0x7a, 0x3d, 0xe4, 0xe9, 0x33, 0xbe, 0x1d, 0x68, 0x78, 0x3e, 0x80, 0x40, 0x4a, 0xbe, 0x18, 0xa3, 0x25, 0x3e, 0xf8, 0x92, 0xa4, 0x3d, 0x29, 0x07, 0xe8, 0xbc, 0x49, 0xae, 0xe2, 0x3d, 0xea, 0xe8, 0x54, 0x3e, 0x40, 0x16, 0x22, 0xbe, 0x49, 0x6e, 0x96, 0x3d, 0x83, 0xcd, 0xf7, 0x3d, 0xa5, 0x9e, 0x82, 0x3d, 0xd0, 0x7b, 0xd4, 0xbd, 0xa7, 0x39, 0x2d, 0x3e, 0x58, 0x68, 0xe3, 0x3d, 0x28, 0x8f, 0x26, 0x3e, 0x98, 0x55, 0xb3, 0xbd, 0xbc, 0x61, 0x7c, 0xbe, 0x64, 0x91, 0x41, 0x3e, 0x17, 0xd0, 0xeb, 0x3d, 0x87, 0x47, 0xbc, 0x3d, 0x12, 0x5c, 0x04, 0x3e, 0x92, 0xc0, 0x5d, 0x3e, 0xbc, 0x13, 0x0f, 0x3e, 0x4a, 0x7a, 0x1e, 0x3e, 0xc8, 0x17, 0x81, 0xbd, 0x42, 0x26, 0x1b, 0x3e, 0x50, 0xb4, 0x38, 0x3e, 0x9d, 0x60, 0x60, 0x3c, 0x26, 0x9f, 0x72, 0xbe, 0x80, 0x9b, 0xfa, 0x3b, 0xb8, 0x5b, 0x9e, 0xbd, 0xac, 0x34, 0x0a, 0x3e, 0x30, 0x46, 0x39, 0xbe, 0xd3, 0x0b, 0x86, 0x3d, 0xaf, 0xaa, 0x1c, 0x3e, 0x0c, 0x13, 0xe7, 0xbd, 0x8c, 0xb8, 0xc8, 0xbd, 0xb2, 0x33, 0x47, 0xbe, 0x60, 0x5a, 0x80, 0xbe, 0xd0, 0xb5, 0x3f, 0xbe, 0x61, 0x1f, 0x31, 0xbd, 0x4d, 0xf0, 0x02, 0x3e, 0xc8, 0x2a, 0x60, 0x3e, 0x20, 0xe1, 0xec, 0xbd, 0x68, 0x4e, 0x22, 0xbe, 0x70, 0x78, 0x73, 0x3e, 0xf5, 0x39, 0xf4, 0x3d, 0x28, 0x0a, 0x7d, 0xbe, 0x27, 0xd6, 0xaf, 0x3d, 0x91, 0x8f, 0x12, 0xbc, 0x5c, 0x9e, 0x57, 0xbe, 0x50, 0x9a, 0x2b, 0x3d, 0x0f, 0x8c, 0xa9, 0x3d, 0xc0, 0xfb, 0xa7, 0xbc, 0x9b, 0xae, 0xa1, 0x3d, 0x60, 0xab, 0xc4, 0xbc, 0x8b, 0xd9, 0x45, 0xbe, 0x4a, 0xc8, 0x2f, 0xbe, 0x46, 0xf7, 0x77, 0x3e, 0x0b, 0x64, 0xfb, 0xbd, 0x74, 0x49, 0x11, 0x3d, 0x45, 0x79, 0x1f, 0xbd, 0x32, 0xff, 0xfe, 0x3d, 0xa4, 0x82, 0x29, 0x3e, 0x30, 0x2b, 0x23, 0xbe, 0x18, 0x7f, 0xd2, 0x3d, 0x40, 0xa8, 0x0b, 0x3e, 0x30, 0x0a, 0xc2, 0xbd, 0x20, 0x8b, 0xdd, 0xbd, 0x20, 0x34, 0xbe, 0xbc, 0x80, 0xa9, 0x3a, 0x3d, 0x40, 0x32, 0x0e, 0xbe, 0x10, 0x5c, 0x69, 0x3e, 0x98, 0x4e, 0x45, 0x3e, 0xc8, 0x9c, 0x21, 0xbe, 0x78, 0x14, 0x38, 0xbe, 0xc8, 0x02, 0x39, 0x3e, 0x00, 0x6c, 0x24, 0x3c, 0x68, 0x83, 0x79, 0x3e, 0xbc, 0x94, 0x1d, 0x3e, 0x20, 0xb0, 0x57, 0x3d, 0xf0, 0x47, 0x87, 0xbd, 0xb0, 0x6b, 0x5e, 0x3e, 0x40, 0xe6, 0x01, 0xbd, 0x90, 0xdb, 0x96, 0xbd, 0xb8, 0xac, 0x06, 0x3e, 0x10, 0xab, 0x70, 0x3d, 0xcc, 0x8d, 0x3f, 0x3e, 0xb0, 0x80, 0x1b, 0xbd, 0x5c, 0xc6, 0x76, 0x3e, 0xb8, 0xda, 0x90, 0xbd, 0xf8, 0x37, 0x20, 0x3e, 0x30, 0xcb, 0x42, 0xbe, 0xd8, 0x90, 0x6a, 0x3e, 0x80, 0xd7, 0x3d, 0xbd, 0x28, 0x4f, 0x06, 0x3e, 0xa0, 0x2e, 0xd4, 0xbc, 0x98, 0xc0, 0x31, 0xbe, 0x60, 0xee, 0x8e, 0x3c, 0x38, 0x36, 0x80, 0xbd, 0x0c, 0x15, 0x73, 0xbe, 0x68, 0xaf, 0x66, 0x3e, 0x7c, 0x1f, 0x55, 0xbe, 0xb8, 0xca, 0x4c, 0xbe, 0x64, 0xaa, 0x69, 0x3e, 0xd8, 0x5b, 0x5e, 0xbe, 0x44, 0x28, 0x64, 0xbe, 0xe0, 0x69, 0x80, 0xbc, 0x3c, 0xc8, 0x18, 0x3e, 0xe0, 0xd3, 0xa3, 0xbd, 0xe0, 0x37, 0x57, 0xbd, 0x70, 0x0b, 0xbc, 0x3d, 0x00, 0xf6, 0x3d, 0x3c, 0x30, 0xeb, 0x63, 0xbd, 0xfc, 0x8f, 0x25, 0x3e, 0x10, 0xff, 0xda, 0x3d, 0x60, 0x76, 0x19, 0x3d, 0x00, 0x9c, 0x37, 0x3c, 0x60, 0xb2, 0x24, 0xbe, 0xd8, 0x08, 0x53, 0xbe, 0x90, 0x55, 0x6e, 0x3d, 0xec, 0x53, 0x2c, 0x3e, 0x80, 0xb0, 0xc4, 0x3c, 0xc0, 0x0b, 0x87, 0xbc, 0x20, 0x70, 0xa0, 0x3c, 0x90, 0x80, 0x30, 0xbd, 0x80, 0x48, 0xd0, 0xbc, 0x50, 0x5d, 0x21, 0xbe, 0x80, 0xb5, 0xed, 0x3b, 0xe8, 0xbb, 0x60, 0x3e, 0x10, 0x7c, 0xb9, 0xbd, 0x00, 0xa5, 0x0c, 0x3c, 0x94, 0x8e, 0x50, 0xbe, 0x04, 0xbf, 0x7d, 0xbe, 0x30, 0xba, 0x18, 0xbe, 0x78, 0x7c, 0x5a, 0xbe, 0xd0, 0xd1, 0xe9, 0xbd, 0x90, 0x74, 0x3c, 0x3e, 0x6c, 0xb5, 0x65, 0xbe, 0x98, 0xb3, 0x19, 0xbe, 0x84, 0x2f, 0x7f, 0x3e, 0xe4, 0x19, 0x10, 0x3e, 0x30, 0xae, 0x6c, 0x3e, 0x20, 0xf5, 0x5a, 0x3e, 0x80, 0xee, 0x17, 0xbc, 0xd0, 0x6a, 0xc6, 0xbd, 0x48, 0xc0, 0x57, 0x3e, 0x08, 0x49, 0x74, 0xbe, 0x10, 0x2a, 0xe6, 0xbd, 0x50, 0x46, 0x8c, 0xbd, 0xa0, 0x3f, 0x53, 0xbd, 0xa0, 0xe2, 0x07, 0x3e, 0xe8, 0xfd, 0x81, 0xbd, 0x3c, 0xf3, 0x08, 0x3e, 0x84, 0xaa, 0x3a, 0xbe, 0x50, 0x51, 0xb1, 0xbd, 0x00, 0x1c, 0xaf, 0xbd, 0xd0, 0x62, 0x5e, 0x3e, 0x10, 0x68, 0xe2, 0xbd, 0x80, 0x95, 0x88, 0x3c, 0xb0, 0xf6, 0x01, 0xbd, 0x2c, 0x9b, 0x4a, 0x3e, 0xac, 0x12, 0x2b, 0xbe, 0xc0, 0xc3, 0xb0, 0x3d, 0x9c, 0x58, 0x3e, 0xbe, 0x8c, 0xd9, 0x2d, 0xbe, 0x04, 0xf0, 0x57, 0x3e, 0xc0, 0xa7, 0xe0, 0xbd, 0x20, 0xbf, 0xda, 0xbc, 0x40, 0x01, 0x72, 0x3d, 0xfc, 0x10, 0x76, 0xbe, 0xb8, 0x50, 0x75, 0xbe, 0x50, 0xc2, 0x39, 0xbe, 0x80, 0x1e, 0xf4, 0x3d, 0x80, 0xbd, 0xed, 0x3c, 0x48, 0x4d, 0xcf, 0xbd, 0xf8, 0x49, 0xe4, 0x3d, 0x00, 0xa2, 0x11, 0x3e, 0x60, 0x29, 0xd4, 0x3d, 0x80, 0xd9, 0xb7, 0x3d, 0x64, 0xdc, 0x54, 0x3e, 0xa0, 0xa4, 0x54, 0x3e, 0x30, 0xf4, 0x3d, 0xbe, 0xa0, 0x05, 0x07, 0xbe, 0x74, 0xa4, 0x53, 0xbe, 0xcc, 0x18, 0x63, 0xbe, 0x40, 0xe6, 0xc1, 0xbc, 0x08, 0x9d, 0x95, 0x3d, 0x00, 0x87, 0x31, 0xbe, 0xf0, 0x55, 0xb1, 0xbd, 0xe0, 0xeb, 0x88, 0xbc, 0xb8, 0x73, 0x02, 0x3e, 0xf4, 0xc5, 0x6f, 0x3d, 0x10, 0x9c, 0x1e, 0x3d, 0xe1, 0xd6, 0x80, 0xbe, 0x28, 0x15, 0x84, 0x3d, 0x3c, 0xd0, 0x01, 0xbe, 0x87, 0x94, 0x05, 0xbe, 0x0a, 0xb0, 0x04, 0x3e, 0x58, 0xce, 0x49, 0x3e, 0xce, 0xf2, 0xaa, 0x3b, 0x97, 0x16, 0x28, 0x3d, 0x9e, 0x50, 0x20, 0x3e, 0x24, 0x84, 0x69, 0x3e, 0x49, 0x02, 0x33, 0x3e, 0x18, 0x61, 0xc2, 0x3d, 0x10, 0xca, 0x3e, 0x3d, 0x90, 0xc3, 0xc5, 0xbd, 0xf4, 0xa6, 0x07, 0xbe, 0xee, 0x99, 0x37, 0x3d, 0x51, 0x34, 0x6c, 0x3e, 0xc6, 0xaf, 0x02, 0x3e, 0xbb, 0x53, 0x5b, 0x3e, 0x14, 0x55, 0x83, 0xbe, 0xf0, 0x13, 0xb7, 0xbd, 0x79, 0x50, 0x37, 0xbd, 0x96, 0xa5, 0x10, 0xbe, 0xa0, 0xc8, 0x9c, 0xbd, 0x92, 0x49, 0x0a, 0x3d, 0x3e, 0x2f, 0xe8, 0xbd, 0x6e, 0x35, 0xeb, 0x3c, 0x20, 0x1f, 0x23, 0xbe, 0x80, 0x60, 0xf3, 0xbb, 0xe0, 0xd6, 0xfa, 0x3c, 0x00, 0x91, 0xe4, 0x3c, 0xad, 0xfc, 0xef, 0x3d, 0x7d, 0xb8, 0xcf, 0xbc, 0xb8, 0x83, 0x37, 0x3d, 0x3d, 0x55, 0x90, 0x3d, 0x4d, 0x65, 0x7f, 0xbe, 0x9d, 0xd7, 0x0e, 0x3e, 0xc0, 0x6f, 0x73, 0x3c, 0xc3, 0x00, 0xe6, 0xbd, 0xb9, 0x56, 0x52, 0x3d, 0xf4, 0x8d, 0x4f, 0x3e, 0x20, 0x18, 0x68, 0x3e, 0x80, 0x32, 0x8f, 0x3d, 0xc8, 0x64, 0x37, 0x3e, 0x69, 0x9d, 0x23, 0x3e, 0x40, 0x24, 0x14, 0x3e, 0xd4, 0x46, 0x03, 0xbe, 0x9f, 0x96, 0x06, 0xbe, 0x08, 0x68, 0x1b, 0x3e, 0x78, 0x8b, 0xe5, 0xbd, 0x5f, 0xd4, 0x0b, 0x3e, 0xd0, 0x94, 0xd1, 0xbd, 0x85, 0x7c, 0x51, 0x3c, 0x98, 0x23, 0x81, 0x3d, 0x1d, 0x4f, 0x21, 0xbd, 0xe2, 0x72, 0x48, 0x3e, 0x91, 0xea, 0x29, 0xbe, 0x59, 0xda, 0x99, 0x3d, 0x47, 0x0d, 0x1c, 0xbe, 0x28, 0xba, 0x85, 0xbd, 0x3d, 0x1f, 0x01, 0x3e, 0x88, 0xe9, 0xe6, 0x3d, 0x21, 0x9b, 0x73, 0x3e, 0x40, 0xa3, 0xe3, 0xbd, 0x25, 0x8d, 0xbb, 0xbd, 0x40, 0xe1, 0xca, 0xbc, 0x23, 0x8d, 0xdf, 0x3d, 0x6b, 0xff, 0x46, 0x3e, 0x35, 0xcb, 0x2c, 0x3e, 0x10, 0x8d, 0x45, 0xbe, 0x3e, 0x2d, 0xe0, 0x3d, 0xd3, 0x7c, 0x26, 0x3e, 0x52, 0x74, 0x0d, 0x3e, 0x78, 0xac, 0xa8, 0xbd, 0xd9, 0x2a, 0xc9, 0x3d, 0xe8, 0x64, 0xfa, 0x3d, 0xd8, 0x8a, 0x42, 0xbe, 0xf4, 0xb5, 0x55, 0xbe, 0x08, 0x4c, 0x80, 0xbd, 0x18, 0x6c, 0x22, 0xbe, 0x91, 0xd7, 0x2d, 0xbe, 0x01, 0xf7, 0x1e, 0x3e, 0x9d, 0x75, 0x37, 0xbe, 0x7f, 0x92, 0x6e, 0xbe, 0x18, 0xcf, 0x38, 0x3e, 0x96, 0x10, 0xe6, 0xbc, 0xdd, 0x94, 0xb2, 0x3c, 0xcc, 0x19, 0xc7, 0x3d, 0x0b, 0x32, 0x75, 0xbe, 0x44, 0x40, 0xa7, 0x3d, 0x46, 0x69, 0x9b, 0x3c, 0x04, 0xb1, 0x57, 0x3e, 0xb8, 0xee, 0x19, 0x3e, 0x20, 0x98, 0xb2, 0xbd, 0x08, 0xad, 0xd9, 0xbd, 0xdd, 0x9c, 0x87, 0x3d, 0x88, 0x0a, 0x63, 0x3e, 0x36, 0x0f, 0x87, 0x3d, 0x62, 0xa3, 0x00, 0x3e, 0x28, 0xb5, 0x55, 0xbe, 0x18, 0x4c, 0x23, 0x3e, 0x08, 0x80, 0xd9, 0x3d, 0xdd, 0xa3, 0x4c, 0x3c, 0xa5, 0x19, 0x8e, 0xbd, 0x68, 0xe7, 0xc9, 0xbd, 0xac, 0xcd, 0x11, 0xbe, 0x0c, 0x3f, 0x7e, 0x3e, 0xc0, 0x30, 0x51, 0xbc, 0x30, 0x01, 0x00, 0xbe, 0x80, 0xc4, 0x1f, 0xbe, 0x81, 0x50, 0x47, 0x3e, 0xd0, 0x7a, 0x0f, 0x3e, 0xe0, 0xe2, 0x98, 0xbd, 0xf0, 0x7b, 0x6d, 0xbe, 0x1a, 0x95, 0x3a, 0x3e, 0xc0, 0x2f, 0x75, 0xbc, 0xb1, 0x44, 0x23, 0xbe, 0x5c, 0x91, 0x0e, 0x3e, 0xa2, 0x43, 0xbf, 0xbd, 0xc0, 0x27, 0x53, 0x3e, 0x6f, 0xc3, 0xae, 0x3d, 0xc0, 0x7a, 0x61, 0xbd, 0xf8, 0xcd, 0xa9, 0xbc, 0xf0, 0xee, 0x78, 0xbb, 0x48, 0x7c, 0xcb, 0xbd, 0xb0, 0xc5, 0xda, 0x3d, 0xd7, 0x10, 0x73, 0xbe, 0x40, 0xf9, 0x58, 0xbd, 0x59, 0x47, 0x04, 0x3e, 0xe0, 0xde, 0x83, 0x3c, 0xed, 0xde, 0x05, 0xbe, 0x01, 0xc3, 0xce, 0xbd, 0x83, 0x0a, 0x99, 0x3c, 0x00, 0x4d, 0x4e, 0x3d, 0xe5, 0xca, 0x6f, 0x3e, 0x0f, 0x02, 0xdd, 0xbd, 0x5d, 0x8e, 0x29, 0x3e, 0x00, 0x76, 0xd4, 0x3b, 0x62, 0xf5, 0xe7, 0x3d, 0x90, 0x04, 0x29, 0x3d, 0x4c, 0x5e, 0x2e, 0xbe, 0x18, 0x91, 0x9a, 0x3d, 0x48, 0x9f, 0xdc, 0x3d, 0x90, 0x96, 0x65, 0x3d, 0x6e, 0xf8, 0xf8, 0x3d, 0xba, 0x3f, 0xe2, 0xbd, 0xd8, 0x43, 0x4c, 0xbe, 0x47, 0xcc, 0x44, 0xbc, 0xa0, 0xea, 0xfc, 0xbd, 0x92, 0xaf, 0xe4, 0x3c, 0x26, 0xf8, 0x2c, 0xbe, 0xc5, 0x24, 0x73, 0x3e, 0xe4, 0xe9, 0x76, 0x3e, 0xc0, 0x22, 0x4a, 0x3a, 0x8d, 0x15, 0xfa, 0x3d, 0x88, 0x81, 0x25, 0x3e, 0xa0, 0x00, 0xd5, 0x3c, 0x38, 0xe1, 0xe1, 0xbd, 0x40, 0x81, 0xa8, 0x3c, 0x01, 0x47, 0x39, 0x3e, 0xdf, 0x05, 0x0b, 0xbd, 0xa6, 0xce, 0xbf, 0x3d, 0xec, 0xe4, 0x62, 0x3e, 0xb8, 0x83, 0xb3, 0x3c, 0x73, 0x78, 0x8a, 0x3d, 0x98, 0x17, 0xd6, 0x3d, 0xdf, 0x6b, 0x05, 0xbd, 0x2f, 0x09, 0x3d, 0xbe, 0x8c, 0xe0, 0x26, 0x3e, 0x5c, 0x0f, 0x59, 0xbe, 0x64, 0xae, 0x3e, 0x3e, 0xf8, 0x75, 0x2b, 0x3e, 0xed, 0x40, 0x50, 0xbe, 0x48, 0xb2, 0xb1, 0x3d, 0x27, 0x40, 0x0e, 0xbd, 0x8c, 0x3a, 0x45, 0xbd, 0x40, 0xa7, 0x46, 0x3c, 0xe0, 0xad, 0x4e, 0xbd, 0xaf, 0x12, 0x37, 0x3d, 0xe8, 0x7b, 0xc6, 0xbd, 0x37, 0x19, 0x57, 0x3e, 0x94, 0xe4, 0x06, 0x3e, 0x50, 0xb5, 0x1a, 0xbb, 0x79, 0x9e, 0x09, 0x3e, 0x25, 0x2d, 0x44, 0xbe, 0x58, 0xcd, 0x12, 0x3d, 0x2c, 0x7f, 0x7d, 0xbe, 0xe6, 0x8f, 0x7b, 0xbe, 0x9a, 0x34, 0x42, 0x3e, 0xa0, 0x97, 0x3e, 0xbd, 0x18, 0x5e, 0x77, 0xbe, 0x90, 0xc4, 0xa7, 0xbd, 0x60, 0x88, 0x2a, 0xbd, 0x40, 0x84, 0x26, 0x3e, 0xa0, 0xdf, 0xbb, 0xbc, 0xec, 0xa4, 0x54, 0x3e, 0x18, 0x7a, 0xaa, 0x3d, 0x08, 0x93, 0x9a, 0x3d, 0x00, 0xd8, 0x70, 0x3b, 0xc0, 0x66, 0xcc, 0xbc, 0x00, 0x09, 0xef, 0xbd, 0x68, 0xa9, 0xef, 0xbd, 0xa4, 0x25, 0x5a, 0xbe, 0x40, 0x83, 0x7f, 0xbe, 0x10, 0x76, 0x4a, 0xbd, 0x54, 0xc3, 0x37, 0xbe, 0xd8, 0xf7, 0x3b, 0x3e, 0x90, 0x92, 0x06, 0xbe, 0x08, 0x1f, 0x0d, 0xbe, 0xa4, 0xf4, 0x02, 0x3e, 0xe0, 0xf2, 0x1b, 0xbe, 0x58, 0xdc, 0x1d, 0x3e, 0xe8, 0x79, 0xd0, 0xbd, 0x00, 0xca, 0xa3, 0xbc, 0x88, 0x20, 0x20, 0xbe, 0x5c, 0x1a, 0x36, 0x3e, 0x74, 0xc2, 0x08, 0xbe, 0x58, 0x95, 0xec, 0xbd, 0xe8, 0x5a, 0x1b, 0x3e, 0x50, 0x17, 0x3a, 0xbd, 0x28, 0xde, 0x50, 0xbe, 0xe8, 0x90, 0xf0, 0x3d, 0xdc, 0xfd, 0x0e, 0x3e, 0x70, 0xac, 0x49, 0xbe, 0xfc, 0x22, 0x20, 0xbe, 0x00, 0x77, 0x78, 0xbc, 0xf0, 0x28, 0xa0, 0x3d, 0xd0, 0x42, 0xf3, 0x3d, 0x3c, 0x54, 0x16, 0xbe, 0xc4, 0xcd, 0x3c, 0x3e, 0xe0, 0x7e, 0x2e, 0xbd, 0x90, 0x88, 0x47, 0x3d, 0x30, 0x3b, 0x50, 0xbe, 0xd0, 0x52, 0x21, 0x3e, 0x4c, 0x4f, 0x7b, 0x3e, 0x64, 0xc0, 0x42, 0xbe, 0x08, 0x09, 0xd4, 0x3d, 0x40, 0x15, 0x83, 0x3d, 0x70, 0xa1, 0x1a, 0xbd, 0x48, 0x31, 0x69, 0x3e, 0x50, 0x69, 0x3b, 0x3d, 0x60, 0xe5, 0x4d, 0x3d, 0xc0, 0xaa, 0x57, 0x3c, 0x98, 0x95, 0xf2, 0xbd, 0xc4, 0x90, 0x34, 0xbe, 0xb0, 0x4b, 0x23, 0xbe, 0xb0, 0x4b, 0x55, 0x3d, 0x8c, 0x8c, 0x6e, 0x3e, 0x00, 0x68, 0x1f, 0x3e, 0x70, 0xbe, 0xe4, 0x3d, 0x40, 0xf7, 0x6b, 0xbc, 0xb8, 0x1c, 0x66, 0xbe, 0x40, 0x76, 0xe7, 0xbc, 0x84, 0x9d, 0x5f, 0x3e, 0xcd, 0x9d, 0x3b, 0x3d, 0xc0, 0x60, 0x61, 0xbe, 0x09, 0xbb, 0xd8, 0x3b, 0xd8, 0x87, 0x01, 0x3e, 0x4a, 0x32, 0xdc, 0xbd, 0x23, 0x9c, 0x97, 0xbc, 0x6a, 0x18, 0x7d, 0x3d, 0x88, 0x8f, 0x8e, 0xbd, 0xc9, 0x8f, 0x39, 0xbe, 0x25, 0x83, 0xa3, 0xbe, 0xea, 0x89, 0x45, 0x3e, 0x28, 0xcf, 0xa3, 0xbd, 0x55, 0x2d, 0x06, 0xbe, 0xf0, 0x56, 0x61, 0x3d, 0x30, 0xa0, 0xa5, 0x3d, 0x78, 0x00, 0x4c, 0xbe, 0x3c, 0xc4, 0x5b, 0xbe, 0xea, 0xce, 0xcc, 0x3d, 0xb1, 0xb2, 0x48, 0x3e, 0xd4, 0xe7, 0x3b, 0xbe, 0xd1, 0x26, 0x0d, 0xbe, 0x96, 0xb1, 0xf6, 0xbd, 0x80, 0x63, 0xd0, 0xbc, 0x5c, 0x28, 0xa8, 0x3d, 0x72, 0x6f, 0x06, 0x3e, 0x46, 0x16, 0x63, 0x3e, 0x6a, 0xfc, 0xa9, 0x3b, 0x1e, 0x79, 0x5d, 0xbe, 0x01, 0x16, 0xfb, 0xbc, 0x70, 0x5c, 0xb6, 0xbd, 0xb0, 0x4c, 0x12, 0xbd, 0xa4, 0x2d, 0x40, 0xbe, 0xbc, 0xf8, 0x73, 0xbe, 0x13, 0xae, 0x43, 0x3e, 0x01, 0xef, 0x4d, 0xbc, 0x90, 0xba, 0x80, 0x3e, 0xa1, 0xeb, 0x4d, 0x3e, 0x17, 0x4b, 0x10, 0xbd, 0x82, 0xe3, 0x7c, 0x3e, 0xa4, 0x65, 0x16, 0xbe, 0x07, 0xb9, 0x22, 0x3e, 0xaf, 0x73, 0xbf, 0xbd, 0x88, 0x47, 0xc5, 0xbd, 0xd8, 0x7f, 0xce, 0x3d, 0xa0, 0xa9, 0xb8, 0x3d, 0xf0, 0x1c, 0x28, 0x3d, 0xc8, 0x70, 0xf5, 0xbd, 0xf0, 0x6b, 0x1c, 0xbe, 0x56, 0x6f, 0x09, 0x3e, 0x05, 0xac, 0x33, 0x3e, 0x60, 0xc4, 0x8c, 0x3c, 0x90, 0xce, 0x3a, 0xbe, 0xab, 0xbb, 0x50, 0x3e, 0x8c, 0xfc, 0x75, 0xbe, 0xf9, 0x04, 0x91, 0xbd, 0xb0, 0xf0, 0x3f, 0xbd, 0xc1, 0x38, 0x93, 0x3c, 0x81, 0x12, 0x51, 0x3e, 0x8b, 0xfe, 0x2d, 0x3e, 0x78, 0x8a, 0x02, 0x3b, 0x43, 0x79, 0xfd, 0x3d, 0x7d, 0x33, 0x42, 0x3c, 0x6a, 0x0e, 0x41, 0x3e, 0xe4, 0x85, 0x7e, 0x3e, 0xb0, 0xac, 0x29, 0x3d, 0xc8, 0x08, 0x01, 0x3e, 0x98, 0x70, 0xec, 0xbd, 0x80, 0xb4, 0x05, 0x3c, 0xa0, 0x82, 0x26, 0xbe, 0x80, 0xdc, 0x31, 0x3d, 0x00, 0x93, 0x5c, 0x3d, 0x78, 0x7d, 0x16, 0x3e, 0xd4, 0xcb, 0x6c, 0x3e, 0xf0, 0x65, 0x52, 0x3d, 0x28, 0xfb, 0xe9, 0xbd, 0xfc, 0xbe, 0x3e, 0xbe, 0xcc, 0x93, 0x4a, 0xbe, 0x00, 0xdd, 0xca, 0xbb, 0x50, 0x7a, 0x5a, 0xbd, 0x04, 0x03, 0x53, 0x3e, 0x28, 0xd2, 0x4c, 0x3e, 0xa0, 0x19, 0x1a, 0x3e, 0x08, 0xd4, 0x61, 0xbe, 0xc0, 0x00, 0x22, 0xbe, 0x30, 0x2a, 0x73, 0xbe, 0x94, 0x86, 0x3f, 0x3e, 0x80, 0xb1, 0x80, 0xbd, 0x30, 0xd2, 0xfa, 0x3d, 0xc0, 0xa5, 0x27, 0xbd, 0x40, 0x3a, 0x95, 0xbd, 0x08, 0x2c, 0x78, 0xbe, 0x30, 0x0a, 0xb5, 0xbd, 0x6c, 0x72, 0x26, 0xbe, 0x24, 0xb0, 0x59, 0xbe, 0xf0, 0x0f, 0x79, 0xbe, 0x50, 0x44, 0xa3, 0x3d, 0xa0, 0xc5, 0x77, 0x3d, 0x40, 0x28, 0x88, 0x3d, 0x80, 0x5a, 0xd6, 0xbd, 0x3c, 0xf3, 0x22, 0xbe, 0x20, 0x02, 0x79, 0xbd, 0x6c, 0xc8, 0x74, 0xbe, 0x28, 0xe7, 0x80, 0x3d, 0x38, 0x4d, 0xd4, 0xbd, 0x60, 0x7b, 0xb8, 0x3c, 0xbc, 0x99, 0x4d, 0xbe, 0xc0, 0x33, 0x48, 0x3c, 0xf4, 0x6f, 0x7d, 0xbe, 0x00, 0x31, 0xee, 0x3d, 0xe0, 0x13, 0xed, 0xbc, 0x60, 0xda, 0x2c, 0xbe, 0xd8, 0x0e, 0x63, 0x3e, 0x70, 0xd1, 0x32, 0x3d, 0x7c, 0x0d, 0x6c, 0x3e, 0xe8, 0x0f, 0xb7, 0x3d, 0x04, 0x44, 0x51, 0xbe, 0x88, 0xa5, 0x2c, 0xbe, 0x14, 0x25, 0x3d, 0xbe, 0x70, 0xef, 0x43, 0x3e, 0xfc, 0x8d, 0x04, 0xbe, 0x6c, 0x62, 0x0b, 0xbe, 0x20, 0xc9, 0xf8, 0x3c, 0xa0, 0xeb, 0x08, 0xbe, 0x90, 0x63, 0xef, 0xbd, 0xc0, 0xf2, 0x88, 0xbd, 0x30, 0xab, 0x46, 0xbd, 0x50, 0x94, 0x40, 0x3d, 0x00, 0xbd, 0xd1, 0xbb, 0xb0, 0x6a, 0x78, 0xbd, 0xa4, 0xc5, 0x0c, 0x3e, 0x58, 0x6f, 0x6e, 0xbe, 0x94, 0xad, 0x5c, 0xbe, 0xe0, 0x48, 0xbc, 0x3d, 0x38, 0x68, 0xed, 0x3d, 0xe8, 0xfd, 0x89, 0x3d, 0xfc, 0x58, 0x27, 0xbe, 0x5c, 0x2e, 0x28, 0x3e, 0xe8, 0x69, 0x02, 0xbe, 0xd8, 0x21, 0x94, 0x3d, 0xa0, 0x53, 0x53, 0xbd, 0x5c, 0x87, 0x79, 0x3e, 0x70, 0x4a, 0x39, 0xbd, 0xb8, 0xa8, 0x0b, 0x3e, 0x8c, 0xb3, 0x63, 0x3e, 0x20, 0x44, 0x3c, 0xbe, 0x68, 0xe8, 0xb7, 0x3d, 0xd8, 0x41, 0x12, 0x3e, 0xf8, 0x4f, 0x3f, 0x3e, 0x30, 0x68, 0x02, 0x3d, 0xa8, 0xd8, 0x32, 0x3e, 0x08, 0xa2, 0x40, 0xbe, 0xc0, 0x0c, 0x1a, 0xbc, 0x00, 0xd4, 0xdd, 0xba, 0x50, 0xf9, 0x9c, 0xbd, 0x40, 0x6a, 0xe0, 0xbd, 0xe8, 0xb4, 0x6c, 0xbe, 0xc8, 0xd2, 0x54, 0xbe, 0xf0, 0x8c, 0xac, 0x3d, 0x70, 0xc8, 0x27, 0xbe, 0x30, 0x2b, 0xd4, 0x3d, 0xf8, 0x24, 0xb5, 0x3d, 0x60, 0xb1, 0x2c, 0xbd, 0x80, 0x1c, 0xd8, 0x3c, 0xe8, 0x02, 0x09, 0x3e, 0x60, 0xe7, 0x7c, 0xbd, 0x00, 0xc3, 0x89, 0x3c, 0x18, 0x29, 0x6f, 0xbe, 0x70, 0xc5, 0xc0, 0xbd, 0x28, 0x73, 0x31, 0xbe, 0x08, 0x39, 0x8f, 0x3d, 0x18, 0x7a, 0xd2, 0xbd, 0xc8, 0x7f, 0x49, 0x3e, 0x44, 0x95, 0x50, 0xbe, 0xa0, 0x6b, 0xcd, 0x3c, 0x0c, 0x40, 0x36, 0xbe, 0xe8, 0xc2, 0x39, 0xbe, 0x58, 0x37, 0xa9, 0x3d, 0x80, 0x2d, 0xe1, 0x3d, 0xc0, 0xe0, 0x54, 0x3e, 0x80, 0x53, 0xcd, 0xbd, 0x20, 0x0a, 0x92, 0x3c, 0x5c, 0x78, 0x14, 0x3e, 0x00, 0xe1, 0x53, 0xbd, 0x30, 0x00, 0x3c, 0xbe, 0x20, 0x0f, 0xc6, 0xbd, 0xb0, 0x40, 0xbf, 0x3d, 0x28, 0x3c, 0xa3, 0xbd, 0xc0, 0xc3, 0x30, 0xbe, 0xac, 0xf7, 0x1d, 0xbe, 0x60, 0xa2, 0xb1, 0x3c, 0xa8, 0x00, 0xba, 0x3d, 0x80, 0x57, 0xa0, 0x3c, 0x3f, 0xc1, 0xe6, 0x3d, 0xdc, 0x7a, 0x5a, 0xbe, 0xb0, 0xb6, 0x08, 0xbe, 0x30, 0x9c, 0x16, 0xbe, 0x00, 0xd0, 0x1f, 0xbe, 0xdb, 0xcb, 0x85, 0x3e, 0x01, 0x9d, 0x6f, 0x3e, 0xe0, 0x8f, 0x34, 0x3d, 0xb8, 0x06, 0x87, 0x3c, 0x55, 0x01, 0x66, 0xbe, 0xa8, 0x5a, 0x6b, 0xbe, 0x80, 0x74, 0xab, 0x3d, 0x4c, 0x50, 0x5a, 0x3e, 0xa8, 0xaa, 0xde, 0xbd, 0x88, 0x99, 0x7a, 0xbe, 0x90, 0x32, 0xd1, 0xbd, 0xd8, 0xcc, 0x2c, 0x3e, 0x6c, 0xc1, 0x07, 0x3e, 0xf7, 0xe9, 0xd0, 0xbd, 0xd1, 0xd7, 0xbd, 0xbd, 0xa3, 0x37, 0x8a, 0xbd, 0xc1, 0xa5, 0x2d, 0x3c, 0x48, 0x4b, 0x91, 0x3d, 0x83, 0x22, 0x33, 0x3e, 0x77, 0xeb, 0x6d, 0x3c, 0x1f, 0x3f, 0x14, 0xbc, 0x72, 0xff, 0x84, 0xbe, 0x9c, 0x9c, 0x5c, 0x3e, 0x62, 0x08, 0x63, 0xbe, 0x00, 0x5f, 0x55, 0x3e, 0x38, 0x99, 0x66, 0xbe, 0xdc, 0x46, 0x3f, 0x3e, 0xbc, 0xbd, 0x13, 0x3e, 0xbc, 0xb9, 0x75, 0x3e, 0x6f, 0x6d, 0x0b, 0x3d, 0x09, 0xf7, 0xbf, 0x3d, 0x14, 0x16, 0x18, 0xbe, 0x34, 0x51, 0x78, 0x3d, 0x1e, 0xf7, 0xdf, 0xbd, 0x08, 0x08, 0x2f, 0x3e, 0xc5, 0xde, 0x6e, 0x3e, 0x27, 0x34, 0xf9, 0xbd, 0xf8, 0x03, 0xe3, 0x3d, 0x28, 0x8d, 0x82, 0x3d, 0x80, 0xd2, 0xa5, 0x3d, 0x00, 0xb2, 0xea, 0xba, 0xd3, 0x25, 0xcc, 0xbd, 0x10, 0x37, 0x36, 0x3d, 0x20, 0x3b, 0x0d, 0xbe, 0x5f, 0xfc, 0x43, 0x3e, 0x1c, 0x29, 0x18, 0x3e, 0x30, 0xa6, 0x3e, 0xbe, 0xf8, 0x0a, 0xc9, 0xbd, 0x48, 0xa5, 0xc7, 0x3d, 0xc5, 0x97, 0xf1, 0x3d, 0x84, 0x1e, 0x59, 0xbe, 0xa7, 0x46, 0x61, 0x3d, 0xeb, 0x15, 0x40, 0xbd, 0x92, 0x56, 0x31, 0x3e, 0xbc, 0xb8, 0x22, 0x3e, 0x3a, 0x14, 0x80, 0xbd, 0xa4, 0x47, 0xcf, 0xbd, 0x7d, 0xac, 0x7c, 0x3e, 0x0c, 0x33, 0x1a, 0xbe, 0x74, 0xbc, 0x20, 0x3e, 0xd0, 0xb1, 0x53, 0xbe, 0x80, 0xd1, 0xb0, 0xbc, 0x00, 0x1f, 0x45, 0x3d, 0x10, 0xf8, 0xe5, 0xbd, 0xa0, 0x90, 0x2a, 0x3d, 0x9c, 0x47, 0x1d, 0xbe, 0xe0, 0x5f, 0x3e, 0x3e, 0x2c, 0x6f, 0x0d, 0xbe, 0xa0, 0xe4, 0x9c, 0x3c, 0x60, 0x60, 0x0f, 0xbe, 0x60, 0x8a, 0x16, 0x3e, 0x88, 0x42, 0xe7, 0xbd, 0xd8, 0x87, 0x93, 0x3d, 0xc8, 0xaf, 0x7a, 0x3e, 0x44, 0xe3, 0x6f, 0xbe, 0x20, 0xf9, 0x98, 0xbc, 0x10, 0x52, 0xfd, 0xbd, 0x80, 0x44, 0x02, 0xbe, 0x7c, 0x80, 0x5e, 0x3e, 0x50, 0x8f, 0x76, 0x3d, 0x70, 0xd8, 0xb9, 0x3d, 0x50, 0x68, 0xd0, 0xbd, 0xb0, 0x01, 0xc4, 0x3d, 0x80, 0x03, 0x4e, 0xbd, 0xb8, 0x48, 0xdb, 0x3d, 0x68, 0x42, 0xbe, 0xbd, 0xc0, 0x5d, 0x58, 0x3e, 0x80, 0x7b, 0x20, 0xbc, 0xac, 0xba, 0x51, 0xbe, 0x7c, 0x33, 0x69, 0xbe, 0xc8, 0x7b, 0x2c, 0xbe, 0xc0, 0x26, 0x14, 0x3c, 0x30, 0x8c, 0xc8, 0x3d, 0x10, 0xca, 0x53, 0xbd, 0x9c, 0x2a, 0x63, 0xbe, 0x00, 0xf2, 0xa3, 0x3d, 0xe0, 0xd8, 0x12, 0xbd, 0x24, 0x4d, 0x26, 0x3e, 0x00, 0x5f, 0x8c, 0xbb, 0x58, 0xc7, 0x6a, 0x3e, 0xb0, 0x45, 0x52, 0xbd, 0xc0, 0x2e, 0xe0, 0xbd, 0xe0, 0x1d, 0x76, 0xbd, 0x14, 0x4a, 0x6f, 0xbe, 0x80, 0x14, 0xb0, 0xbb, 0xa8, 0xd2, 0xb6, 0xbd, 0x80, 0xbc, 0x17, 0x3d, 0xd0, 0xb3, 0x90, 0x3d, 0x08, 0x73, 0x38, 0xbe, 0x80, 0xaf, 0x33, 0x3d, 0x70, 0xd8, 0xaa, 0x3d, 0xac, 0x80, 0x2f, 0xbe, 0xd8, 0x8a, 0x53, 0xbe, 0x04, 0x34, 0x4e, 0xbe, 0xd4, 0xa7, 0x6f, 0x3e, 0x80, 0xce, 0xec, 0x3d, 0x28, 0x55, 0xf7, 0xbd, 0xf4, 0xd1, 0x38, 0xbe, 0x24, 0x2c, 0x38, 0x3e, 0xb0, 0x9e, 0xe8, 0x3d, 0xb0, 0xba, 0x6b, 0x3d, 0xf0, 0x7b, 0x48, 0xbd, 0x60, 0x61, 0x94, 0x3d, 0x1e, 0xa2, 0x4e, 0xbe, 0x40, 0xae, 0x2b, 0x3d, 0x10, 0x43, 0xd8, 0xbd, 0x40, 0x88, 0x11, 0x3c, 0xd2, 0xfe, 0xa4, 0x3d, 0x9b, 0x98, 0x2c, 0x3e, 0x41, 0xa9, 0x5b, 0xbe, 0x88, 0x32, 0x1b, 0xbe, 0x02, 0x91, 0xd9, 0x3d, 0xbe, 0xf6, 0xdd, 0x3d, 0x79, 0xa1, 0x6a, 0x3e, 0x28, 0xf6, 0xb0, 0xbd, 0x4d, 0xce, 0x8a, 0x3d, 0x00, 0xc9, 0x6c, 0x3b, 0x20, 0x1a, 0x21, 0xbd, 0xb8, 0xd4, 0x08, 0xbe, 0x00, 0xa1, 0x01, 0xbe, 0x9d, 0x2b, 0x2b, 0xbd, 0xcc, 0x63, 0x0a, 0x3e, 0xd8, 0x47, 0x9e, 0x3c, 0x1d, 0xfd, 0xfc, 0x3d, 0x7f, 0x67, 0x80, 0x3e, 0x90, 0xce, 0x30, 0xbd, 0xca, 0x9f, 0x87, 0x3e, 0x1b, 0xcb, 0x13, 0xbe, 0xb4, 0xc0, 0x58, 0xbe, 0x02, 0xff, 0xa2, 0x3d, 0x13, 0x3f, 0x58, 0x3d, 0x2f, 0x17, 0x7f, 0xbd, 0x6c, 0x49, 0x63, 0x3e, 0x80, 0xf0, 0x8a, 0x3b, 0x24, 0x76, 0x08, 0x3e, 0xc0, 0xb7, 0xdf, 0xbc, 0xed, 0x22, 0x7b, 0xbd, 0x0b, 0x4f, 0xbe, 0x3d, 0x24, 0x06, 0x36, 0x3e, 0x45, 0xdb, 0x81, 0x3e, 0x7a, 0x77, 0x74, 0x3d, 0x86, 0xf8, 0x11, 0x3e, 0x00, 0x36, 0x8c, 0x3d, 0x43, 0x70, 0x37, 0x3d, 0x23, 0x4c, 0x62, 0xbe, 0x20, 0x85, 0x87, 0xbd, 0x4c, 0x90, 0x7a, 0xbe, 0x60, 0x25, 0x51, 0x3e, 0xfc, 0x60, 0x6f, 0x3e, 0x25, 0x82, 0x17, 0xbe, 0xb0, 0x19, 0xb1, 0xbd, 0x39, 0x94, 0xc9, 0xbc, 0x4e, 0xf7, 0xde, 0xbd, 0x20, 0x90, 0x2d, 0x3e, 0x50, 0x8b, 0x8d, 0x3d, 0xe2, 0x7c, 0x49, 0x3e, 0xb8, 0xb7, 0xe6, 0xbd, 0x45, 0xd6, 0xeb, 0x3d, 0x28, 0xb6, 0xe4, 0x3d, 0x91, 0x01, 0xa8, 0xbd, 0xf7, 0x6d, 0x47, 0xbe, 0x51, 0xad, 0xf5, 0x3d, 0xce, 0xb9, 0x2c, 0x3c, 0x07, 0x66, 0xdc, 0x3c, 0x82, 0xbd, 0x5d, 0xbb, 0x72, 0xea, 0xe7, 0x3d, 0x30, 0xc0, 0xc6, 0x3d, 0x01, 0x91, 0x27, 0x3e, 0x00, 0x94, 0xf8, 0x3b, 0xc3, 0xcf, 0xbc, 0x3c, 0x18, 0xce, 0x98, 0xbd, 0x38, 0x06, 0x32, 0x3e, 0xf4, 0x4e, 0x27, 0xbe, 0xf4, 0x62, 0x29, 0xbb, 0x78, 0x70, 0x0c, 0x3e, 0x28, 0x9d, 0xdf, 0x3d, 0x79, 0x83, 0xaf, 0x3e, 0xc8, 0xe3, 0x6b, 0xbe, 0x00, 0x9e, 0x87, 0xba, 0x56, 0x47, 0x12, 0xbe, 0xa0, 0x30, 0xd5, 0xbd, 0x80, 0xd0, 0xca, 0x3c, 0x50, 0x3e, 0x39, 0xbd, 0x28, 0xf8, 0xcb, 0x3d, 0x13, 0xd4, 0x2e, 0x3e, 0x16, 0x2e, 0x13, 0xbc, 0xc9, 0x9e, 0x5d, 0x3e, 0xfe, 0xc2, 0x95, 0xbd, 0x76, 0x70, 0xcf, 0xbd, 0xcc, 0x8f, 0x08, 0xbe, 0x65, 0x02, 0x18, 0xbd, 0x23, 0xc0, 0xff, 0xbd, 0xa4, 0xed, 0x07, 0x3e, 0xcb, 0xa6, 0x39, 0xbe, 0x24, 0x81, 0x48, 0xbd, 0x7a, 0x86, 0x06, 0x3c, 0x84, 0x38, 0x26, 0xbe, 0x58, 0x1e, 0x29, 0xbe, 0xa0, 0x3e, 0x16, 0x3e, 0x5c, 0xeb, 0x35, 0x3e, 0xb4, 0x15, 0x6f, 0xbe, 0x7b, 0xd1, 0xca, 0x3d, 0x49, 0x42, 0x42, 0x3e, 0x76, 0xd2, 0x17, 0x3e, 0xba, 0xf4, 0x35, 0x3e, 0xff, 0x3c, 0x93, 0x3d, 0x20, 0x30, 0x0a, 0xbe, 0xce, 0xf4, 0x6c, 0xbe, 0x4a, 0xd5, 0x76, 0x3e, 0x7c, 0x63, 0x64, 0x3e, 0x20, 0x9c, 0x2f, 0xbd, 0x10, 0xfa, 0x15, 0x3d, 0x7c, 0xa8, 0x0e, 0xbe, 0x75, 0x2d, 0x80, 0xbd, 0x2c, 0xcd, 0x05, 0xbe, 0xb0, 0xb9, 0xf5, 0xbd, 0xe5, 0xf6, 0xde, 0x3d, 0x00, 0xf8, 0x57, 0x3c, 0x88, 0xb2, 0x53, 0x3e, 0x8f, 0xbf, 0x41, 0x3e, 0x38, 0x49, 0xba, 0xbd, 0xb9, 0x85, 0x47, 0xbe, 0x58, 0xae, 0xe4, 0xbd, 0x08, 0xb7, 0xa4, 0x3d, 0x9c, 0x55, 0xc1, 0x3d, 0x31, 0x2b, 0x3f, 0x3e, 0x50, 0x86, 0xfc, 0xbd, 0x39, 0x50, 0x32, 0x3e, 0x19, 0x10, 0x6e, 0xbe, 0x23, 0x31, 0x5e, 0x3d, 0x28, 0x9a, 0x97, 0x3d, 0x80, 0xdd, 0x83, 0xbd, 0x18, 0xab, 0x7b, 0x3e, 0x24, 0xc6, 0x3c, 0x3e, 0x74, 0xf3, 0x03, 0xbe, 0xe0, 0xb5, 0x97, 0x3d, 0xd8, 0x51, 0xca, 0x3d, 0xf8, 0xeb, 0x5a, 0xbe, 0x88, 0x23, 0x2e, 0x3e, 0x38, 0x8b, 0xf6, 0x3d, 0x00, 0x51, 0x90, 0x3d, 0xd0, 0x91, 0x56, 0xbe, 0x20, 0x05, 0x5a, 0x3e, 0xb4, 0xb5, 0x54, 0xbe, 0xd0, 0x2a, 0xf6, 0xbd, 0xb4, 0xe1, 0x0c, 0x3e, 0xf8, 0x3e, 0x6c, 0xbe, 0xe0, 0xd1, 0x34, 0xbe, 0x1c, 0x0a, 0x77, 0x3e, 0xe0, 0x16, 0x71, 0xbe, 0x84, 0x6b, 0x6f, 0xbe, 0x28, 0x1f, 0x7a, 0xbe, 0xc8, 0x4a, 0x17, 0x3e, 0x00, 0x2c, 0x1f, 0x3d, 0xc0, 0xf8, 0xb2, 0xbc, 0x88, 0x36, 0x1f, 0x3e, 0x58, 0x62, 0x92, 0xbd, 0x3c, 0x82, 0x1e, 0xbe, 0xb0, 0x2e, 0x57, 0xbe, 0xf8, 0xb2, 0x90, 0xbd, 0x44, 0x6d, 0x1d, 0x3e, 0x60, 0x42, 0x15, 0xbd, 0xf0, 0xdf, 0xdc, 0xbd, 0x4c, 0x06, 0x2e, 0x3e, 0xf0, 0x72, 0xc5, 0xbd, 0x10, 0xe6, 0x47, 0x3e, 0xe0, 0x3c, 0x45, 0xbd, 0x8c, 0xd1, 0x25, 0xbe, 0xf8, 0xeb, 0x18, 0x3e, 0x38, 0x91, 0xae, 0x3d, 0x60, 0x6d, 0xe6, 0x3d, 0xc4, 0x2b, 0x60, 0x3e, 0xb0, 0x0a, 0x69, 0x3d, 0x10, 0x42, 0xce, 0x3d, 0x34, 0x68, 0x18, 0xbe, 0x80, 0x75, 0x2f, 0xbe, 0x40, 0x6a, 0xdf, 0xbd, 0x80, 0x1c, 0xd6, 0x3c, 0xd0, 0x08, 0x52, 0xbe, 0x00, 0xdd, 0xbc, 0xbb, 0x10, 0xe0, 0xe1, 0xbd, 0xc0, 0x8e, 0x14, 0xbc, 0x80, 0xdc, 0x0a, 0xbd, 0x84, 0x76, 0x62, 0x3e, 0x40, 0x39, 0x15, 0xbc, 0x48, 0xea, 0x36, 0x3e, 0xf8, 0xd4, 0xb3, 0x3d, 0x50, 0x07, 0xc4, 0x3d, 0x40, 0xd5, 0x2f, 0x3d, 0x80, 0xd3, 0x0d, 0xbc, 0x40, 0x41, 0x59, 0xbd, 0xf4, 0x03, 0x3a, 0x3e, 0xc8, 0x5f, 0xd7, 0xbd, 0x4c, 0x17, 0x0a, 0x3e, 0x8c, 0xa7, 0x08, 0xbe, 0x73, 0x70, 0x45, 0xbe, 0x78, 0x4a, 0xa4, 0xbd, 0xe1, 0xf4, 0xf3, 0x3c, 0x28, 0x9e, 0x7f, 0xbe, 0x75, 0xd6, 0x89, 0x3d, 0xde, 0x7f, 0x13, 0xbd, 0x81, 0x05, 0x53, 0x3d, 0x38, 0x9b, 0x97, 0xbd, 0x31, 0xf5, 0x78, 0x3e, 0x62, 0x19, 0xf7, 0xbd, 0x0a, 0x23, 0xb9, 0x3d, 0x74, 0xd0, 0x33, 0x3e, 0x73, 0x10, 0xd1, 0xbc, 0x58, 0xff, 0x21, 0x3e, 0x28, 0xde, 0x80, 0x3d, 0xe8, 0x20, 0x4c, 0xbe, 0xb8, 0x62, 0x10, 0x3e, 0x61, 0xec, 0x19, 0x3d, 0x9e, 0x78, 0x18, 0x3c, 0xc1, 0x6b, 0xf8, 0xbd, 0x86, 0xb5, 0x88, 0xbc, 0x55, 0x27, 0x66, 0x3c, 0xa0, 0x2b, 0x17, 0xbd, 0xd6, 0x20, 0x2c, 0x3e, 0xb3, 0xaf, 0x66, 0xbd, 0xf3, 0x43, 0x5d, 0x3e, 0xdf, 0x27, 0x56, 0xbc, 0x4b, 0x0d, 0x58, 0x3d, 0xb3, 0xdd, 0x14, 0x3e, 0x08, 0x2c, 0xff, 0x3d, 0xe0, 0x8d, 0x1d, 0x3d, 0xdc, 0x51, 0x19, 0xbe, 0xc8, 0xd4, 0x25, 0xbe, 0x0e, 0x70, 0x23, 0xbe, 0xc8, 0x8a, 0x05, 0x3d, 0x0f, 0x3f, 0x22, 0x3e, 0xae, 0xe1, 0x17, 0x3d, 0x2d, 0xbf, 0xe0, 0x3d, 0x0c, 0x9e, 0xfe, 0x3d, 0xf0, 0xa0, 0x04, 0x3e, 0xf5, 0x4c, 0x7b, 0x3e, 0x85, 0xe3, 0x24, 0xbe, 0x88, 0xec, 0xfd, 0x3d, 0x20, 0x12, 0xe2, 0x3c, 0x10, 0xd2, 0x62, 0xbd, 0x58, 0x10, 0x11, 0x3e, 0x6f, 0x3b, 0xf9, 0xbd, 0x88, 0x92, 0x25, 0xbe, 0x89, 0x05, 0x59, 0x3e, 0xe5, 0x6a, 0x76, 0xbe, 0x94, 0x60, 0x01, 0xbe, 0x40, 0xca, 0x14, 0x3e, 0x26, 0xe1, 0x41, 0x3e, 0xb0, 0x09, 0x20, 0xbd, 0x31, 0x40, 0x74, 0x3e, 0x78, 0x0a, 0x3b, 0x3e, 0x33, 0x45, 0xf2, 0x3d, 0x9c, 0xdf, 0x15, 0x3e, 0x5f, 0x2f, 0x7f, 0x3e, 0x18, 0xe2, 0x85, 0x3d, 0xee, 0xe0, 0x5a, 0xbe, 0xdf, 0x54, 0x84, 0xbd, 0x2f, 0x1b, 0x45, 0xbe, 0x40, 0xe3, 0x73, 0xbc, 0xfa, 0xa3, 0x1b, 0xbe, 0xf0, 0xbe, 0xd5, 0xbd, 0x55, 0xd4, 0x73, 0x3e, 0x80, 0x26, 0x2e, 0xbe, 0xc8, 0xf2, 0xbd, 0xbc, 0x24, 0xd3, 0x45, 0xbe, 0x8c, 0x68, 0xa3, 0x3d, 0x54, 0xf0, 0x66, 0x3e, 0xf9, 0x02, 0x0f, 0x3e, 0x93, 0x51, 0x88, 0x3e, 0x21, 0x81, 0x19, 0x3d, 0x80, 0xf5, 0x6b, 0x3e, 0xd8, 0x42, 0x10, 0x3e, 0xa0, 0xff, 0x75, 0x3d, 0xa4, 0x12, 0x33, 0x3e, 0x10, 0x34, 0xc5, 0xbd, 0x60, 0x32, 0x90, 0xbd, 0x20, 0xd0, 0x2d, 0xbe, 0x85, 0x39, 0x38, 0xbd, 0x02, 0x0e, 0x21, 0xbe, 0x11, 0xe9, 0xc8, 0xbd, 0x49, 0xa3, 0xa9, 0x3b, 0x38, 0x15, 0x86, 0x3d, 0xe9, 0xeb, 0x46, 0xbe, 0xf8, 0x37, 0x65, 0xbd, 0xe9, 0xa3, 0x26, 0xbe, 0xd1, 0xe4, 0x57, 0xbe, 0x08, 0xe6, 0x21, 0x3e, 0x37, 0xb6, 0x10, 0x3c, 0x5c, 0x61, 0x41, 0xbe, 0x00, 0xfe, 0x80, 0xbb, 0x40, 0x91, 0x0a, 0xbc, 0x70, 0x7a, 0x1a, 0x3e, 0x0d, 0x7d, 0xbc, 0x3d, 0x43, 0x66, 0x36, 0xbe, 0x3f, 0x21, 0x6d, 0xbd, 0x4c, 0xdc, 0x03, 0x3e, 0x62, 0x32, 0x0e, 0x3e, 0xdd, 0x2f, 0x3c, 0x3e, 0xdc, 0x40, 0x77, 0x3e, 0xf4, 0x5f, 0xd3, 0x3d, 0x55, 0x68, 0xfd, 0xbd, 0x08, 0xa0, 0x9e, 0xbd, 0x98, 0xdd, 0x6f, 0xbe, 0x9c, 0x6f, 0x6b, 0x3e, 0x38, 0xa8, 0x02, 0xbe, 0xb8, 0x2e, 0x6a, 0xbe, 0x94, 0xa5, 0x1c, 0x3e, 0xb9, 0x74, 0x6f, 0x3d, 0x44, 0x85, 0xbf, 0x3d, 0x90, 0x97, 0x89, 0x3d, 0x90, 0xc5, 0xd4, 0xbd, 0xe5, 0x30, 0x74, 0x3d, 0x80, 0x6d, 0xbb, 0x3c, 0x09, 0x25, 0x62, 0x3e, 0x60, 0xd5, 0x9e, 0xbc, 0x3e, 0xf0, 0xbf, 0x3d, 0xa8, 0x46, 0x26, 0xbd, 0x7b, 0x27, 0x30, 0xbd, 0xf1, 0x37, 0x0f, 0xbe, 0xf4, 0x52, 0x99, 0xbd, 0x98, 0x86, 0x9d, 0xbd, 0x45, 0xa3, 0xee, 0x3d, 0x28, 0x77, 0x03, 0xbe, 0x75, 0x8e, 0x69, 0x3d, 0x50, 0xd0, 0x4e, 0xbd, 0x26, 0x75, 0x3b, 0x3b, 0x10, 0xcf, 0x2e, 0xbd, 0xd4, 0xa1, 0x2c, 0xbc, 0xe2, 0x4e, 0x21, 0x3e, 0x46, 0xaf, 0x2b, 0xbe, 0xb0, 0x09, 0x2a, 0x3e, 0xb8, 0x30, 0x87, 0x3d, 0x2d, 0x49, 0x10, 0x3e, 0x86, 0xa8, 0x11, 0x3e, 0x4c, 0x69, 0x34, 0xbe, 0xd3, 0xea, 0xc9, 0xbc, 0x54, 0x67, 0x18, 0x3e, 0x74, 0x58, 0x2f, 0x3e, 0x5c, 0xf9, 0x55, 0x3e, 0x10, 0x1a, 0x62, 0xbd, 0xe9, 0x75, 0xa1, 0x3d, 0x86, 0x0c, 0x48, 0xbe, 0x11, 0xc6, 0x3a, 0xbe, 0x77, 0xeb, 0x20, 0x3e, 0x14, 0x6c, 0xb3, 0x3d, 0xc0, 0x03, 0x54, 0x3d, 0xa2, 0xcb, 0x06, 0xbe, 0x30, 0x68, 0x39, 0xbd, 0xc8, 0xcf, 0x97, 0x3d, 0x94, 0xd2, 0xf9, 0x3d, 0x40, 0xb9, 0x76, 0x3e, 0x80, 0x7d, 0x8f, 0xbc, 0x00, 0x6b, 0x26, 0xbc, 0x20, 0xfe, 0xc3, 0xbd, 0x48, 0xef, 0x37, 0xbe, 0xb0, 0xb5, 0x74, 0xbd, 0x13, 0x22, 0x5b, 0xbe, 0xda, 0x45, 0x2a, 0x3d, 0x13, 0x80, 0x65, 0x3e, 0x12, 0xa5, 0x1a, 0x3c, 0xbb, 0xb3, 0x63, 0xbe, 0x4f, 0x5e, 0x8e, 0x3b, 0x50, 0x48, 0xb6, 0x3d, 0xdb, 0xcb, 0xa0, 0xbe, 0xc6, 0x4d, 0x52, 0xbe, 0xf8, 0xa3, 0x00, 0x3e, 0x20, 0xb8, 0x9e, 0xbc, 0x90, 0xfe, 0x6a, 0x3d, 0x98, 0x36, 0x72, 0x3e, 0x8d, 0x06, 0x94, 0xbc, 0x44, 0xf0, 0x68, 0xbe, 0x40, 0x8f, 0x22, 0xbe, 0xa2, 0x6f, 0x6b, 0x3e, 0x00, 0x7c, 0xfa, 0x3c, 0x74, 0x59, 0x66, 0xbe, 0xc7, 0x8c, 0xd2, 0x3d, 0xf0, 0xb2, 0xe1, 0xbd, 0xed, 0x4f, 0x34, 0x3e, 0xe0, 0xd2, 0xfc, 0x3c, 0x57, 0x4a, 0x28, 0x3d, 0x05, 0xaf, 0xa7, 0xbd, 0xdb, 0xfc, 0xee, 0xbc, 0x2f, 0x68, 0x2d, 0x3d, 0xe3, 0xe0, 0x2e, 0x3b, 0x89, 0x36, 0x05, 0xbd, 0xc7, 0x57, 0x60, 0x3d, 0x60, 0x63, 0xa7, 0xbc, 0x78, 0xd5, 0x25, 0x3e, 0xc0, 0xc5, 0x3b, 0xbd, 0x78, 0xbd, 0x4b, 0xbe, 0xcc, 0x99, 0x46, 0x3e, 0x3c, 0xda, 0x79, 0x3e, 0xa6, 0x54, 0x01, 0x3e, 0x2d, 0xa8, 0x5b, 0xbe, 0xf0, 0x8c, 0xee, 0xbd, 0x30, 0x6a, 0x8e, 0x3d, 0xbe, 0xf2, 0x78, 0x3d, 0xc4, 0x71, 0x9e, 0x3c, 0x78, 0xe3, 0x87, 0x3d, 0x05, 0xb0, 0xfe, 0x39, 0x54, 0xe4, 0x49, 0x3e, 0x18, 0x28, 0x23, 0x3e, 0xdc, 0xc5, 0x22, 0xbe, 0x08, 0xb1, 0x2d, 0x3e, 0x9f, 0xd5, 0x5c, 0x3e, 0x6d, 0x8a, 0x69, 0xbe, 0xe4, 0x47, 0x1d, 0x3d, 0x4a, 0x4c, 0x02, 0x3e, 0xb2, 0xbb, 0xbd, 0x3d, 0x24, 0x34, 0x19, 0x3e, 0x4b, 0xda, 0x2c, 0xbe, 0x55, 0x6a, 0x91, 0xbd, 0xe1, 0x2d, 0x2c, 0x3e, 0x50, 0x59, 0xe1, 0xbd, 0x38, 0xce, 0xa6, 0xbd, 0x2c, 0xab, 0x62, 0x3e, 0xc0, 0x6d, 0x1f, 0xbc, 0x1c, 0xbf, 0x68, 0x3e, 0x40, 0xdf, 0x0a, 0x3e, 0x38, 0x34, 0x6b, 0xbe, 0x30, 0x2d, 0x31, 0x3e, 0xf6, 0xe4, 0xf1, 0xbd, 0x5f, 0x84, 0x71, 0x3e, 0xf8, 0x97, 0x8c, 0xbd, 0x65, 0xc0, 0x3d, 0xbe, 0x19, 0xff, 0x9d, 0x3d, 0xb8, 0x08, 0x8c, 0x3d, 0x94, 0xfb, 0x63, 0xbd, 0xd2, 0x07, 0x31, 0xbd, 0xc0, 0x1b, 0x49, 0x3d, 0x80, 0x21, 0x27, 0xbc, 0x08, 0x74, 0x18, 0xbe, 0xb8, 0x4d, 0x92, 0xbd, 0x46, 0xf4, 0x0f, 0xbe, 0x30, 0xa1, 0x83, 0xbd, 0xeb, 0x58, 0xf6, 0xbd, 0x95, 0xed, 0x73, 0xbd, 0x00, 0x81, 0x11, 0xbc, 0x54, 0x24, 0x4a, 0xbe, 0x7c, 0x32, 0x49, 0x3e, 0x9c, 0xbf, 0x62, 0x3e, 0x6e, 0xc6, 0x0b, 0x3e, 0x70, 0x95, 0x7c, 0x3e, 0x16, 0xea, 0x79, 0xbe, 0xd3, 0xb6, 0x75, 0xbe, 0x71, 0x8f, 0x72, 0xbe, 0x1f, 0xa0, 0xd6, 0x3d, 0x57, 0x22, 0x2a, 0xbe, 0xa8, 0x2b, 0xeb, 0x3d, 0xb8, 0x2f, 0x5a, 0x3e, 0xc4, 0x32, 0x2e, 0x3e, 0xc7, 0x0a, 0xaf, 0x3d, 0x18, 0x61, 0x38, 0x3e, 0xf0, 0x71, 0xeb, 0x3c, 0x18, 0x56, 0xf0, 0x3d, 0x6e, 0x67, 0x60, 0x3e, 0xa4, 0xf7, 0x52, 0xbe, 0x22, 0x93, 0x1c, 0x3e, 0xd8, 0x45, 0x6c, 0x3e, 0x25, 0xb3, 0x54, 0x3e, 0xa1, 0xd6, 0x0e, 0xbe, 0xe0, 0x1b, 0x7d, 0x3e, 0x08, 0x35, 0x4e, 0x3e, 0xaf, 0x79, 0x11, 0xbd, 0x88, 0x26, 0x7f, 0x3e, 0xbc, 0x5c, 0x57, 0xbe, 0x00, 0x44, 0xef, 0x3b, 0xd0, 0x63, 0x72, 0x3d, 0x9f, 0x22, 0x97, 0x3c, 0x25, 0x04, 0x0d, 0x3e, 0x3e, 0xde, 0x77, 0x3d, 0x24, 0x1e, 0x42, 0x3e, 0x85, 0x2c, 0xf6, 0xbd, 0x00, 0x09, 0x03, 0x3d, 0x74, 0x54, 0x61, 0x3e, 0xe6, 0xd6, 0x42, 0xbe, 0xba, 0x95, 0x18, 0x3d, 0x8b, 0x28, 0x19, 0xbe, 0xc9, 0x2c, 0x23, 0xbe, 0x54, 0xf7, 0x61, 0xbe, 0x4c, 0x42, 0x1d, 0x3e, 0xe0, 0x1f, 0x3e, 0x3d, 0xe0, 0x1d, 0x53, 0x3d, 0x40, 0x04, 0x6d, 0xbe, 0x41, 0x55, 0xb2, 0xbc, 0xb1, 0x07, 0x11, 0x3e, 0x93, 0x07, 0x97, 0x3d, 0xd5, 0x2f, 0x58, 0xbe, 0xdb, 0x3e, 0x6d, 0x3c, 0x27, 0x7e, 0x72, 0x3e, 0x80, 0xa4, 0x3d, 0xbe, 0x77, 0x8a, 0x2c, 0x3e, 0xcb, 0x41, 0xfd, 0xbd, 0x08, 0xe1, 0x73, 0xbe, 0xb0, 0xb3, 0x25, 0x3d, 0x70, 0x90, 0xc1, 0x3d, 0x00, 0x42, 0x82, 0xbc, 0xe1, 0x54, 0x5b, 0xbe, 0x00, 0xe0, 0x7a, 0xb9, 0x8b, 0xd7, 0x74, 0x3d, 0x71, 0x43, 0x64, 0x3e, 0xf4, 0x82, 0x05, 0xbe, 0x70, 0xac, 0x60, 0x3d, 0x14, 0xed, 0x98, 0x3b, 0x78, 0x53, 0x2c, 0x3e, 0x3c, 0x24, 0xcd, 0xbd, 0xf4, 0x81, 0x23, 0x3e, 0xe5, 0x49, 0x29, 0x3e, 0x78, 0x67, 0x78, 0xbe, 0xe8, 0x1a, 0x53, 0x3d, 0x50, 0x35, 0x18, 0x3e, 0x02, 0xf1, 0x7f, 0xbe, 0xd4, 0x5a, 0x1f, 0xbe, 0x29, 0xda, 0x70, 0xbd, 0xd4, 0x55, 0x41, 0x3e, 0x18, 0x5e, 0xb6, 0x3d, 0xc0, 0xc3, 0x4b, 0x3e, 0x48, 0xce, 0x7a, 0xbc, 0xf0, 0x9a, 0xc0, 0x3d, 0x9c, 0x30, 0x9b, 0xbc, 0xaf, 0x70, 0x5c, 0xbe, 0x2b, 0x31, 0x78, 0xbe, 0xc8, 0xe8, 0x33, 0x3e, 0x31, 0x78, 0x70, 0xbd, 0x9c, 0x15, 0x29, 0x3c, 0x4a, 0x9f, 0x62, 0xbe, 0x20, 0x5a, 0x65, 0xbd, 0xfb, 0x0b, 0xd7, 0xbd, 0xc4, 0x75, 0x3f, 0xbe, 0x60, 0xdb, 0xed, 0x3d, 0xb0, 0x28, 0x23, 0xbd, 0x38, 0xce, 0xb4, 0xbd, 0xdf, 0x8a, 0xbc, 0x3d, 0x6a, 0x26, 0x5c, 0x3e, 0x89, 0xeb, 0xdf, 0x3d, 0x7f, 0x3b, 0xe2, 0xbd, 0xe4, 0x26, 0x4f, 0xbd, 0x00, 0xd1, 0x9b, 0xbc, 0x21, 0xd7, 0x0e, 0xbe, 0x7e, 0xf3, 0xe4, 0x3d, 0xe3, 0x50, 0x40, 0xbe, 0x5e, 0xf9, 0x83, 0x3d, 0x31, 0x3c, 0x5f, 0x3d, 0x59, 0x84, 0x84, 0xbd, 0x38, 0x4b, 0xa6, 0x3d, 0x90, 0x97, 0xd5, 0x3d, 0xf8, 0x78, 0x3c, 0x3e, 0xa0, 0xa3, 0x04, 0x3d, 0xaf, 0xd1, 0x6c, 0xbd, 0xaa, 0x87, 0x00, 0x3d, 0x88, 0x9c, 0x28, 0x3e, 0x91, 0xab, 0x65, 0x3b, 0xbc, 0xfa, 0x1d, 0xbe, 0x4c, 0x2a, 0x1a, 0xbe, 0xe0, 0xeb, 0x3f, 0xbd, 0xe7, 0x1b, 0x58, 0x3d, 0x0f, 0xcf, 0xc9, 0x3d, 0x54, 0x75, 0x11, 0xbe, 0x00, 0xef, 0x3b, 0xbe, 0x00, 0x0f, 0x10, 0xbd, 0x24, 0xf7, 0x30, 0x3e, 0x2b, 0x3d, 0x66, 0x3d, 0xa0, 0x61, 0x89, 0x3d, 0xa2, 0xf6, 0x22, 0x3e, 0x0e, 0x37, 0x57, 0x3e, 0x48, 0x7c, 0x4f, 0xbe, 0xa0, 0x88, 0x65, 0xbd, 0xd9, 0x8d, 0x6d, 0x3e, 0x00, 0x11, 0x40, 0x3b, 0xb7, 0xfa, 0x81, 0xbd, 0x00, 0x1b, 0x44, 0xbd, 0xea, 0x67, 0x80, 0x3e, 0x69, 0x6a, 0x8b, 0xbd, 0xda, 0x8b, 0x5d, 0xbc, 0x3f, 0xd7, 0xee, 0x3d, 0x83, 0x2a, 0x08, 0x3e, 0x03, 0xf0, 0xe7, 0x3d, 0x84, 0xde, 0x5a, 0x3e, 0xa8, 0xff, 0xf1, 0x3d, 0x06, 0x65, 0x74, 0xbe, 0xdc, 0x7b, 0x5d, 0x3e, 0x80, 0xd5, 0x1f, 0x3c, 0x0c, 0x8c, 0x4e, 0xbe, 0x35, 0x62, 0x82, 0x3e, 0xa6, 0xa3, 0x5b, 0x3e, 0x2f, 0xf3, 0x10, 0x3d, 0x60, 0xd6, 0x75, 0x3d, 0x9b, 0x41, 0x02, 0xbe, 0xd9, 0x5d, 0xff, 0xbd, 0xbd, 0x9d, 0x75, 0xbe, 0x40, 0x85, 0xe6, 0xbd, 0x82, 0x9f, 0xbe, 0x3d, 0xe0, 0x13, 0x3c, 0xbe, 0x78, 0xc1, 0xf8, 0x3d, 0xd8, 0xa8, 0x43, 0xbe, 0x70, 0x26, 0x49, 0x3e, 0x80, 0x9a, 0x2a, 0x3d, 0x7d, 0x09, 0xb4, 0xbd, 0xa8, 0xa2, 0x6d, 0xbe, 0x78, 0x60, 0x8d, 0xbd, 0xd9, 0x90, 0x19, 0x3d, 0x64, 0x43, 0x4f, 0xbe, 0xf0, 0xa2, 0x87, 0xbe, 0xc6, 0xb3, 0x4e, 0x3e, 0x96, 0x6c, 0x0a, 0x3e, 0x23, 0xfc, 0x73, 0xbe, 0xe2, 0x80, 0x09, 0xbe, 0x5b, 0x89, 0xa4, 0x39, 0x18, 0x32, 0x32, 0xbe, 0x68, 0xb0, 0xce, 0xbd, 0xfc, 0x27, 0x58, 0xbe, 0xe0, 0x1e, 0x91, 0x3c, 0xf3, 0x7c, 0x74, 0xbd, 0xb4, 0x97, 0x8c, 0xbd, 0x35, 0x39, 0x86, 0x3d, 0x87, 0x63, 0x87, 0x3e, 0x52, 0xf0, 0xe6, 0x3c, 0x98, 0x23, 0x22, 0x3e, 0x08, 0x3c, 0xf1, 0xbd, 0x40, 0xeb, 0x5c, 0x3d, 0x90, 0xd7, 0xf5, 0xbc, 0x70, 0x05, 0x31, 0xbe, 0x40, 0x04, 0x18, 0x3c, 0x50, 0x71, 0xb2, 0x3d, 0xa8, 0x66, 0x54, 0x3e, 0xf8, 0x14, 0x6f, 0x3e, 0xbc, 0x7d, 0x08, 0xbe, 0x45, 0x84, 0xc1, 0xbc, 0xa1, 0xba, 0x29, 0xbe, 0xcc, 0x70, 0x25, 0x3e, 0x90, 0x90, 0x78, 0x3e, 0x4d, 0x30, 0x4d, 0x3e, 0xb8, 0xa0, 0x16, 0x3e, 0x50, 0x9e, 0x81, 0x3d, 0x40, 0xfc, 0x77, 0x3c, 0xa2, 0x03, 0x0d, 0x3e, 0xbb, 0x72, 0x4b, 0xbe, 0x83, 0x1f, 0x3f, 0x3e, 0x40, 0x83, 0x0b, 0xbe, 0x23, 0x73, 0x5e, 0x3e, 0x31, 0x44, 0x08, 0x3e, 0xf4, 0x67, 0xde, 0xbc, 0x94, 0x32, 0x1b, 0xbe, 0x0a, 0xf7, 0x2d, 0x3e, 0x44, 0xa1, 0x4f, 0x3e, 0xe5, 0x7c, 0x02, 0xbe, 0x24, 0xde, 0x7c, 0xbe, 0x3b, 0x41, 0x0f, 0x3e, 0x71, 0xd4, 0x23, 0xbd, 0x26, 0x0f, 0x41, 0x3e, 0x40, 0x6a, 0x52, 0xbe, 0x86, 0x28, 0x07, 0x3e, 0xaf, 0xd2, 0x44, 0xbe, 0x45, 0xe6, 0x38, 0xbe, 0x50, 0xd6, 0x21, 0xbe, 0x73, 0x74, 0xa6, 0x3b, 0x48, 0x26, 0xc3, 0xbd, 0x88, 0xb6, 0x74, 0x3e, 0xe8, 0x38, 0x30, 0x3e, 0xd8, 0x64, 0x04, 0xbe, 0xff, 0x1d, 0x32, 0xbe, 0xa9, 0x07, 0xc0, 0x3d, 0x07, 0x51, 0x70, 0x3e, 0x06, 0x92, 0x5c, 0xbe, 0x00, 0x6b, 0x10, 0x3e, 0x50, 0x7f, 0x76, 0x3e, 0x71, 0xc2, 0x2a, 0x3e, 0x2e, 0x27, 0xf2, 0x3d, 0xbf, 0x22, 0xc1, 0xbb, 0x40, 0x98, 0xa3, 0x3d, 0x74, 0x64, 0xc9, 0x3d, 0x6a, 0xaa, 0xcb, 0x3d, 0x88, 0xbe, 0x88, 0xbd, 0x84, 0x7a, 0x60, 0x3e, 0x30, 0xee, 0xdb, 0x3d, 0x40, 0x5c, 0xeb, 0xbd, 0x67, 0xe9, 0x0b, 0x3c, 0x1d, 0xdd, 0x46, 0x3e, 0xca, 0x77, 0x35, 0x3e, 0xd5, 0x83, 0x80, 0xbe, 0x42, 0xba, 0x77, 0x3d, 0x07, 0xc6, 0x6d, 0x3e, 0x48, 0x2d, 0x67, 0xbe, 0x1f, 0xc4, 0xaa, 0x3c, 0x4c, 0x53, 0x62, 0xbe, 0x4c, 0x86, 0x41, 0x3e, 0x00, 0x8d, 0x69, 0xbe, 0x10, 0x83, 0x7d, 0xbd, 0xa0, 0xe6, 0x9f, 0x3c, 0x79, 0x9f, 0xc7, 0x3d, 0xc0, 0xd4, 0xd6, 0x3c, 0x27, 0xa2, 0x3d, 0xbd, 0x73, 0x90, 0xeb, 0xbc, 0x34, 0xf4, 0x19, 0xbe, 0xf8, 0xd9, 0x95, 0xbd, 0xdf, 0x1a, 0x43, 0xbe, 0x6c, 0x6e, 0x5a, 0x3e, 0x47, 0x8b, 0x56, 0x3e, 0xa0, 0x0b, 0x90, 0xbc, 0x58, 0x6e, 0xd2, 0xbd, 0x43, 0x16, 0x30, 0xbd, 0x8d, 0x24, 0x0d, 0xbe, 0xc8, 0x50, 0x10, 0xbd, 0x71, 0xb3, 0x35, 0xbe, 0x38, 0x61, 0xdb, 0x3d, 0xc7, 0x2b, 0x53, 0x3e, 0x70, 0x78, 0x4c, 0x3d, 0x58, 0x7a, 0x14, 0xbe, 0x30, 0x1d, 0x31, 0x3e, 0x60, 0x9d, 0xb6, 0xbd, 0xc8, 0x85, 0x87, 0x3d, 0x00, 0x70, 0xa1, 0xbc, 0xc8, 0x15, 0x3e, 0xbe, 0x24, 0x96, 0x32, 0xbe, 0x54, 0xa5, 0x23, 0x3e, 0x40, 0x25, 0xcb, 0xbd, 0x1c, 0x21, 0x74, 0x3e, 0xb8, 0xe6, 0x8c, 0x3d, 0xc0, 0x0d, 0x20, 0xbe, 0xc0, 0x32, 0x09, 0xbe, 0xa0, 0x46, 0xb2, 0x3c, 0xd8, 0x59, 0xbe, 0x3d, 0xe4, 0x05, 0x11, 0xbe, 0x9c, 0xf8, 0x09, 0xbe, 0x04, 0x55, 0x34, 0xbe, 0x68, 0xe7, 0x70, 0xbe, 0xc0, 0x53, 0x06, 0xbe, 0x88, 0x00, 0x74, 0x3e, 0x84, 0x85, 0x19, 0x3e, 0x7c, 0xd0, 0x03, 0xbe, 0x40, 0x42, 0x2a, 0x3c, 0x48, 0x43, 0x63, 0xbe, 0x80, 0x14, 0x57, 0x3e, 0xdc, 0xe8, 0x79, 0x3e, 0x60, 0xb4, 0xb2, 0xbc, 0xa0, 0x7c, 0x1c, 0x3d, 0xac, 0x77, 0x7b, 0x3e, 0xa0, 0x48, 0xd2, 0xbc, 0x00, 0xa9, 0xc5, 0xbb, 0x58, 0xbf, 0x7b, 0xbe, 0xf0, 0x4e, 0xfa, 0x3d, 0x58, 0xac, 0x53, 0xbe, 0xdc, 0xf9, 0x51, 0xbe, 0xe8, 0x28, 0xab, 0x3d, 0x70, 0xb2, 0x69, 0x3d, 0xd0, 0x37, 0x2d, 0xbd, 0x00, 0x2b, 0x0f, 0x3c, 0x10, 0x0e, 0x63, 0xbd, 0x68, 0x48, 0x71, 0xbe, 0xf0, 0xcf, 0x37, 0xbd, 0x20, 0x35, 0x5d, 0xbd, 0x60, 0x64, 0x58, 0x3d, 0x38, 0x50, 0xca, 0xbd, 0xe0, 0x43, 0x58, 0x3e, 0x90, 0x44, 0xd5, 0x3d, 0xd0, 0x85, 0xab, 0x3d, 0x3c, 0xab, 0x56, 0x3e, 0x80, 0x08, 0x65, 0xbc, 0x64, 0x98, 0x29, 0x3e, 0x70, 0x84, 0x8e, 0xbd, 0xf4, 0x50, 0x7d, 0xbe, 0x00, 0x6d, 0xc4, 0x3d, 0x34, 0xff, 0x35, 0x3e, 0xc0, 0x61, 0xbc, 0xbd, 0xc0, 0xe7, 0xb3, 0x3d, 0xe0, 0xef, 0xa9, 0xbd, 0x24, 0x5d, 0x04, 0xbe, 0x58, 0xa5, 0x06, 0x3e, 0xc0, 0x0b, 0xa7, 0x3c, 0x14, 0x3a, 0x11, 0x3e, 0x00, 0xdf, 0x39, 0xbb, 0xc0, 0x10, 0x3a, 0x3c, 0x20, 0xff, 0x83, 0x3c, 0x5c, 0x5e, 0x11, 0x3e, 0x80, 0x8c, 0x08, 0x3c, 0x00, 0xc1, 0x26, 0xbe, 0x60, 0xc7, 0x95, 0xbd, 0x08, 0xba, 0x49, 0xbe, 0x60, 0xd6, 0xf0, 0xbd, 0x38, 0xc1, 0xc2, 0xbd, 0x58, 0x41, 0xda, 0x3d, 0x90, 0x80, 0x1d, 0x3e, 0x38, 0xf5, 0x8c, 0xbd, 0x78, 0x9a, 0xa1, 0xbd, 0x00, 0x7b, 0x7f, 0x3d, 0x70, 0x16, 0x9c, 0xbd, 0xa8, 0xa5, 0xce, 0x3d, 0x80, 0x7f, 0xa6, 0xbc, 0xbc, 0x4f, 0x39, 0x3e, 0xa8, 0x81, 0x42, 0x3e, 0xa0, 0xbb, 0x68, 0x3d, 0xd4, 0x01, 0x45, 0x3e, 0x80, 0xe6, 0x93, 0x3d, 0x00, 0x90, 0x51, 0x39, 0x60, 0xfd, 0xd1, 0x3c, 0x7c, 0x14, 0x56, 0xbe, 0x78, 0x9a, 0xdd, 0xbd, 0x44, 0x70, 0x3d, 0x3e, 0x04, 0xf7, 0x6b, 0xbe, 0x20, 0x0b, 0x64, 0x3e, 0x78, 0x4f, 0x68, 0x3e, 0xa0, 0x20, 0xc9, 0xbc, 0xe8, 0x52, 0xa0, 0xbd, 0x10, 0x82, 0x7e, 0xbd, 0x28, 0xdc, 0xaf, 0xbd, 0xac, 0x98, 0x5b, 0x3e, 0x54, 0x84, 0x61, 0xbe, 0xcc, 0x3a, 0x6c, 0xbe, 0xb8, 0xf5, 0x56, 0x3e, 0x14, 0xf3, 0x01, 0xbe, 0x84, 0xf8, 0x31, 0xbe, 0x10, 0xea, 0x66, 0xbe, 0x9c, 0x55, 0x2c, 0xbe, 0xac, 0x9c, 0x0e, 0x3e, 0x80, 0xa2, 0x5a, 0xbc, 0xd8, 0xc5, 0x54, 0x3e, 0x6c, 0x5d, 0x56, 0x3e, 0x70, 0xea, 0xfc, 0xbd, 0x10, 0x6a, 0x38, 0x3e, 0x20, 0xa4, 0x38, 0x3d, 0xfc, 0x80, 0x62, 0xbe, 0xbc, 0x6e, 0x3f, 0x3e, 0x7c, 0xeb, 0x33, 0x3e, 0x60, 0x2d, 0xf6, 0xbd, 0x88, 0xa0, 0x9e, 0x3d, 0xb0, 0xaf, 0x4a, 0xbe, 0x00, 0xb6, 0xbc, 0xba, 0xd4, 0x63, 0x34, 0xbe, 0x90, 0xdc, 0x63, 0xbe, 0x40, 0xec, 0x6c, 0x3e, 0x58, 0xdc, 0xd3, 0xbd, 0xe0, 0xb9, 0xe9, 0x3c, 0x50, 0x93, 0x28, 0x3d, 0x98, 0x2f, 0x76, 0x3e, 0xb4, 0x23, 0x53, 0x3e, 0xdd, 0xaf, 0xc2, 0x3d, 0x7c, 0x1e, 0x6c, 0xbe, 0x53, 0x5c, 0x80, 0x3e, 0x20, 0x2d, 0xe1, 0x3c, 0x06, 0x42, 0xac, 0x3d, 0x0d, 0x77, 0x5d, 0x3e, 0x8b, 0x3a, 0xbf, 0xbb, 0x54, 0x98, 0x38, 0x3e, 0x37, 0x47, 0xaf, 0xbd, 0xc0, 0xf0, 0xa3, 0x3d, 0xa8, 0xc5, 0x46, 0x3e, 0x40, 0xdd, 0x71, 0xbd, 0xe4, 0xfa, 0xa1, 0x3a, 0xf4, 0x66, 0x3f, 0x3e, 0x88, 0xfa, 0xc7, 0x3d, 0xb0, 0xba, 0x43, 0xbd, 0xc0, 0x80, 0xb3, 0x3c, 0x13, 0xb9, 0x1b, 0x3c, 0x28, 0xf3, 0x6b, 0x3c, 0xfc, 0xfe, 0xdd, 0x3d, 0x2c, 0x8f, 0x95, 0xbd, 0x8e, 0xbb, 0x94, 0x3e, 0x44, 0xf1, 0x7f, 0x3e, 0x2c, 0x72, 0x2e, 0xbe, 0x70, 0x80, 0x66, 0xbe, 0xbe, 0x04, 0x8e, 0xbd, 0x35, 0x74, 0x09, 0x3d, 0xa0, 0x74, 0xbd, 0x3d, 0xab, 0xfb, 0x33, 0xbe, 0x40, 0x02, 0x00, 0xbe, 0xfc, 0xfe, 0x54, 0x3e, 0xc0, 0xa8, 0x34, 0x3d, 0xe8, 0x7a, 0xfb, 0xbd, 0x04, 0xf8, 0x22, 0x3e, 0x75, 0xcb, 0x9d, 0xbd, 0xd5, 0xbe, 0x35, 0xbe, 0xeb, 0xc2, 0xb0, 0x3d, 0xee, 0xad, 0xdf, 0x3d, 0x4e, 0x9c, 0x59, 0x3e, 0x80, 0xc8, 0xfe, 0xbc, 0x28, 0x8a, 0x12, 0x3d, 0x28, 0x6c, 0x63, 0x3e, 0xb4, 0x0a, 0x75, 0xbe, 0xc8, 0x8a, 0x35, 0x3e, 0xb8, 0xc8, 0x14, 0xbe, 0x38, 0x77, 0xa8, 0x3d, 0xf6, 0x63, 0x88, 0xbc, 0x18, 0x7d, 0x47, 0x3e, 0x74, 0x6d, 0x1a, 0x3e, 0x99, 0x74, 0x44, 0x3d, 0xc4, 0x94, 0x72, 0x3e, 0xc0, 0x34, 0xd7, 0x3d, 0x30, 0xe6, 0xa5, 0xbd, 0x80, 0xfa, 0x13, 0x3e, 0x6a, 0x17, 0x7b, 0xbe, 0x78, 0xaa, 0x7c, 0x3e, 0xdf, 0x2c, 0xba, 0x3d, 0x80, 0xf1, 0xb8, 0x3c, 0xaf, 0x96, 0x50, 0x3e, 0xef, 0xcc, 0x3e, 0xbe, 0xe9, 0x87, 0x54, 0x3d, 0x6b, 0xf4, 0x2b, 0x3d, 0xfa, 0x88, 0x07, 0x3c, 0xf0, 0x65, 0xb9, 0x3d, 0x71, 0x36, 0x14, 0x3e, 0x64, 0xb7, 0x4f, 0xbe, 0x46, 0x1a, 0x08, 0xbe, 0x60, 0x8b, 0x17, 0x3e, 0x33, 0x2a, 0x37, 0xbd, 0x76, 0xb5, 0x3b, 0xbe, 0xc4, 0xf7, 0x33, 0x3e, 0x30, 0x95, 0x77, 0x3e, 0x72, 0xde, 0x42, 0x3e, 0x46, 0xc5, 0xd2, 0xbd, 0x52, 0xc7, 0x51, 0x3e, 0x10, 0x24, 0xca, 0xbd, 0x2c, 0x0b, 0x1d, 0x3e, 0x00, 0x64, 0x30, 0xbb, 0xa0, 0x2f, 0x3b, 0x3e, 0xcc, 0x87, 0x49, 0x3e, 0xf4, 0x28, 0x69, 0x3e, 0x29, 0x19, 0x0d, 0x3d, 0xdf, 0xee, 0x73, 0x3d, 0xc8, 0x83, 0xd8, 0xbb, 0x49, 0xfa, 0xad, 0xbc, 0x8e, 0x78, 0x50, 0xbe, 0x10, 0xbe, 0x17, 0xbe, 0x28, 0xd1, 0x4a, 0xbe, 0xdd, 0xd6, 0xb5, 0xbd, 0x5d, 0xf8, 0x75, 0xbd, 0x61, 0xe9, 0xe2, 0xbd, 0xc9, 0xd4, 0x34, 0x3e, 0xb7, 0x81, 0xda, 0x3d, 0x40, 0x73, 0xcb, 0x3d, 0xa8, 0xf3, 0x20, 0x3e, 0xd8, 0x70, 0xc5, 0xbd, 0xe0, 0x67, 0x19, 0x3e, 0x03, 0x4e, 0x99, 0xbd, 0xf9, 0x9d, 0x3c, 0x3d, 0xbb, 0x75, 0x5f, 0x3d, 0x82, 0x37, 0x75, 0x3e, 0x4f, 0xe3, 0x27, 0x3d, 0x94, 0x16, 0x45, 0x3d, 0x58, 0xec, 0x4f, 0x3e, 0x3b, 0x71, 0xa7, 0x3d, 0xdb, 0x1f, 0x3a, 0x3e, 0xb0, 0x74, 0xf5, 0x3d, 0xd0, 0xdd, 0x28, 0x3e, 0x90, 0x70, 0x08, 0x3e, 0x34, 0xdd, 0x7f, 0x3e, 0x9f, 0x47, 0xa1, 0x3d, 0x28, 0x98, 0x95, 0xbd, 0xcb, 0xfa, 0x6e, 0xbe, 0x4e, 0x89, 0xbd, 0xbc, 0xf0, 0x11, 0x32, 0xbe, 0x90, 0xfd, 0xfc, 0x3d, 0xdd, 0x2b, 0x26, 0xbe, 0xcc, 0x10, 0x4c, 0xbe, 0x8d, 0xb9, 0x27, 0xbe, 0xa8, 0x1d, 0x69, 0x3e, 0x7b, 0x2b, 0xfc, 0xba, 0x65, 0x9b, 0x77, 0x3e, 0x19, 0xbc, 0xd4, 0xbd, 0xe1, 0xe5, 0x23, 0x3e, 0x52, 0x3b, 0x7c, 0x3d, 0x0d, 0x76, 0x4f, 0xbe, 0x28, 0x93, 0x09, 0xbe, 0x00, 0x38, 0x69, 0xbc, 0xb0, 0x4c, 0x53, 0xbd, 0xf4, 0x75, 0x39, 0x3e, 0x50, 0x58, 0x35, 0x3d, 0x24, 0xd0, 0x47, 0x3e, 0x00, 0x77, 0x53, 0xbb, 0x7c, 0x5a, 0x1f, 0xbe, 0x8c, 0xe4, 0x42, 0xbe, 0xc8, 0x73, 0x8a, 0x3d, 0xc0, 0xba, 0x10, 0xbc, 0xf0, 0x96, 0x0d, 0x3d, 0xe4, 0xd3, 0x0c, 0x3e, 0x00, 0x7b, 0x82, 0xbd, 0xc0, 0x58, 0x5d, 0x3e, 0x0c, 0x54, 0x0d, 0x3e, 0xa0, 0x48, 0x68, 0x3d, 0x80, 0x57, 0xce, 0xbc, 0x5c, 0x5c, 0x4b, 0x3e, 0x60, 0x5b, 0x15, 0xbe, 0x5c, 0xfa, 0x65, 0xbe, 0xa8, 0x34, 0xc0, 0xbd, 0xb8, 0xc3, 0x91, 0xbd, 0x34, 0x66, 0x12, 0x3e, 0x9c, 0x10, 0x40, 0x3e, 0x58, 0xde, 0x97, 0x3d, 0x64, 0x83, 0x07, 0xbe, 0x00, 0x51, 0x21, 0x3b, 0x70, 0xd4, 0xcf, 0xbd, 0x80, 0x19, 0xe8, 0xbc, 0xa0, 0x1f, 0xcc, 0xbc, 0x9c, 0xa3, 0x69, 0x3e, 0x8c, 0xf3, 0x3f, 0xbe, 0xf8, 0xd4, 0x33, 0xbe, 0x98, 0x03, 0x76, 0x3e, 0x98, 0xcc, 0x9f, 0xbd, 0x30, 0x23, 0x40, 0x3e, 0x14, 0xe0, 0x0e, 0xbe, 0x00, 0xd5, 0x13, 0x3e, 0xf8, 0xc5, 0x02, 0xbe, 0xd0, 0x4b, 0x12, 0x3e, 0xe0, 0x27, 0x90, 0xbd, 0x80, 0xed, 0x5e, 0xbd, 0x14, 0x1e, 0x01, 0xbe, 0x40, 0xec, 0x3b, 0x3d, 0xe0, 0x1e, 0xcb, 0xbc, 0x70, 0x93, 0x1c, 0x3e, 0x40, 0xa7, 0x6b, 0x3d, 0x00, 0x49, 0x54, 0xbb, 0x00, 0xf8, 0x84, 0x3a, 0x30, 0xa5, 0x4f, 0x3d, 0x40, 0x22, 0x68, 0xbc, 0xd0, 0xac, 0x15, 0xbd, 0xd8, 0x09, 0xb0, 0xbd, 0x74, 0xe4, 0x3e, 0xbe, 0x70, 0x37, 0x69, 0x3e, 0x94, 0x2b, 0x79, 0xbe, 0x00, 0x4c, 0x7f, 0xbe, 0xa0, 0x5c, 0xf1, 0x3d, 0xc0, 0x48, 0x55, 0xbe, 0xac, 0xa4, 0x4c, 0xbe, 0x04, 0x12, 0x1e, 0x3e, 0xa4, 0x01, 0x7c, 0xbe, 0xa0, 0x3c, 0x0e, 0x3e, 0x70, 0xb5, 0x93, 0xbd, 0x30, 0x9b, 0x2e, 0xbe, 0x69, 0xc9, 0xfe, 0xbc, 0x80, 0x16, 0xab, 0x3d, 0x81, 0x85, 0xb2, 0x3c, 0x08, 0xc1, 0xf5, 0xbd, 0x3d, 0xbe, 0x58, 0xbe, 0xf6, 0x88, 0xce, 0x3d, 0x48, 0xa5, 0x9f, 0xbd, 0xd0, 0xee, 0xb9, 0x3d, 0x08, 0x17, 0xf0, 0xbd, 0x14, 0xa7, 0xd8, 0x3d, 0xec, 0xa9, 0x3c, 0x3d, 0x50, 0x3d, 0x26, 0x3e, 0x81, 0x69, 0x3f, 0x3d, 0x00, 0xe7, 0xb1, 0xbc, 0x30, 0xbf, 0x3c, 0x3d, 0x50, 0xaa, 0x29, 0xbd, 0x70, 0x0a, 0x94, 0xbd, 0x68, 0x71, 0x54, 0xbe, 0x1b, 0xa4, 0x91, 0x3d, 0xee, 0x2d, 0xfa, 0xbc, 0x50, 0x29, 0x3c, 0xbe, 0x79, 0x98, 0x1c, 0x3e, 0x90, 0x45, 0x8c, 0xbd, 0x47, 0x7e, 0xd5, 0xbd, 0xb8, 0x11, 0xa0, 0x3d, 0x52, 0xd5, 0xa1, 0x3d, 0xda, 0xc5, 0x51, 0x3e, 0xf1, 0xf7, 0x57, 0x3e, 0x6c, 0xa2, 0xf5, 0xbd, 0xb0, 0x5f, 0x05, 0x3d, 0x58, 0x09, 0x6c, 0xbe, 0x60, 0xbc, 0x06, 0xbe, 0x60, 0x92, 0x28, 0xbe, 0x30, 0xbb, 0x0a, 0xbd, 0x23, 0x20, 0xd2, 0xbd, 0xc1, 0x57, 0x53, 0x3e, 0xd3, 0xdd, 0x81, 0xbd, 0x7d, 0x91, 0x2f, 0xbe, 0x94, 0x90, 0x75, 0x3e, 0x40, 0xb1, 0xfd, 0xbc, 0x7c, 0x41, 0x2e, 0x3e, 0x37, 0x95, 0x7a, 0xbe, 0xb4, 0x75, 0x02, 0x3e, 0x00, 0xdf, 0x85, 0x3d, 0xf8, 0x7c, 0xc5, 0x3d, 0xf0, 0x7f, 0x36, 0x3e, 0xa1, 0x63, 0x11, 0xbe, 0xac, 0x1b, 0x58, 0x3e, 0x00, 0xa9, 0x19, 0x3e, 0x9f, 0xfc, 0x11, 0x3e, 0x70, 0x3e, 0xbe, 0xbd, 0x20, 0x58, 0x82, 0xbd, 0x2b, 0x17, 0x72, 0xbe, 0xa0, 0x89, 0x6a, 0x3e, 0xca, 0xc0, 0x69, 0xbd, 0xa8, 0x3d, 0xee, 0x3d, 0xfd, 0xa3, 0x28, 0x3d, 0xf6, 0x7f, 0x8b, 0xbd, 0xfa, 0xe6, 0x22, 0xbd, 0x92, 0xa1, 0x1a, 0x3e, 0x68, 0x3b, 0xe6, 0x3d, 0xc4, 0xb6, 0xd0, 0xbb, 0x40, 0x5c, 0xc8, 0x3d, 0x44, 0x32, 0x65, 0x3e, 0x0e, 0xfa, 0xff, 0xff, 0x04, 0x00, 0x00, 0x00, 0x00, 0x04, 0x00, 0x00, 0xc6, 0xfc, 0x0b, 0x3d, 0xc0, 0xd7, 0x8e, 0x3e, 0xbc, 0xe3, 0xa4, 0x3d, 0xfd, 0x24, 0x77, 0x3e, 0xc0, 0x09, 0x6e, 0xbc, 0xd8, 0xd0, 0x27, 0xbe, 0x80, 0xc5, 0x9e, 0x3d, 0xb7, 0x09, 0x87, 0xbe, 0x78, 0xe6, 0x58, 0x3e, 0xf4, 0xc0, 0xee, 0xbd, 0x1b, 0x71, 0x83, 0xbe, 0xde, 0x98, 0x23, 0x3e, 0x3e, 0x3c, 0xbf, 0xbd, 0xd0, 0x63, 0x3b, 0xbe, 0x8e, 0xe5, 0x2a, 0xbe, 0x8a, 0xda, 0x26, 0xbe, 0x64, 0xa3, 0x8b, 0xbc, 0x40, 0xea, 0x35, 0x3e, 0xe2, 0x99, 0x77, 0x3d, 0x32, 0x4b, 0xd7, 0x3d, 0x56, 0x54, 0x78, 0xbe, 0x0a, 0x4e, 0x22, 0x3e, 0x90, 0x95, 0x92, 0x3e, 0xef, 0x24, 0xe0, 0xb9, 0x96, 0x03, 0x28, 0xbe, 0xd0, 0x49, 0x4e, 0x3e, 0x90, 0xdd, 0xd7, 0xbd, 0xbf, 0x42, 0x0f, 0x3e, 0x94, 0xa6, 0x8b, 0xbd, 0x28, 0x84, 0x06, 0xbe, 0xa0, 0x47, 0xb4, 0x3d, 0x00, 0x4c, 0xfd, 0x39, 0x4c, 0x1d, 0x63, 0x3e, 0x0b, 0xd3, 0x27, 0x3e, 0x1b, 0x3d, 0x06, 0xbe, 0x14, 0x53, 0x17, 0x3d, 0x4a, 0x7d, 0xa2, 0xbd, 0x0b, 0x0d, 0x95, 0xbe, 0xab, 0xaf, 0xfa, 0xbd, 0xdf, 0x76, 0x18, 0x3e, 0x8d, 0x3d, 0x0e, 0x3e, 0x20, 0xb7, 0x7a, 0xbe, 0xd1, 0x3e, 0x98, 0x3d, 0x33, 0xbd, 0x4d, 0x3e, 0xd1, 0xda, 0x12, 0xbe, 0x32, 0x36, 0xdb, 0xbd, 0xc8, 0x7e, 0x3b, 0xbd, 0x3e, 0x68, 0x4d, 0xbe, 0xd0, 0xba, 0xb7, 0x3d, 0x1b, 0x6b, 0x34, 0xbe, 0x5a, 0x25, 0x23, 0xbe, 0xe7, 0x3b, 0x46, 0x3e, 0x24, 0x5f, 0x85, 0xbe, 0xca, 0x1e, 0x55, 0xbe, 0xaa, 0x3b, 0x5f, 0xbe, 0xdc, 0x49, 0xdc, 0xbd, 0xbc, 0xbd, 0x09, 0x3e, 0x10, 0x99, 0x42, 0x3d, 0xc0, 0x94, 0x60, 0xbe, 0x4d, 0xb7, 0x21, 0xbe, 0xd6, 0x1d, 0xb8, 0xbd, 0x48, 0x8b, 0x81, 0x3d, 0xd0, 0xc3, 0x85, 0x3e, 0xa0, 0x21, 0x03, 0xbe, 0x08, 0x6d, 0x58, 0x3e, 0x6a, 0xbe, 0x0b, 0x3e, 0xbc, 0x16, 0x40, 0x3e, 0x8d, 0x95, 0x8c, 0xbe, 0x3f, 0x23, 0x89, 0xbc, 0xcb, 0x66, 0x47, 0x3c, 0xd6, 0x29, 0xb8, 0x3d, 0xf0, 0x1f, 0x25, 0xbd, 0x4f, 0x36, 0xc2, 0xbd, 0xb5, 0x66, 0x8c, 0xbe, 0x6e, 0x04, 0x80, 0x3e, 0x82, 0xd6, 0x52, 0x3e, 0x9a, 0x36, 0xaf, 0x3c, 0xc5, 0x30, 0x8f, 0x3e, 0x72, 0xe0, 0x67, 0xbd, 0x67, 0xe9, 0x11, 0x3d, 0x18, 0x62, 0x1a, 0xbe, 0x8d, 0x15, 0x80, 0x3e, 0x0b, 0x98, 0x7d, 0x3e, 0x31, 0xa5, 0x43, 0x3d, 0xf5, 0x67, 0x62, 0xbe, 0xfe, 0x45, 0x0c, 0x3e, 0xb7, 0x56, 0x70, 0x3e, 0x08, 0x19, 0x0a, 0x3c, 0x60, 0x0a, 0x6f, 0x3e, 0xe4, 0xe7, 0xe9, 0xbd, 0x78, 0x04, 0x56, 0x3e, 0xe3, 0x7c, 0x97, 0xbe, 0xb4, 0x54, 0x54, 0xbe, 0x69, 0x81, 0x36, 0x3e, 0xc9, 0x3e, 0x3f, 0x3e, 0xeb, 0x3a, 0xac, 0x3b, 0x4b, 0x2f, 0x52, 0xbe, 0x8c, 0x92, 0x03, 0x3d, 0xd5, 0x18, 0x85, 0x3e, 0x45, 0x88, 0x43, 0x3e, 0xd4, 0xf5, 0xb3, 0x3d, 0x8e, 0xc6, 0x67, 0x3e, 0xd2, 0x01, 0x5b, 0x3e, 0x61, 0xa8, 0x72, 0xbd, 0xa8, 0x69, 0x58, 0xbd, 0xde, 0x68, 0x7f, 0xbe, 0xa9, 0xfe, 0x91, 0xbe, 0x8f, 0x0a, 0x48, 0x3e, 0xb1, 0x41, 0xb8, 0x3d, 0x3c, 0xe2, 0x60, 0xbe, 0xfb, 0xbc, 0x9c, 0x3d, 0x2d, 0xdc, 0x97, 0x3d, 0x6b, 0x39, 0x41, 0x3e, 0xd6, 0x31, 0x78, 0x3e, 0x3e, 0x57, 0x5b, 0xbe, 0xb8, 0x24, 0x65, 0x3e, 0xd0, 0x76, 0xe7, 0xbc, 0x7e, 0xca, 0x18, 0xbe, 0x8c, 0x97, 0x77, 0xbe, 0xd6, 0xff, 0x07, 0xbe, 0xa0, 0xdc, 0x7a, 0x3c, 0xa0, 0xdf, 0xcc, 0xbd, 0xf0, 0xd9, 0x51, 0x3e, 0xb1, 0x08, 0x93, 0xbe, 0xd8, 0x44, 0x83, 0xbd, 0x04, 0xfb, 0x7f, 0xbd, 0x60, 0x96, 0x3d, 0x3c, 0xe6, 0x88, 0x89, 0xbe, 0x8c, 0x8a, 0x4e, 0x3e, 0x30, 0xb3, 0x6b, 0x3d, 0xb0, 0x59, 0x8c, 0x3e, 0xb7, 0xe9, 0x94, 0xbe, 0x90, 0xa6, 0x2d, 0xbe, 0x3e, 0x32, 0x89, 0x3e, 0xdf, 0xd2, 0xc5, 0x3d, 0x7c, 0x15, 0x80, 0x3d, 0x28, 0x2e, 0xa8, 0xbd, 0x4a, 0x78, 0x99, 0xbe, 0xfd, 0xec, 0x9f, 0x3d, 0x7b, 0x00, 0x86, 0x3e, 0xde, 0x5c, 0x0f, 0x3a, 0x4f, 0xe9, 0xdd, 0x3d, 0x86, 0x6b, 0x4d, 0xbe, 0xd8, 0xff, 0x85, 0x3e, 0xa6, 0x84, 0x7d, 0xbe, 0x8b, 0x89, 0x73, 0x3e, 0x9d, 0xb4, 0x51, 0xbd, 0x8d, 0x9e, 0x2e, 0x3e, 0x21, 0xef, 0xc0, 0x3d, 0x0e, 0x3e, 0xe1, 0xbc, 0xc4, 0x54, 0x82, 0x3d, 0x76, 0xb2, 0x78, 0x3e, 0x44, 0xac, 0x57, 0x3e, 0x8d, 0x46, 0xa7, 0xbc, 0xee, 0xe8, 0x4d, 0xbe, 0xc6, 0x3a, 0x5b, 0x3e, 0xd8, 0xb4, 0xa9, 0xbd, 0x30, 0xf6, 0x8e, 0x3e, 0x99, 0xc0, 0x93, 0xbe, 0x40, 0x29, 0x1e, 0xbe, 0xb0, 0xbb, 0xdb, 0x3d, 0x1e, 0x6d, 0x92, 0x3e, 0x3b, 0xa7, 0x17, 0x3e, 0x1a, 0x02, 0x36, 0xbe, 0xf2, 0x8b, 0x1d, 0x3e, 0xc3, 0x16, 0x6d, 0xbd, 0x81, 0x09, 0x7d, 0x3e, 0x4b, 0x8e, 0xc5, 0x3d, 0x9a, 0x4b, 0xdc, 0xbd, 0x70, 0xab, 0xfa, 0xbd, 0xf2, 0x49, 0xc7, 0xbd, 0xaa, 0xdf, 0x46, 0xbe, 0x68, 0x9c, 0x3f, 0xbe, 0x40, 0x5d, 0x08, 0xbd, 0x3c, 0x01, 0x75, 0xbe, 0xc0, 0x4e, 0x37, 0x3c, 0xa8, 0xc9, 0x3b, 0x3d, 0xce, 0xd2, 0x8a, 0xbe, 0xc7, 0x68, 0x90, 0xbe, 0x80, 0x93, 0x79, 0x3c, 0xc8, 0x2d, 0x67, 0xbe, 0x80, 0x92, 0x22, 0x3d, 0x20, 0x14, 0x3f, 0x3d, 0xed, 0xbe, 0x0e, 0xbe, 0x09, 0x91, 0xcb, 0xbc, 0x26, 0x82, 0x08, 0x3e, 0x47, 0x00, 0x5f, 0x3e, 0x65, 0xd1, 0x05, 0xbe, 0x20, 0xba, 0x1d, 0xbc, 0x60, 0x24, 0xbb, 0x3d, 0xa4, 0xce, 0x7a, 0x3e, 0x7a, 0x18, 0x65, 0xbe, 0xc9, 0xd1, 0x4b, 0xbe, 0xe3, 0x61, 0xa6, 0xbd, 0xe1, 0xcc, 0x86, 0xbe, 0x65, 0x48, 0x92, 0x3e, 0x56, 0x3a, 0x6e, 0xbe, 0x71, 0x74, 0xa9, 0x3d, 0x8b, 0x50, 0x8f, 0x3e, 0x48, 0x71, 0x77, 0x3e, 0xde, 0x4d, 0x08, 0xbe, 0xd4, 0xbd, 0x7c, 0x3e, 0x21, 0xaa, 0x2e, 0xbe, 0xd7, 0xee, 0x24, 0xbe, 0xfc, 0xa3, 0x39, 0xbe, 0x52, 0x2f, 0x44, 0x3e, 0x90, 0xe5, 0x7f, 0x3d, 0xa8, 0x21, 0x43, 0xbe, 0x9b, 0xeb, 0x26, 0x3e, 0xb5, 0xf2, 0x0e, 0xbe, 0x0b, 0x92, 0xd7, 0xbd, 0x29, 0x88, 0x0f, 0x3e, 0xb3, 0x90, 0x90, 0xbe, 0x8e, 0x96, 0x50, 0xbe, 0xa8, 0x65, 0x10, 0x3e, 0x24, 0x37, 0x88, 0xbe, 0x90, 0x91, 0x60, 0xbe, 0xe1, 0xd5, 0x84, 0x3e, 0x79, 0x8d, 0xa4, 0xbc, 0xba, 0xc2, 0x2d, 0x3e, 0x20, 0x68, 0x44, 0xbe, 0x06, 0x05, 0x1b, 0xbe, 0xba, 0x42, 0x41, 0xbe, 0x90, 0xfc, 0xb8, 0x3c, 0x37, 0xc8, 0x04, 0xbe, 0x53, 0x63, 0x81, 0x3d, 0x6b, 0xdd, 0xb6, 0xbd, 0x7f, 0x9d, 0xca, 0x3d, 0xcc, 0xa5, 0xb8, 0x3c, 0x22, 0xcb, 0x4f, 0xbd, 0xcb, 0x00, 0x1b, 0x3e, 0x85, 0x4d, 0xff, 0x3c, 0x5c, 0x12, 0x80, 0x3e, 0x3e, 0xd8, 0x89, 0x3e, 0x48, 0xbe, 0x7a, 0x3e, 0x8a, 0x30, 0x64, 0xbe, 0x5c, 0x9d, 0x80, 0x3d, 0x23, 0xd9, 0x37, 0xbd, 0x4b, 0xd8, 0x19, 0x3e, 0x98, 0x43, 0x56, 0x3e, 0x4b, 0x44, 0x4c, 0xbe, 0xd4, 0x85, 0x30, 0x3e, 0xca, 0x00, 0xc8, 0xbd, 0x85, 0xad, 0x8e, 0x3e, 0xb3, 0x83, 0xf6, 0x3d, 0x4a, 0x62, 0x01, 0xbd, 0x6b, 0x7e, 0x32, 0xbe, 0x4c, 0xbd, 0x84, 0x3e, 0xf8, 0xb3, 0x4f, 0x3e, 0x39, 0x3d, 0xa4, 0xbd, 0x23, 0xaf, 0x52, 0x3e, 0x82, 0xbb, 0x1d, 0x3d, 0x2b, 0x21, 0x4a, 0xbe, 0xb2, 0x35, 0x37, 0xbe, 0x00, 0x51, 0x24, 0x3c, 0x36, 0xd3, 0x6e, 0xbe, 0x1a, 0xfe, 0xff, 0xff, 0x04, 0x00, 0x00, 0x00, 0x00, 0x01, 0x00, 0x00, 0xf1, 0x55, 0x5d, 0xbc, 0x00, 0x00, 0x00, 0x00, 0x01, 0xef, 0x1b, 0xbc, 0x00, 0x00, 0x00, 0x00, 0x74, 0x9f, 0x2c, 0x3b, 0xbe, 0x8a, 0x6c, 0x3d, 0x9a, 0x15, 0x80, 0xbb, 0x00, 0x00, 0x00, 0x00, 0xf6, 0x6c, 0xef, 0xbb, 0xf7, 0x39, 0x36, 0x3b, 0xac, 0x36, 0x52, 0xbc, 0x00, 0x00, 0x00, 0x00, 0xa5, 0x46, 0x79, 0xbb, 0x00, 0x00, 0x00, 0x00, 0x00, 0x00, 0x00, 0x00, 0x00, 0x00, 0x00, 0x00, 0x00, 0x00, 0x00, 0x00, 0xbe, 0x7b, 0xd9, 0xbb, 0xad, 0xca, 0x6c, 0xbb, 0xa2, 0x01, 0x5e, 0xbc, 0xa1, 0xbb, 0x12, 0xbc, 0x5f, 0x9a, 0xa2, 0x3d, 0x00, 0x00, 0x00, 0x00, 0x3c, 0xf7, 0x7d, 0xbc, 0xae, 0x86, 0x2e, 0x3c, 0x0a, 0xa9, 0xc1, 0x39, 0xe3, 0xf9, 0xeb, 0xbb, 0xe8, 0x8e, 0x41, 0xbc, 0xe3, 0xcf, 0x66, 0xbb, 0x00, 0x00, 0x00, 0x00, 0x00, 0x00, 0x00, 0x00, 0x00, 0x00, 0x00, 0x00, 0x00, 0x00, 0x00, 0x00, 0xe4, 0x18, 0xf4, 0x3a, 0x19, 0xd6, 0xeb, 0xbb, 0xbc, 0xaa, 0xac, 0xbb, 0x66, 0x79, 0xeb, 0x3b, 0xb4, 0xbf, 0xb9, 0x3b, 0x77, 0x71, 0xab, 0xbb, 0x00, 0x00, 0x00, 0x00, 0xc1, 0x89, 0xbb, 0x3d, 0x1b, 0x65, 0xeb, 0x39, 0x00, 0x00, 0x00, 0x00, 0x00, 0x00, 0x00, 0x00, 0x00, 0x00, 0x00, 0x00, 0x00, 0x00, 0x00, 0x00, 0x3b, 0x3d, 0x30, 0x3d, 0x00, 0x00, 0x00, 0x00, 0x6c, 0xbb, 0x9c, 0x3b, 0x97, 0x60, 0x34, 0xbc, 0x00, 0x00, 0x00, 0x00, 0x00, 0x00, 0x00, 0x00, 0x67, 0x0b, 0xe3, 0x3c, 0x00, 0x00, 0x00, 0x00, 0xec, 0xa0, 0x3f, 0xbb, 0x00, 0x00, 0x00, 0x00, 0xf4, 0xc1, 0xcb, 0x3c, 0x66, 0xf8, 0x6f, 0x3a, 0x63, 0x56, 0x0d, 0xbc, 0xb7, 0x88, 0x60, 0xbc, 0xf2, 0xf3, 0x03, 0x3c, 0xef, 0x5f, 0x02, 0x3c, 0x0b, 0x89, 0x10, 0xbc, 0x00, 0x00, 0x00, 0x00, 0x26, 0xff, 0xff, 0xff, 0x04, 0x00, 0x00, 0x00, 0x80, 0x00, 0x00, 0x00, 0x00, 0x00, 0x00, 0x00, 0x00, 0x00, 0x00, 0x00, 0x00, 0x00, 0x00, 0x00, 0x84, 0xe3, 0x77, 0xbb, 0x00, 0x00, 0x00, 0x00, 0x00, 0x00, 0x00, 0x00, 0xf5, 0xb2, 0x29, 0xbc, 0xd0, 0x42, 0xf8, 0x3b, 0x27, 0x06, 0xc2, 0xbb, 0x00, 0x00, 0x00, 0x00, 0x8b, 0x6f, 0xa9, 0x3b, 0x00, 0x00, 0x00, 0x00, 0x00, 0x00, 0x00, 0x00, 0x8d, 0x94, 0x72, 0x3d, 0x00, 0x00, 0x00, 0x00, 0x50, 0xd2, 0xcf, 0x3b, 0x61, 0x37, 0xd6, 0xbb, 0x00, 0x00, 0x00, 0x00, 0x7a, 0xcc, 0xf6, 0x3b, 0x31, 0xa2, 0xe8, 0xbb, 0x93, 0x4b, 0x9d, 0xbb, 0x1f, 0xa8, 0xce, 0xbb, 0x14, 0xe5, 0xaa, 0xbb, 0x34, 0x9f, 0x47, 0xbb, 0xe5, 0x86, 0x56, 0x3e, 0xce, 0x64, 0xec, 0xba, 0x00, 0x00, 0x00, 0x00, 0x00, 0x00, 0x00, 0x00, 0x01, 0x2b, 0x8d, 0x3b, 0xd9, 0xa3, 0x36, 0xbb, 0x00, 0x00, 0x00, 0x00, 0x1f, 0x55, 0xc9, 0xbb, 0xb2, 0xff, 0xff, 0xff, 0x04, 0x00, 0x00, 0x00, 0x40, 0x00, 0x00, 0x00, 0x02, 0xb3, 0xcc, 0x3b, 0xbb, 0xf4, 0x61, 0xba, 0xee, 0x5b, 0xc5, 0x3b, 0x65, 0x9f, 0xa3, 0xbb, 0x00, 0x00, 0x00, 0x00, 0xf2, 0x3c, 0xd9, 0xbb, 0x8d, 0xc9, 0xba, 0x3b, 0x00, 0x00, 0x00, 0x00, 0x00, 0x00, 0x00, 0x00, 0x00, 0x00, 0x00, 0x00, 0x64, 0x4e, 0x55, 0xba, 0xf9, 0x6d, 0xcf, 0x3b, 0x00, 0x00, 0x00, 0x00, 0xcf, 0x12, 0xd6, 0xbb, 0x11, 0x90, 0xce, 0x3b, 0x00, 0x00, 0x00, 0x00, 0x00, 0x00, 0x06, 0x00, 0x08, 0x00, 0x04, 0x00, 0x06, 0x00, 0x00, 0x00, 0x04, 0x00, 0x00, 0x00, 0x04, 0x00, 0x00, 0x00, 0x3e, 0x6a, 0xd3, 0x3b, 0x98, 0xf9, 0xff, 0xff, 0x9c, 0xf9, 0xff, 0xff, 0x0f, 0x00, 0x00, 0x00, 0x4d, 0x4c, 0x49, 0x52, 0x20, 0x43, 0x6f, 0x6e, 0x76, 0x65, 0x72, 0x74, 0x65, 0x64, 0x2e, 0x00, 0x01, 0x00, 0x00, 0x00, 0x14, 0x00, 0x00, 0x00, 0x00, 0x00, 0x0e, 0x00, 0x18, 0x00, 0x14, 0x00, 0x10, 0x00, 0x0c, 0x00, 0x08, 0x00, 0x04, 0x00, 0x0e, 0x00, 0x00, 0x00, 0x14, 0x00, 0x00, 0x00, 0x1c, 0x00, 0x00, 0x00, 0x10, 0x01, 0x00, 0x00, 0x14, 0x01, 0x00, 0x00, 0x18, 0x01, 0x00, 0x00, 0x04, 0x00, 0x00, 0x00, 0x6d, 0x61, 0x69, 0x6e, 0x00, 0x00, 0x00, 0x00, 0x04, 0x00, 0x00, 0x00, 0xb8, 0x00, 0x00, 0x00, 0x70, 0x00, 0x00, 0x00, 0x38, 0x00, 0x00, 0x00, 0x04, 0x00, 0x00, 0x00, 0x66, 0xff, 0xff, 0xff, 0x10, 0x00, 0x00, 0x00, 0x00, 0x00, 0x00, 0x08, 0x0c, 0x00, 0x00, 0x00, 0x10, 0x00, 0x00, 0x00, 0x18, 0xfa, 0xff, 0xff, 0x01, 0x00, 0x00, 0x00, 0x0c, 0x00, 0x00, 0x00, 0x03, 0x00, 0x00, 0x00, 0x0b, 0x00, 0x00, 0x00, 0x08, 0x00, 0x00, 0x00, 0x01, 0x00, 0x00, 0x00, 0x96, 0xff, 0xff, 0xff, 0x10, 0x00, 0x00, 0x00, 0x00, 0x00, 0x00, 0x08, 0x10, 0x00, 0x00, 0x00, 0x14, 0x00, 0x00, 0x00, 0x86, 0xff, 0xff, 0xff, 0x00, 0x00, 0x00, 0x01, 0x01, 0x00, 0x00, 0x00, 0x0b, 0x00, 0x00, 0x00, 0x03, 0x00, 0x00, 0x00, 0x0a, 0x00, 0x00, 0x00, 0x07, 0x00, 0x00, 0x00, 0x02, 0x00, 0x00, 0x00, 0xca, 0xff, 0xff, 0xff, 0x10, 0x00, 0x00, 0x00, 0x00, 0x00, 0x00, 0x08, 0x10, 0x00, 0x00, 0x00, 0x14, 0x00, 0x00, 0x00, 0xba, 0xff, 0xff, 0xff, 0x00, 0x00, 0x00, 0x01, 0x01, 0x00, 0x00, 0x00, 0x0a, 0x00, 0x00, 0x00, 0x03, 0x00, 0x00, 0x00, 0x09, 0x00, 0x00, 0x00, 0x06, 0x00, 0x00, 0x00, 0x03, 0x00, 0x00, 0x00, 0x00, 0x00, 0x0e, 0x00, 0x16, 0x00, 0x00, 0x00, 0x10, 0x00, 0x0c, 0x00, 0x0b, 0x00, 0x04, 0x00, 0x0e, 0x00, 0x00, 0x00, 0x18, 0x00, 0x00, 0x00, 0x00, 0x00, 0x00, 0x08, 0x18, 0x00, 0x00, 0x00, 0x1c, 0x00, 0x00, 0x00, 0x00, 0x00, 0x06, 0x00, 0x08, 0x00, 0x07, 0x00, 0x06, 0x00, 0x00, 0x00, 0x00, 0x00, 0x00, 0x01, 0x01, 0x00, 0x00, 0x00, 0x09, 0x00, 0x00, 0x00, 0x03, 0x00, 0x00, 0x00, 0x00, 0x00, 0x00, 0x00, 0x05, 0x00, 0x00, 0x00, 0x04, 0x00, 0x00, 0x00, 0x01, 0x00, 0x00, 0x00, 0x0c, 0x00, 0x00, 0x00, 0x01, 0x00, 0x00, 0x00, 0x00, 0x00, 0x00, 0x00, 0x0d, 0x00, 0x00, 0x00, 0xdc, 0x04, 0x00, 0x00, 0x6c, 0x04, 0x00, 0x00, 0xfc, 0x03, 0x00, 0x00, 0xa4, 0x03, 0x00, 0x00, 0x4c, 0x03, 0x00, 0x00, 0x00, 0x03, 0x00, 0x00, 0xb4, 0x02, 0x00, 0x00, 0x68, 0x02, 0x00, 0x00, 0x1c, 0x02, 0x00, 0x00, 0x88, 0x01, 0x00, 0x00, 0xf4, 0x00, 0x00, 0x00, 0x60, 0x00, 0x00, 0x00, 0x04, 0x00, 0x00, 0x00, 0x6e, 0xfb, 0xff, 0xff, 0x00, 0x00, 0x00, 0x01, 0x14, 0x00, 0x00, 0x00, 0x1c, 0x00, 0x00, 0x00, 0x1c, 0x00, 0x00, 0x00, 0x0d, 0x00, 0x00, 0x00, 0x34, 0x00, 0x00, 0x00, 0x02, 0x00, 0x00, 0x00, 0xff, 0xff, 0xff, 0xff, 0x01, 0x00, 0x00, 0x00, 0x58, 0xfb, 0xff, 0xff, 0x19, 0x00, 0x00, 0x00, 0x53, 0x74, 0x61, 0x74, 0x65, 0x66, 0x75, 0x6c, 0x50, 0x61, 0x72, 0x74, 0x69, 0x74, 0x69, 0x6f, 0x6e, 0x65, 0x64, 0x43, 0x61, 0x6c, 0x6c, 0x3a, 0x30, 0x00, 0x00, 0x00, 0x02, 0x00, 0x00, 0x00, 0x01, 0x00, 0x00, 0x00, 0x01, 0x00, 0x00, 0x00, 0xc6, 0xfb, 0xff, 0xff, 0x00, 0x00, 0x00, 0x01, 0x14, 0x00, 0x00, 0x00, 0x1c, 0x00, 0x00, 0x00, 0x1c, 0x00, 0x00, 0x00, 0x0c, 0x00, 0x00, 0x00, 0x6c, 0x00, 0x00, 0x00, 0x02, 0x00, 0x00, 0x00, 0xff, 0xff, 0xff, 0xff, 0x10, 0x00, 0x00, 0x00, 0xb0, 0xfb, 0xff, 0xff, 0x52, 0x00, 0x00, 0x00, 0x73, 0x65, 0x71, 0x75, 0x65, 0x6e, 0x74, 0x69, 0x61, 0x6c, 0x5f, 0x31, 0x2f, 0x64, 0x65, 0x6e, 0x73, 0x65, 0x5f, 0x36, 0x2f, 0x4d, 0x61, 0x74, 0x4d, 0x75, 0x6c, 0x3b, 0x73, 0x65, 0x71, 0x75, 0x65, 0x6e, 0x74, 0x69, 0x61, 0x6c, 0x5f, 0x31, 0x2f, 0x64, 0x65, 0x6e, 0x73, 0x65, 0x5f, 0x36, 0x2f, 0x52, 0x65, 0x6c, 0x75, 0x3b, 0x73, 0x65, 0x71, 0x75, 0x65, 0x6e, 0x74, 0x69, 0x61, 0x6c, 0x5f, 0x31, 0x2f, 0x64, 0x65, 0x6e, 0x73, 0x65, 0x5f, 0x36, 0x2f, 0x42, 0x69, 0x61, 0x73, 0x41, 0x64, 0x64, 0x00, 0x00, 0x02, 0x00, 0x00, 0x00, 0x01, 0x00, 0x00, 0x00, 0x10, 0x00, 0x00, 0x00, 0x56, 0xfc, 0xff, 0xff, 0x00, 0x00, 0x00, 0x01, 0x14, 0x00, 0x00, 0x00, 0x1c, 0x00, 0x00, 0x00, 0x1c, 0x00, 0x00, 0x00, 0x0b, 0x00, 0x00, 0x00, 0x6c, 0x00, 0x00, 0x00, 0x02, 0x00, 0x00, 0x00, 0xff, 0xff, 0xff, 0xff, 0x20, 0x00, 0x00, 0x00, 0x40, 0xfc, 0xff, 0xff, 0x52, 0x00, 0x00, 0x00, 0x73, 0x65, 0x71, 0x75, 0x65, 0x6e, 0x74, 0x69, 0x61, 0x6c, 0x5f, 0x31, 0x2f, 0x64, 0x65, 0x6e, 0x73, 0x65, 0x5f, 0x35, 0x2f, 0x4d, 0x61, 0x74, 0x4d, 0x75, 0x6c, 0x3b, 0x73, 0x65, 0x71, 0x75, 0x65, 0x6e, 0x74, 0x69, 0x61, 0x6c, 0x5f, 0x31, 0x2f, 0x64, 0x65, 0x6e, 0x73, 0x65, 0x5f, 0x35, 0x2f, 0x52, 0x65, 0x6c, 0x75, 0x3b, 0x73, 0x65, 0x71, 0x75, 0x65, 0x6e, 0x74, 0x69, 0x61, 0x6c, 0x5f, 0x31, 0x2f, 0x64, 0x65, 0x6e, 0x73, 0x65, 0x5f, 0x35, 0x2f, 0x42, 0x69, 0x61, 0x73, 0x41, 0x64, 0x64, 0x00, 0x00, 0x02, 0x00, 0x00, 0x00, 0x01, 0x00, 0x00, 0x00, 0x20, 0x00, 0x00, 0x00, 0xe6, 0xfc, 0xff, 0xff, 0x00, 0x00, 0x00, 0x01, 0x14, 0x00, 0x00, 0x00, 0x1c, 0x00, 0x00, 0x00, 0x1c, 0x00, 0x00, 0x00, 0x0a, 0x00, 0x00, 0x00, 0x6c, 0x00, 0x00, 0x00, 0x02, 0x00, 0x00, 0x00, 0xff, 0xff, 0xff, 0xff, 0x40, 0x00, 0x00, 0x00, 0xd0, 0xfc, 0xff, 0xff, 0x52, 0x00, 0x00, 0x00, 0x73, 0x65, 0x71, 0x75, 0x65, 0x6e, 0x74, 0x69, 0x61, 0x6c, 0x5f, 0x31, 0x2f, 0x64, 0x65, 0x6e, 0x73, 0x65, 0x5f, 0x34, 0x2f, 0x4d, 0x61, 0x74, 0x4d, 0x75, 0x6c, 0x3b, 0x73, 0x65, 0x71, 0x75, 0x65, 0x6e, 0x74, 0x69, 0x61, 0x6c, 0x5f, 0x31, 0x2f, 0x64, 0x65, 0x6e, 0x73, 0x65, 0x5f, 0x34, 0x2f, 0x52, 0x65, 0x6c, 0x75, 0x3b, 0x73, 0x65, 0x71, 0x75, 0x65, 0x6e, 0x74, 0x69, 0x61, 0x6c, 0x5f, 0x31, 0x2f, 0x64, 0x65, 0x6e, 0x73, 0x65, 0x5f, 0x34, 0x2f, 0x42, 0x69, 0x61, 0x73, 0x41, 0x64, 0x64, 0x00, 0x00, 0x02, 0x00, 0x00, 0x00, 0x01, 0x00, 0x00, 0x00, 0x40, 0x00, 0x00, 0x00, 0xe2, 0xfd, 0xff, 0xff, 0x00, 0x00, 0x00, 0x01, 0x10, 0x00, 0x00, 0x00, 0x10, 0x00, 0x00, 0x00, 0x09, 0x00, 0x00, 0x00, 0x28, 0x00, 0x00, 0x00, 0x50, 0xfd, 0xff, 0xff, 0x1b, 0x00, 0x00, 0x00, 0x73, 0x65, 0x71, 0x75, 0x65, 0x6e, 0x74, 0x69, 0x61, 0x6c, 0x5f, 0x31, 0x2f, 0x64, 0x65, 0x6e, 0x73, 0x65, 0x5f, 0x37, 0x2f, 0x4d, 0x61, 0x74, 0x4d, 0x75, 0x6c, 0x00, 0x02, 0x00, 0x00, 0x00, 0x01, 0x00, 0x00, 0x00, 0x10, 0x00, 0x00, 0x00, 0x2a, 0xfe, 0xff, 0xff, 0x00, 0x00, 0x00, 0x01, 0x10, 0x00, 0x00, 0x00, 0x10, 0x00, 0x00, 0x00, 0x08, 0x00, 0x00, 0x00, 0x28, 0x00, 0x00, 0x00, 0x98, 0xfd, 0xff, 0xff, 0x1b, 0x00, 0x00, 0x00, 0x73, 0x65, 0x71, 0x75, 0x65, 0x6e, 0x74, 0x69, 0x61, 0x6c, 0x5f, 0x31, 0x2f, 0x64, 0x65, 0x6e, 0x73, 0x65, 0x5f, 0x36, 0x2f, 0x4d, 0x61, 0x74, 0x4d, 0x75, 0x6c, 0x00, 0x02, 0x00, 0x00, 0x00, 0x10, 0x00, 0x00, 0x00, 0x20, 0x00, 0x00, 0x00, 0x72, 0xfe, 0xff, 0xff, 0x00, 0x00, 0x00, 0x01, 0x10, 0x00, 0x00, 0x00, 0x10, 0x00, 0x00, 0x00, 0x07, 0x00, 0x00, 0x00, 0x28, 0x00, 0x00, 0x00, 0xe0, 0xfd, 0xff, 0xff, 0x1b, 0x00, 0x00, 0x00, 0x73, 0x65, 0x71, 0x75, 0x65, 0x6e, 0x74, 0x69, 0x61, 0x6c, 0x5f, 0x31, 0x2f, 0x64, 0x65, 0x6e, 0x73, 0x65, 0x5f, 0x35, 0x2f, 0x4d, 0x61, 0x74, 0x4d, 0x75, 0x6c, 0x00, 0x02, 0x00, 0x00, 0x00, 0x20, 0x00, 0x00, 0x00, 0x40, 0x00, 0x00, 0x00, 0xba, 0xfe, 0xff, 0xff, 0x00, 0x00, 0x00, 0x01, 0x10, 0x00, 0x00, 0x00, 0x10, 0x00, 0x00, 0x00, 0x06, 0x00, 0x00, 0x00, 0x28, 0x00, 0x00, 0x00, 0x28, 0xfe, 0xff, 0xff, 0x1b, 0x00, 0x00, 0x00, 0x73, 0x65, 0x71, 0x75, 0x65, 0x6e, 0x74, 0x69, 0x61, 0x6c, 0x5f, 0x31, 0x2f, 0x64, 0x65, 0x6e, 0x73, 0x65, 0x5f, 0x34, 0x2f, 0x4d, 0x61, 0x74, 0x4d, 0x75, 0x6c, 0x00, 0x02, 0x00, 0x00, 0x00, 0x40, 0x00, 0x00, 0x00, 0x04, 0x00, 0x00, 0x00, 0x02, 0xff, 0xff, 0xff, 0x00, 0x00, 0x00, 0x01, 0x10, 0x00, 0x00, 0x00, 0x10, 0x00, 0x00, 0x00, 0x05, 0x00, 0x00, 0x00, 0x38, 0x00, 0x00, 0x00, 0x70, 0xfe, 0xff, 0xff, 0x2b, 0x00, 0x00, 0x00, 0x73, 0x65, 0x71, 0x75, 0x65, 0x6e, 0x74, 0x69, 0x61, 0x6c, 0x5f, 0x31, 0x2f, 0x64, 0x65, 0x6e, 0x73, 0x65, 0x5f, 0x34, 0x2f, 0x42, 0x69, 0x61, 0x73, 0x41, 0x64, 0x64, 0x2f, 0x52, 0x65, 0x61, 0x64, 0x56, 0x61, 0x72, 0x69, 0x61, 0x62, 0x6c, 0x65, 0x4f, 0x70, 0x00, 0x01, 0x00, 0x00, 0x00, 0x40, 0x00, 0x00, 0x00, 0x56, 0xff, 0xff, 0xff, 0x00, 0x00, 0x00, 0x01, 0x10, 0x00, 0x00, 0x00, 0x10, 0x00, 0x00, 0x00, 0x04, 0x00, 0x00, 0x00, 0x38, 0x00, 0x00, 0x00, 0xc4, 0xfe, 0xff, 0xff, 0x2b, 0x00, 0x00, 0x00, 0x73, 0x65, 0x71, 0x75, 0x65, 0x6e, 0x74, 0x69, 0x61, 0x6c, 0x5f, 0x31, 0x2f, 0x64, 0x65, 0x6e, 0x73, 0x65, 0x5f, 0x35, 0x2f, 0x42, 0x69, 0x61, 0x73, 0x41, 0x64, 0x64, 0x2f, 0x52, 0x65, 0x61, 0x64, 0x56, 0x61, 0x72, 0x69, 0x61, 0x62, 0x6c, 0x65, 0x4f, 0x70, 0x00, 0x01, 0x00, 0x00, 0x00, 0x20, 0x00, 0x00, 0x00, 0xaa, 0xff, 0xff, 0xff, 0x00, 0x00, 0x00, 0x01, 0x10, 0x00, 0x00, 0x00, 0x10, 0x00, 0x00, 0x00, 0x03, 0x00, 0x00, 0x00, 0x38, 0x00, 0x00, 0x00, 0x18, 0xff, 0xff, 0xff, 0x2b, 0x00, 0x00, 0x00, 0x73, 0x65, 0x71, 0x75, 0x65, 0x6e, 0x74, 0x69, 0x61, 0x6c, 0x5f, 0x31, 0x2f, 0x64, 0x65, 0x6e, 0x73, 0x65, 0x5f, 0x36, 0x2f, 0x42, 0x69, 0x61, 0x73, 0x41, 0x64, 0x64, 0x2f, 0x52, 0x65, 0x61, 0x64, 0x56, 0x61, 0x72, 0x69, 0x61, 0x62, 0x6c, 0x65, 0x4f, 0x70, 0x00, 0x01, 0x00, 0x00, 0x00, 0x10, 0x00, 0x00, 0x00, 0x00, 0x00, 0x16, 0x00, 0x18, 0x00, 0x14, 0x00, 0x00, 0x00, 0x10, 0x00, 0x0c, 0x00, 0x08, 0x00, 0x00, 0x00, 0x00, 0x00, 0x00, 0x00, 0x07, 0x00, 0x16, 0x00, 0x00, 0x00, 0x00, 0x00, 0x00, 0x01, 0x10, 0x00, 0x00, 0x00, 0x10, 0x00, 0x00, 0x00, 0x02, 0x00, 0x00, 0x00, 0x38, 0x00, 0x00, 0x00, 0x84, 0xff, 0xff, 0xff, 0x2b, 0x00, 0x00, 0x00, 0x73, 0x65, 0x71, 0x75, 0x65, 0x6e, 0x74, 0x69, 0x61, 0x6c, 0x5f, 0x31, 0x2f, 0x64, 0x65, 0x6e, 0x73, 0x65, 0x5f, 0x37, 0x2f, 0x42, 0x69, 0x61, 0x73, 0x41, 0x64, 0x64, 0x2f, 0x52, 0x65, 0x61, 0x64, 0x56, 0x61, 0x72, 0x69, 0x61, 0x62, 0x6c, 0x65, 0x4f, 0x70, 0x00, 0x01, 0x00, 0x00, 0x00, 0x01, 0x00, 0x00, 0x00, 0x00, 0x00, 0x16, 0x00, 0x1c, 0x00, 0x18, 0x00, 0x00, 0x00, 0x14, 0x00, 0x10, 0x00, 0x0c, 0x00, 0x00, 0x00, 0x00, 0x00, 0x08, 0x00, 0x07, 0x00, 0x16, 0x00, 0x00, 0x00, 0x00, 0x00, 0x00, 0x01, 0x14, 0x00, 0x00, 0x00, 0x20, 0x00, 0x00, 0x00, 0x20, 0x00, 0x00, 0x00, 0x01, 0x00, 0x00, 0x00, 0x38, 0x00, 0x00, 0x00, 0x02, 0x00, 0x00, 0x00, 0xff, 0xff, 0xff, 0xff, 0x04, 0x00, 0x00, 0x00, 0x04, 0x00, 0x04, 0x00, 0x04, 0x00, 0x00, 0x00, 0x19, 0x00, 0x00, 0x00, 0x73, 0x65, 0x72, 0x76, 0x69, 0x6e, 0x67, 0x5f, 0x64, 0x65, 0x66, 0x61, 0x75, 0x6c, 0x74, 0x5f, 0x69, 0x6e, 0x70, 0x75, 0x74, 0x5f, 0x32, 0x3a, 0x30, 0x00, 0x00, 0x00, 0x02, 0x00, 0x00, 0x00, 0x01, 0x00, 0x00, 0x00, 0x04, 0x00, 0x00, 0x00, 0x01, 0x00, 0x00, 0x00, 0x10, 0x00, 0x00, 0x00, 0x0c, 0x00, 0x0c, 0x00, 0x0b, 0x00, 0x00, 0x00, 0x00, 0x00, 0x04, 0x00, 0x0c, 0x00, 0x00, 0x00, 0x09, 0x00, 0x00, 0x00, 0x00, 0x00, 0x00, 0x09 };
