
#pragma once

#ifdef __has_attribute
#define HAVE_ATTRIBUTE(x) __has_attribute(x)
#else
#define HAVE_ATTRIBUTE(x) 0
#endif
#if HAVE_ATTRIBUTE(aligned) || (defined(__GNUC__) && !defined(__clang__))
#define DATA_ALIGN_ATTRIBUTE __attribute__((aligned(4)))
#else
#define DATA_ALIGN_ATTRIBUTE
#endif

// automatically configure network
#define TF_NUM_INPUTS 4
#define TF_NUM_OUTPUTS 1
#define TF_NUM_OPS 2

/**
 * Call this function to register the ops
 * that have been detected
 */
template<class TF>
void registerNetworkOps(TF& nn) {
    nn.resolver.AddFullyConnected();
    nn.resolver.AddSoftmax();
    
}




// model data
const unsigned char tfModel[14108] DATA_ALIGN_ATTRIBUTE = { 0x1c, 0x00, 0x00, 0x00, 0x54, 0x46, 0x4c, 0x33, 0x14, 0x00, 0x20, 0x00, 0x1c, 0x00, 0x18, 0x00, 0x14, 0x00, 0x10, 0x00, 0x0c, 0x00, 0x00, 0x00, 0x08, 0x00, 0x04, 0x00, 0x14, 0x00, 0x00, 0x00, 0x1c, 0x00, 0x00, 0x00, 0x90, 0x00, 0x00, 0x00, 0xe8, 0x00, 0x00, 0x00, 0x28, 0x30, 0x00, 0x00, 0x38, 0x30, 0x00, 0x00, 0xc8, 0x36, 0x00, 0x00, 0x03, 0x00, 0x00, 0x00, 0x01, 0x00, 0x00, 0x00, 0x10, 0x00, 0x00, 0x00, 0x00, 0x00, 0x0a, 0x00, 0x10, 0x00, 0x0c, 0x00, 0x08, 0x00, 0x04, 0x00, 0x0a, 0x00, 0x00, 0x00, 0x0c, 0x00, 0x00, 0x00, 0x1c, 0x00, 0x00, 0x00, 0x3c, 0x00, 0x00, 0x00, 0x0f, 0x00, 0x00, 0x00, 0x73, 0x65, 0x72, 0x76, 0x69, 0x6e, 0x67, 0x5f, 0x64, 0x65, 0x66, 0x61, 0x75, 0x6c, 0x74, 0x00, 0x01, 0x00, 0x00, 0x00, 0x04, 0x00, 0x00, 0x00, 0x98, 0xff, 0xff, 0xff, 0x0c, 0x00, 0x00, 0x00, 0x04, 0x00, 0x00, 0x00, 0x08, 0x00, 0x00, 0x00, 0x64, 0x65, 0x6e, 0x73, 0x65, 0x5f, 0x31, 0x31, 0x00, 0x00, 0x00, 0x00, 0x01, 0x00, 0x00, 0x00, 0x04, 0x00, 0x00, 0x00, 0xe6, 0xd0, 0xff, 0xff, 0x04, 0x00, 0x00, 0x00, 0x07, 0x00, 0x00, 0x00, 0x69, 0x6e, 0x70, 0x75, 0x74, 0x5f, 0x32, 0x00, 0x02, 0x00, 0x00, 0x00, 0x34, 0x00, 0x00, 0x00, 0x04, 0x00, 0x00, 0x00, 0xdc, 0xff, 0xff, 0xff, 0x0f, 0x00, 0x00, 0x00, 0x04, 0x00, 0x00, 0x00, 0x13, 0x00, 0x00, 0x00, 0x43, 0x4f, 0x4e, 0x56, 0x45, 0x52, 0x53, 0x49, 0x4f, 0x4e, 0x5f, 0x4d, 0x45, 0x54, 0x41, 0x44, 0x41, 0x54, 0x41, 0x00, 0x08, 0x00, 0x0c, 0x00, 0x08, 0x00, 0x04, 0x00, 0x08, 0x00, 0x00, 0x00, 0x0e, 0x00, 0x00, 0x00, 0x04, 0x00, 0x00, 0x00, 0x13, 0x00, 0x00, 0x00, 0x6d, 0x69, 0x6e, 0x5f, 0x72, 0x75, 0x6e, 0x74, 0x69, 0x6d, 0x65, 0x5f, 0x76, 0x65, 0x72, 0x73, 0x69, 0x6f, 0x6e, 0x00, 0x10, 0x00, 0x00, 0x00, 0x3c, 0x2f, 0x00, 0x00, 0x34, 0x2f, 0x00, 0x00, 0xa4, 0x2e, 0x00, 0x00, 0x4c, 0x2e, 0x00, 0x00, 0x38, 0x2e, 0x00, 0x00, 0x28, 0x2d, 0x00, 0x00, 0x18, 0x29, 0x00, 0x00, 0x08, 0x09, 0x00, 0x00, 0xf8, 0x00, 0x00, 0x00, 0xa8, 0x00, 0x00, 0x00, 0xa0, 0x00, 0x00, 0x00, 0x98, 0x00, 0x00, 0x00, 0x90, 0x00, 0x00, 0x00, 0x88, 0x00, 0x00, 0x00, 0x68, 0x00, 0x00, 0x00, 0x04, 0x00, 0x00, 0x00, 0x9a, 0xd1, 0xff, 0xff, 0x04, 0x00, 0x00, 0x00, 0x54, 0x00, 0x00, 0x00, 0x0c, 0x00, 0x00, 0x00, 0x08, 0x00, 0x0e, 0x00, 0x08, 0x00, 0x04, 0x00, 0x08, 0x00, 0x00, 0x00, 0x10, 0x00, 0x00, 0x00, 0x24, 0x00, 0x00, 0x00, 0x00, 0x00, 0x06, 0x00, 0x08, 0x00, 0x04, 0x00, 0x06, 0x00, 0x00, 0x00, 0x04, 0x00, 0x00, 0x00, 0x00, 0x00, 0x00, 0x00, 0x00, 0x00, 0x0a, 0x00, 0x10, 0x00, 0x0c, 0x00, 0x08, 0x00, 0x04, 0x00, 0x0a, 0x00, 0x00, 0x00, 0x02, 0x00, 0x00, 0x00, 0x02, 0x00, 0x00, 0x00, 0x04, 0x00, 0x00, 0x00, 0x06, 0x00, 0x00, 0x00, 0x32, 0x2e, 0x31, 0x35, 0x2e, 0x31, 0x00, 0x00, 0xfa, 0xd1, 0xff, 0xff, 0x04, 0x00, 0x00, 0x00, 0x10, 0x00, 0x00, 0x00, 0x31, 0x2e, 0x35, 0x2e, 0x30, 0x00, 0x00, 0x00, 0x00, 0x00, 0x00, 0x00, 0x00, 0x00, 0x00, 0x00, 0x08, 0xcb, 0xff, 0xff, 0x0c, 0xcb, 0xff, 0xff, 0x10, 0xcb, 0xff, 0xff, 0x14, 0xcb, 0xff, 0xff, 0x26, 0xd2, 0xff, 0xff, 0x04, 0x00, 0x00, 0x00, 0x40, 0x00, 0x00, 0x00, 0xd0, 0xef, 0xfe, 0x3d, 0x83, 0x32, 0x27, 0x3d, 0x81, 0xcd, 0x0d, 0xbf, 0x0c, 0xa6, 0x59, 0xbe, 0xb0, 0x53, 0x17, 0xbe, 0x03, 0x6f, 0xa4, 0xbe, 0x08, 0xf1, 0xdf, 0x3d, 0xbb, 0xd8, 0x03, 0xbf, 0xac, 0x9e, 0x60, 0xbe, 0x00, 0xba, 0xfa, 0x3d, 0x9d, 0xf8, 0x8d, 0xbe, 0x1c, 0x8c, 0xf1, 0x3e, 0xcb, 0xb4, 0x22, 0xbd, 0xc8, 0x92, 0x67, 0xbd, 0xde, 0xfe, 0x83, 0xbe, 0xdf, 0x0e, 0x1a, 0x3e, 0x72, 0xd2, 0xff, 0xff, 0x04, 0x00, 0x00, 0x00, 0x00, 0x08, 0x00, 0x00, 0x8c, 0xa9, 0x4f, 0xbe, 0x46, 0x77, 0x68, 0x3e, 0x1f, 0x13, 0x77, 0x3e, 0x9c, 0xca, 0xa7, 0x3d, 0xbe, 0x33, 0x31, 0xbe, 0x59, 0xfb, 0x33, 0x3e, 0x03, 0x9a, 0x3e, 0xbe, 0xf0, 0xcc, 0xec, 0x3e, 0xb7, 0xab, 0x92, 0xbe, 0x7f, 0xb1, 0xaf, 0x3e, 0x0c, 0x2b, 0xff, 0x3d, 0xba, 0x54, 0x4d, 0x3e, 0x46, 0x66, 0x2a, 0x3e, 0x36, 0x58, 0xf9, 0x3d, 0xba, 0xf7, 0x79, 0xbe, 0x93, 0x9d, 0x31, 0xbe, 0xde, 0xce, 0x87, 0x3e, 0x89, 0x01, 0x5f, 0x3c, 0x02, 0x38, 0x95, 0xbe, 0xcd, 0x82, 0xa9, 0x3e, 0x6d, 0x6a, 0x85, 0x3e, 0x60, 0xdc, 0x7f, 0x3c, 0x2b, 0x0e, 0xd4, 0x3d, 0xf0, 0x39, 0x9b, 0x3d, 0xe0, 0x5a, 0x95, 0xbc, 0x22, 0x46, 0x1d, 0x3e, 0x08, 0x70, 0x4a, 0x3d, 0x65, 0x28, 0x1e, 0xbe, 0x79, 0x01, 0x18, 0x3e, 0x73, 0xb6, 0x93, 0xbe, 0x8a, 0x11, 0x56, 0xbe, 0xdd, 0x84, 0xb4, 0x3e, 0x4d, 0x79, 0x1e, 0xbe, 0xa0, 0x83, 0x94, 0xbd, 0x3e, 0xf4, 0x20, 0x3e, 0xd0, 0xd9, 0x13, 0xbe, 0xd0, 0x6b, 0x1d, 0xbe, 0xe9, 0x72, 0x83, 0xbe, 0x8e, 0xad, 0x18, 0x3e, 0x79, 0x53, 0xe0, 0xbd, 0x66, 0x43, 0x12, 0xbe, 0x9b, 0xf2, 0x5f, 0xbe, 0x88, 0xfc, 0x91, 0x3d, 0xdb, 0x46, 0x65, 0x3d, 0x80, 0xa6, 0x36, 0xbd, 0x85, 0xc0, 0x81, 0xbe, 0xf8, 0x21, 0x86, 0x3d, 0xd5, 0x8e, 0x31, 0xbe, 0xdf, 0x32, 0x24, 0xbe, 0x53, 0x8a, 0xba, 0x3e, 0x56, 0x49, 0xad, 0xbe, 0xc0, 0x93, 0x02, 0xbc, 0x2e, 0xc9, 0x52, 0x3e, 0x55, 0xde, 0x19, 0xbe, 0xb0, 0x3c, 0x9c, 0xbe, 0x53, 0xdd, 0x37, 0x3e, 0x96, 0xe2, 0x3a, 0x3e, 0x18, 0x40, 0x0b, 0x3d, 0xc8, 0xf1, 0x25, 0xbe, 0xd9, 0x3a, 0x38, 0x3b, 0xf5, 0xd5, 0x5f, 0x3d, 0x14, 0x6e, 0xfc, 0x3d, 0xad, 0x16, 0x34, 0x3e, 0x58, 0x51, 0xb0, 0xbe, 0xa0, 0x66, 0x84, 0x3d, 0x4e, 0xfd, 0x65, 0x3e, 0x22, 0x40, 0x40, 0xbe, 0x3c, 0x06, 0xcf, 0xbd, 0x50, 0x70, 0x8d, 0xbc, 0x2a, 0x6f, 0x25, 0x3e, 0xab, 0xa1, 0xaa, 0x3e, 0xef, 0xd4, 0x9a, 0x3e, 0xf0, 0x83, 0x6d, 0xbd, 0xa0, 0x60, 0xdf, 0x3c, 0xe8, 0xa2, 0x06, 0x3e, 0x13, 0x72, 0x59, 0xbe, 0x03, 0x94, 0xb2, 0x3e, 0x3b, 0xdd, 0xa5, 0xbe, 0xbc, 0xf5, 0x7a, 0xbe, 0x7f, 0xad, 0xa0, 0x3e, 0xd5, 0xe3, 0x3b, 0xbe, 0x90, 0x99, 0x9a, 0x3d, 0xc4, 0xfd, 0xf7, 0xbd, 0x1a, 0x84, 0xf7, 0xbd, 0xff, 0x23, 0xa2, 0xbe, 0x62, 0x43, 0x2e, 0x3e, 0xb3, 0x6f, 0xad, 0xbe, 0xa2, 0x65, 0x4d, 0x3e, 0x38, 0x14, 0x09, 0xbd, 0x80, 0xd5, 0x83, 0x3d, 0x75, 0xcf, 0xab, 0x3e, 0x56, 0x1c, 0x05, 0xbe, 0xf4, 0xd7, 0x9c, 0xbd, 0xd7, 0xe3, 0x8c, 0x3e, 0xdf, 0x86, 0xa6, 0xbe, 0x52, 0xd7, 0x41, 0x3e, 0xeb, 0xf9, 0x31, 0xbe, 0x5d, 0x3b, 0x1a, 0xbe, 0xae, 0x9f, 0x76, 0xbd, 0xd4, 0x54, 0xfa, 0x3d, 0x00, 0xd7, 0xb9, 0xbe, 0x2c, 0xe8, 0x97, 0x3d, 0xac, 0x4f, 0x9e, 0xbe, 0x79, 0xf0, 0x80, 0xbe, 0x17, 0xb6, 0xcf, 0xbc, 0x20, 0x70, 0xd5, 0x3d, 0xbd, 0x50, 0x92, 0xbe, 0x64, 0x33, 0x4f, 0x3e, 0x61, 0xf0, 0x85, 0x3e, 0x6c, 0x1b, 0x8b, 0xbd, 0x85, 0xd4, 0x89, 0xbd, 0xa0, 0x2d, 0x36, 0x3c, 0x2c, 0xa8, 0x9b, 0x3b, 0xb6, 0x71, 0x72, 0xbb, 0xc0, 0xbd, 0x05, 0x3c, 0xef, 0xee, 0x81, 0xbe, 0x0c, 0xf2, 0xd7, 0xbd, 0x08, 0xe4, 0x22, 0xbd, 0x5c, 0xf5, 0xac, 0xbe, 0x62, 0x6c, 0x31, 0xbe, 0x4c, 0x13, 0xc1, 0x3d, 0x0e, 0xf0, 0x27, 0x3e, 0xd3, 0x01, 0xae, 0x3e, 0xca, 0xf8, 0x4d, 0x3e, 0xc8, 0x90, 0xa2, 0xbe, 0x47, 0x64, 0x86, 0xbe, 0x90, 0xde, 0x0f, 0x3d, 0xac, 0xf2, 0xef, 0x3d, 0x36, 0xe8, 0x25, 0x3e, 0xc5, 0xcc, 0x89, 0x3e, 0x21, 0xe6, 0x25, 0xbd, 0x73, 0x74, 0xb3, 0xbe, 0xc8, 0x29, 0xb1, 0xbe, 0xc4, 0x13, 0xdf, 0x3d, 0x66, 0xc4, 0x7c, 0xbe, 0x6c, 0x30, 0x0c, 0xbe, 0x5b, 0x1d, 0x4e, 0x3d, 0xbc, 0x06, 0xbb, 0xbd, 0x62, 0x20, 0x04, 0x3e, 0xbe, 0xf8, 0x92, 0x3c, 0xf5, 0x43, 0x9a, 0x3e, 0x72, 0xd2, 0xb7, 0x3c, 0x31, 0xa7, 0xc7, 0x3d, 0x5a, 0x22, 0xfa, 0xbd, 0x12, 0xd3, 0x7a, 0xbe, 0xe2, 0x67, 0x99, 0xbd, 0x38, 0x18, 0x02, 0x3e, 0x54, 0x39, 0xc0, 0xbd, 0x38, 0x80, 0x40, 0xbd, 0xe0, 0xef, 0x20, 0x3c, 0xc1, 0xb9, 0x38, 0x3e, 0xa9, 0x39, 0x01, 0xbe, 0x60, 0x5d, 0x76, 0x3c, 0xcb, 0x10, 0x57, 0xbe, 0x44, 0xee, 0x47, 0xbe, 0x6d, 0x90, 0x96, 0x3e, 0x30, 0xff, 0x9f, 0x3b, 0xd4, 0x25, 0x08, 0xbe, 0x9e, 0x09, 0xd7, 0x3d, 0x92, 0xdb, 0x37, 0x3e, 0xbb, 0xc3, 0x8e, 0x3e, 0xdc, 0x8b, 0xeb, 0xbd, 0x31, 0x43, 0x79, 0x3e, 0x7f, 0xe0, 0x89, 0x3e, 0xcc, 0xce, 0x9d, 0xbd, 0xa6, 0xb8, 0x93, 0xbe, 0x40, 0x0e, 0x9a, 0x3b, 0x9f, 0x7d, 0x92, 0x3d, 0xdd, 0x59, 0x1c, 0xbf, 0x81, 0x56, 0xa1, 0x3e, 0x18, 0x02, 0x7d, 0xbd, 0x37, 0xb6, 0x88, 0x3e, 0xec, 0x20, 0xa7, 0xbe, 0x8c, 0x55, 0xa4, 0x3e, 0xfa, 0xc8, 0x18, 0x3e, 0x19, 0xea, 0xa8, 0x3e, 0xa7, 0x80, 0xf5, 0x3d, 0x14, 0xa5, 0x9c, 0xbe, 0xee, 0x96, 0x3d, 0x3e, 0xa0, 0x7c, 0x2b, 0x3d, 0x77, 0x3a, 0xa6, 0x3e, 0xb8, 0x96, 0x8c, 0xbe, 0xb8, 0x84, 0x50, 0xbe, 0xe8, 0xd9, 0x04, 0xbe, 0xd1, 0xb3, 0x0d, 0xbe, 0xb5, 0xfd, 0x59, 0xbe, 0x24, 0xad, 0x89, 0xbe, 0x0c, 0x9b, 0x47, 0x3e, 0xc7, 0x26, 0x56, 0x3e, 0xb3, 0xb3, 0x85, 0xbe, 0x20, 0x16, 0x5c, 0xbe, 0x84, 0xbf, 0x24, 0xbe, 0xcb, 0x1a, 0x9e, 0x3e, 0xcd, 0xff, 0xad, 0x3e, 0x25, 0x03, 0xad, 0x3e, 0x84, 0xf3, 0x81, 0xbd, 0x95, 0x60, 0x92, 0x3e, 0xf3, 0xe0, 0x0b, 0xbe, 0xe3, 0x0d, 0x87, 0x3e, 0x50, 0xa2, 0x9f, 0xbd, 0xa8, 0xa6, 0x03, 0xbd, 0x22, 0xec, 0x6b, 0x3e, 0x98, 0xd2, 0x67, 0xbd, 0x02, 0x28, 0x8f, 0xbe, 0xe1, 0x23, 0xa3, 0x3e, 0x80, 0x2f, 0x0a, 0xbc, 0xfa, 0x24, 0x66, 0xbe, 0x38, 0x3d, 0x2d, 0xbd, 0x00, 0xd2, 0x0f, 0xbc, 0x00, 0x98, 0xb6, 0x3b, 0x2c, 0xc9, 0xab, 0x3d, 0x25, 0x3d, 0x24, 0xbe, 0x88, 0x08, 0xe7, 0xbd, 0xc0, 0xbc, 0x14, 0x3e, 0x4c, 0x21, 0xae, 0x3d, 0x28, 0xe4, 0xb4, 0xbd, 0x87, 0xf2, 0xb2, 0x3e, 0xe2, 0x9d, 0x5f, 0x3e, 0x88, 0xac, 0x22, 0xbd, 0x00, 0xe1, 0x9a, 0x3b, 0x30, 0x49, 0xe9, 0xbc, 0x70, 0x60, 0xfc, 0xbd, 0x6e, 0x50, 0xa5, 0xbe, 0xe4, 0x66, 0x81, 0xbd, 0x2e, 0x3f, 0x51, 0x3e, 0x60, 0x72, 0x9b, 0x3d, 0x14, 0xdc, 0x5d, 0x3c, 0x3f, 0x90, 0x88, 0x3e, 0x21, 0x11, 0xcc, 0xba, 0xa4, 0x49, 0xc5, 0x3d, 0xb8, 0x34, 0xf1, 0x3d, 0x23, 0x2c, 0x81, 0x3e, 0xb4, 0x13, 0xbf, 0x3e, 0xe0, 0x3a, 0x2b, 0xbe, 0xcf, 0xc2, 0x8f, 0x3e, 0xd8, 0x00, 0x1d, 0xbd, 0x12, 0xc0, 0xa4, 0xbe, 0x40, 0x7d, 0x7e, 0xbe, 0x6d, 0x92, 0x17, 0x3e, 0x75, 0x9a, 0xb1, 0x3e, 0xa4, 0x50, 0xe9, 0xbd, 0x0b, 0x16, 0x3b, 0x3e, 0x50, 0xa9, 0xe7, 0xbd, 0x70, 0xa6, 0x9b, 0xbe, 0xb2, 0xa0, 0xf2, 0x3d, 0x56, 0xef, 0x5a, 0xbe, 0x76, 0x88, 0x87, 0x3e, 0xf3, 0xdf, 0x19, 0x3e, 0xac, 0x97, 0x9d, 0x3d, 0x14, 0xd8, 0xdd, 0x3d, 0x4a, 0xf5, 0x15, 0xbe, 0x43, 0xb8, 0xa8, 0xbd, 0x85, 0x31, 0x45, 0x3e, 0x8f, 0x9f, 0x40, 0x3e, 0xeb, 0x60, 0xb1, 0x3d, 0x2a, 0x16, 0x63, 0xbe, 0x40, 0x94, 0x72, 0x3d, 0xb4, 0x37, 0xcb, 0x3d, 0xcf, 0xdc, 0xde, 0x3d, 0x03, 0xc1, 0x47, 0xbe, 0x49, 0x0a, 0x12, 0x3e, 0x74, 0x09, 0x71, 0x3e, 0xe1, 0x38, 0xb2, 0x3e, 0x30, 0xe5, 0xa8, 0x3e, 0xf6, 0x6b, 0xbd, 0x3d, 0xfa, 0x61, 0x43, 0x3e, 0xf0, 0x35, 0xf5, 0xbc, 0xd6, 0x4a, 0xac, 0xbe, 0x32, 0x48, 0x92, 0xbe, 0x6f, 0xb7, 0x5b, 0xbe, 0x03, 0x87, 0x87, 0x3e, 0x5c, 0xee, 0x2d, 0xbe, 0xab, 0x16, 0x96, 0xbd, 0x54, 0xd7, 0x6c, 0xbe, 0xd6, 0x00, 0xe4, 0xbd, 0x88, 0x80, 0x97, 0xbe, 0x26, 0x7b, 0x43, 0x3e, 0xfc, 0x16, 0xa8, 0xbd, 0x3f, 0x1e, 0x47, 0xbe, 0xbb, 0xd5, 0x41, 0xbd, 0x00, 0x30, 0xd1, 0xbb, 0x40, 0x73, 0x69, 0xbc, 0xdc, 0xe3, 0xc7, 0x3d, 0xbe, 0x10, 0x5f, 0x3e, 0xa8, 0x84, 0xe2, 0x3d, 0x21, 0x24, 0x1c, 0x3e, 0xf8, 0x4c, 0x1d, 0x3e, 0x8f, 0x4a, 0x06, 0xbe, 0x01, 0x91, 0xa5, 0x3e, 0x40, 0x61, 0x9a, 0xbc, 0xba, 0x43, 0x5b, 0xbe, 0x30, 0x05, 0x80, 0x3c, 0x50, 0x31, 0x95, 0xbe, 0xa0, 0x3e, 0x74, 0xbc, 0xd8, 0x2f, 0x85, 0x3d, 0xe0, 0x0b, 0xa7, 0x3c, 0x38, 0x3f, 0xa4, 0xbe, 0x33, 0xcb, 0x36, 0xbe, 0x20, 0x10, 0x9f, 0xbe, 0x8d, 0xc6, 0x44, 0xbe, 0xb4, 0xf7, 0x94, 0xbe, 0xe2, 0x15, 0x48, 0x3e, 0x58, 0x15, 0x40, 0xbd, 0x62, 0x5b, 0xe1, 0xbd, 0x30, 0x01, 0x32, 0xbe, 0x65, 0xac, 0x69, 0xbe, 0x28, 0x91, 0xa8, 0xbe, 0xb8, 0x83, 0x1a, 0xbd, 0x3b, 0x48, 0x9e, 0x3e, 0x43, 0xe2, 0x9a, 0xbe, 0x32, 0x9b, 0x2f, 0x3e, 0x81, 0x3c, 0x95, 0xbe, 0xc0, 0x00, 0xe7, 0xbc, 0x9c, 0x7e, 0xa0, 0x3d, 0x22, 0xc2, 0x5d, 0xbe, 0x70, 0xb2, 0x85, 0xbc, 0x74, 0x2a, 0xb7, 0xbd, 0xb0, 0x5b, 0x97, 0xbd, 0x27, 0x23, 0x98, 0xbe, 0x6b, 0x08, 0xad, 0xbe, 0x00, 0x82, 0x7a, 0xbc, 0x92, 0xb5, 0x4e, 0x3e, 0xf5, 0x89, 0x9f, 0x3a, 0xa6, 0x01, 0xac, 0xbe, 0x40, 0xb4, 0x3f, 0x3e, 0x84, 0x84, 0x8d, 0xbd, 0x46, 0x3e, 0x31, 0x3e, 0xe6, 0xd8, 0xd8, 0xbc, 0xf9, 0x81, 0x46, 0x3e, 0x73, 0xaa, 0x04, 0xbe, 0x11, 0xb9, 0xae, 0xbe, 0x86, 0xcf, 0x17, 0xbe, 0x25, 0x40, 0x64, 0xbe, 0xae, 0x7e, 0x89, 0xbe, 0xa5, 0xe5, 0x37, 0x3e, 0x30, 0x99, 0x42, 0x3d, 0x2e, 0xb9, 0xa6, 0xbe, 0xc6, 0x45, 0x19, 0x3e, 0xec, 0xbd, 0xa1, 0xbd, 0x49, 0xd7, 0x71, 0xbe, 0x43, 0x4a, 0xee, 0xbd, 0x16, 0xa4, 0x9f, 0xbe, 0x2d, 0xfe, 0x61, 0xbe, 0xdc, 0x1a, 0x55, 0x3e, 0xfa, 0xb1, 0x65, 0x3e, 0x68, 0x6d, 0xb4, 0x3d, 0x27, 0xcc, 0x9e, 0x3e, 0x3d, 0x7f, 0x03, 0xbe, 0xbb, 0x3e, 0x65, 0xbc, 0xe6, 0x69, 0xe2, 0x3d, 0xfa, 0x06, 0xa3, 0x3e, 0xd2, 0x07, 0x0b, 0xbe, 0x08, 0xf1, 0x94, 0xbe, 0xc9, 0xa4, 0x05, 0xbe, 0x00, 0x8a, 0x3d, 0x3e, 0x90, 0x39, 0xec, 0xbc, 0x70, 0xe2, 0x67, 0xbe, 0x96, 0xe3, 0x9d, 0xbe, 0x62, 0xbb, 0x5a, 0x3e, 0x38, 0x69, 0xb0, 0x3e, 0x17, 0xc9, 0x71, 0x3d, 0x50, 0xba, 0x6e, 0xbe, 0xbf, 0xee, 0x6a, 0xbe, 0xf4, 0x6a, 0x3c, 0xbe, 0x42, 0xd7, 0x36, 0x3e, 0x37, 0xb3, 0xee, 0xbd, 0xd9, 0x85, 0x5a, 0x3d, 0x52, 0x46, 0x5f, 0x3e, 0xec, 0x9d, 0xcd, 0xbd, 0xd8, 0x67, 0x82, 0xbe, 0x57, 0xdb, 0xa5, 0x3e, 0x89, 0x0e, 0x64, 0xbe, 0x46, 0x38, 0x22, 0xbe, 0x75, 0x1b, 0x3f, 0xbe, 0xa1, 0x06, 0x9d, 0xbe, 0x8d, 0x98, 0x52, 0xbe, 0xd6, 0x74, 0x05, 0xbe, 0x99, 0xf0, 0x90, 0xbe, 0xce, 0xbf, 0x40, 0x3e, 0x76, 0x56, 0x81, 0x3e, 0xe0, 0x9e, 0xa8, 0x3e, 0xec, 0xd8, 0x9b, 0x3e, 0x07, 0xb2, 0xb0, 0x3e, 0x4c, 0xee, 0xc5, 0x3d, 0xfb, 0xdc, 0x6e, 0xbe, 0xfd, 0x10, 0x9b, 0x3e, 0xf1, 0xa1, 0x88, 0x3e, 0x62, 0xbb, 0x68, 0x3e, 0x64, 0x71, 0x12, 0xbe, 0x4d, 0xaa, 0x4c, 0x3e, 0x11, 0x7f, 0xa1, 0x3e, 0xcc, 0xbb, 0xa4, 0xbe, 0xdf, 0xeb, 0x5f, 0x3e, 0x62, 0xa9, 0xd9, 0xbd, 0x67, 0x77, 0x8f, 0xbe, 0x97, 0x1b, 0x61, 0xbe, 0x80, 0x5d, 0x4a, 0xbc, 0x77, 0xa5, 0x97, 0x3e, 0xb3, 0xe8, 0x7a, 0xbe, 0x5e, 0x33, 0x66, 0x3e, 0x61, 0x13, 0xd6, 0x3d, 0xa8, 0xb1, 0x8b, 0xbd, 0xce, 0x0f, 0x45, 0xbe, 0xdb, 0x3e, 0x3f, 0xbe, 0xb8, 0xe4, 0x9b, 0xbd, 0x7c, 0x21, 0x7b, 0xbe, 0x8e, 0x6e, 0xe2, 0x3d, 0x05, 0xa4, 0x58, 0x3e, 0xa8, 0x17, 0x03, 0xbd, 0x7a, 0x21, 0x24, 0xbe, 0x0a, 0x00, 0x68, 0xbe, 0x12, 0xff, 0x70, 0xbe, 0x51, 0x2d, 0x3c, 0xbe, 0x64, 0x92, 0xa1, 0x3e, 0x74, 0xdc, 0xb1, 0xbd, 0xf0, 0x66, 0xae, 0xbd, 0x83, 0xd7, 0x89, 0x3e, 0x02, 0xb8, 0x46, 0x3e, 0x06, 0x73, 0xc3, 0x3d, 0x22, 0xab, 0x31, 0x3e, 0x35, 0x38, 0x31, 0xbe, 0x9c, 0x3c, 0x11, 0x3e, 0x1c, 0x3a, 0x0c, 0x3e, 0xaf, 0xce, 0xa9, 0xbe, 0xe5, 0xfa, 0x9c, 0xbb, 0xbf, 0x07, 0x50, 0xbe, 0xd0, 0xad, 0x96, 0xbe, 0x83, 0x39, 0x80, 0xbe, 0xbb, 0x3c, 0x94, 0xbe, 0xaf, 0x0f, 0x06, 0x3e, 0x51, 0xf1, 0x3e, 0x3e, 0x10, 0x8a, 0xb5, 0xbc, 0x12, 0x02, 0xe5, 0xbd, 0xf1, 0x15, 0x2c, 0xbe, 0x38, 0x22, 0xfa, 0xbd, 0x2e, 0x94, 0x1c, 0xbe, 0x49, 0x55, 0x99, 0x3d, 0xfb, 0xc7, 0x80, 0x3e, 0x01, 0x40, 0x90, 0x3d, 0x5a, 0xa7, 0xe4, 0x3d, 0x28, 0x8f, 0x99, 0xbd, 0xe6, 0xcc, 0x55, 0x3e, 0xa2, 0x17, 0x50, 0x3e, 0x27, 0xe4, 0xa0, 0xbe, 0x37, 0xf7, 0x0a, 0xbe, 0x06, 0xf3, 0x9a, 0x3e, 0xce, 0x71, 0xdd, 0x3d, 0xcf, 0xc5, 0x36, 0xbe, 0x6a, 0x02, 0xb0, 0xbe, 0x68, 0x35, 0x44, 0x3d, 0x0d, 0xd5, 0x22, 0xbe, 0x3a, 0x04, 0x45, 0x3e, 0x23, 0xce, 0x69, 0xbe, 0x9a, 0x22, 0x89, 0xbe, 0xdc, 0xdc, 0xce, 0xbd, 0xe9, 0xa1, 0x8a, 0x3e, 0xae, 0x68, 0x17, 0x3e, 0xfa, 0x79, 0x1b, 0x3e, 0xd0, 0x38, 0xe6, 0x3d, 0xfb, 0xec, 0x50, 0xbe, 0x00, 0x71, 0x56, 0xbb, 0xd4, 0x3b, 0x72, 0xbe, 0xf0, 0x55, 0x91, 0xbe, 0xd1, 0x9d, 0x39, 0xbe, 0x92, 0xa4, 0x7a, 0x3e, 0x0a, 0xed, 0x73, 0xbe, 0x52, 0xf5, 0x96, 0xbe, 0xc5, 0xf1, 0x5e, 0xbe, 0x40, 0xe6, 0x8c, 0xbc, 0x88, 0xea, 0x03, 0xbd, 0xc0, 0x90, 0x9c, 0xbd, 0x00, 0x77, 0x78, 0xbb, 0xc2, 0x9f, 0x1d, 0x3e, 0x1c, 0x83, 0x97, 0xbd, 0xfe, 0x9a, 0x7c, 0xbe, 0xda, 0x6a, 0x37, 0x3e, 0x66, 0x1d, 0xaf, 0xbe, 0x28, 0x31, 0xe5, 0xbd, 0xf4, 0xec, 0xc1, 0x3d, 0x97, 0x1c, 0x9b, 0x3e, 0xbd, 0x35, 0x31, 0xbe, 0x7f, 0x5b, 0xa2, 0x3e, 0xe0, 0xd0, 0xa9, 0xbd, 0xdd, 0x52, 0x39, 0xbe, 0x61, 0xbe, 0x2d, 0x3c, 0x47, 0x63, 0xbe, 0x3e, 0x45, 0xbf, 0xab, 0x3e, 0xc7, 0xd3, 0x97, 0xbe, 0xa9, 0x5a, 0xaa, 0x3e, 0x40, 0x81, 0xcf, 0xbc, 0x61, 0x5a, 0x1b, 0xbe, 0x99, 0xf4, 0xa5, 0x3e, 0x97, 0xe3, 0x91, 0x3e, 0xaf, 0x19, 0x3f, 0x3d, 0xbf, 0xe9, 0xf9, 0xbd, 0x04, 0xca, 0x30, 0xbe, 0xef, 0x0c, 0x93, 0xbd, 0xfc, 0x21, 0x4a, 0xbe, 0x95, 0xc3, 0xb0, 0x3e, 0x8a, 0x2a, 0x78, 0xbe, 0x4b, 0x1c, 0x7d, 0x3d, 0x88, 0x37, 0xc4, 0x3d, 0xd5, 0x9d, 0x80, 0x3e, 0x88, 0x0b, 0x93, 0xbd, 0xc4, 0xd0, 0xc4, 0xbd, 0x5b, 0xd6, 0xb3, 0x3e, 0x8c, 0xda, 0xea, 0xbd, 0x74, 0x6f, 0x9d, 0x3e, 0x29, 0x60, 0xf3, 0xbd, 0xc5, 0x39, 0x50, 0xbe, 0xcc, 0xcc, 0x86, 0x3a, 0x8b, 0x62, 0x9d, 0x3e, 0x7e, 0xda, 0xff, 0xff, 0x04, 0x00, 0x00, 0x00, 0x00, 0x20, 0x00, 0x00, 0x4c, 0xcc, 0x53, 0xbe, 0x30, 0xb5, 0xba, 0x3d, 0x30, 0x14, 0x26, 0xbd, 0x00, 0x36, 0x6e, 0x3c, 0x60, 0x50, 0x02, 0xbe, 0x00, 0x28, 0x92, 0x3b, 0xa8, 0xb9, 0x53, 0xbe, 0xd8, 0xa7, 0x0a, 0xbe, 0x40, 0x6b, 0xdf, 0xbd, 0xe0, 0x0a, 0xb9, 0x3c, 0x20, 0xf1, 0xe0, 0x3d, 0xf8, 0xb3, 0x20, 0xbe, 0x00, 0x04, 0xea, 0xbc, 0x04, 0x38, 0x0a, 0xbe, 0xd8, 0x7c, 0x7d, 0xbe, 0xa0, 0x16, 0x7b, 0x3d, 0x7c, 0x55, 0x2d, 0x3e, 0x00, 0x77, 0x64, 0xbc, 0xa0, 0x1d, 0x9f, 0xbd, 0x00, 0xfa, 0xe4, 0x3c, 0xe8, 0x7c, 0x7f, 0x3e, 0xa8, 0xd9, 0x46, 0x3e, 0x60, 0x18, 0xbd, 0xbd, 0x54, 0x41, 0x16, 0xbe, 0xe0, 0x87, 0x92, 0xbc, 0x08, 0x53, 0xdd, 0xbd, 0xc0, 0x55, 0x2f, 0x3c, 0xa0, 0xb8, 0xe6, 0xbc, 0xe0, 0xd4, 0xac, 0x3d, 0xa0, 0x3e, 0x23, 0xbe, 0x70, 0x82, 0x69, 0x3e, 0xb0, 0x25, 0x65, 0x3d, 0x60, 0x1b, 0xb5, 0xbc, 0xa0, 0xfb, 0xa8, 0xbc, 0x28, 0xb0, 0xdd, 0x3d, 0x04, 0x1e, 0x32, 0xbe, 0x20, 0xba, 0x78, 0x3d, 0x90, 0xff, 0x31, 0x3e, 0xd0, 0x27, 0xef, 0x3d, 0xcc, 0x23, 0x44, 0xbe, 0x70, 0x97, 0x34, 0xbd, 0x00, 0x97, 0xd1, 0xbc, 0x5c, 0x92, 0x2b, 0x3e, 0x90, 0xd4, 0x6a, 0x3d, 0xb0, 0xbe, 0xd1, 0x3d, 0x40, 0xce, 0x79, 0xbc, 0x68, 0xe7, 0x89, 0xbd, 0x30, 0xbe, 0x90, 0x3d, 0x14, 0x42, 0x5b, 0x3e, 0x00, 0x64, 0x98, 0xbc, 0xf0, 0xc6, 0x44, 0x3e, 0x80, 0x83, 0xe6, 0xbc, 0xc0, 0xec, 0x17, 0x3e, 0xe8, 0x29, 0x69, 0xbe, 0xe0, 0x3d, 0x1e, 0xbd, 0x54, 0x53, 0x4f, 0x3e, 0x6c, 0xa3, 0x27, 0xbe, 0xd0, 0xfa, 0x66, 0xbe, 0xb0, 0x94, 0x62, 0x3d, 0x60, 0xc2, 0xc1, 0xbc, 0xf0, 0xe1, 0x4b, 0x3d, 0x20, 0xcc, 0xc5, 0x3d, 0xd0, 0xc8, 0x39, 0x3e, 0xf8, 0xb1, 0x12, 0x3e, 0xc8, 0x6c, 0x0f, 0xbe, 0x80, 0x8d, 0x55, 0x3d, 0xd4, 0x8c, 0x7f, 0xbe, 0x20, 0x3f, 0xba, 0x3d, 0xcc, 0xf4, 0x54, 0x3e, 0x28, 0xfe, 0xdc, 0xbd, 0x88, 0x1c, 0x8b, 0xbd, 0x70, 0x84, 0x08, 0x3e, 0x60, 0xce, 0x9f, 0xbc, 0xe4, 0xcf, 0x2e, 0xbe, 0x58, 0x7f, 0xd0, 0xbd, 0xe0, 0xd4, 0xe0, 0xbc, 0xb8, 0xa8, 0x3d, 0xbe, 0x00, 0xfc, 0x4c, 0x3b, 0xc4, 0x92, 0x2f, 0xbe, 0x70, 0x1f, 0x65, 0x3e, 0x1c, 0x46, 0x7f, 0xbe, 0xc0, 0xfb, 0x64, 0x3d, 0x04, 0x19, 0x0e, 0x3e, 0x78, 0x9d, 0xc6, 0x3d, 0xe0, 0xa2, 0x83, 0x3c, 0x00, 0x52, 0xab, 0xbb, 0x20, 0xdf, 0xf4, 0xbd, 0x80, 0xa4, 0x76, 0xbc, 0x98, 0xed, 0x43, 0xbe, 0x80, 0x89, 0x60, 0xbd, 0x00, 0x75, 0x8b, 0xbd, 0xe8, 0xc9, 0xb3, 0x3d, 0x08, 0x90, 0x28, 0x3e, 0x18, 0x3f, 0xd7, 0x3d, 0xd8, 0x9f, 0xbd, 0x3d, 0xc0, 0x55, 0x56, 0x3c, 0x40, 0x55, 0x37, 0xbe, 0x48, 0x2b, 0x3d, 0x3e, 0x40, 0x33, 0x5e, 0xbd, 0x4c, 0x88, 0x62, 0xbe, 0xd4, 0xe8, 0x5d, 0xbe, 0xf8, 0x74, 0x5a, 0x3e, 0x50, 0x11, 0x66, 0x3e, 0x50, 0xcc, 0x2d, 0x3d, 0xc0, 0xde, 0x53, 0xbd, 0x00, 0x27, 0xee, 0xbc, 0x70, 0x16, 0x7e, 0x3e, 0xcc, 0x47, 0x67, 0xbe, 0x50, 0xb3, 0x76, 0x3d, 0xf0, 0x8c, 0x64, 0x3e, 0x00, 0xb3, 0x1c, 0xbd, 0x8c, 0xfe, 0x15, 0xbe, 0x68, 0x51, 0x8c, 0xbd, 0x20, 0xa0, 0xd8, 0xbd, 0xd0, 0x1a, 0x64, 0xbd, 0x84, 0x37, 0x0c, 0xbe, 0x00, 0x72, 0x5c, 0xbd, 0xd4, 0xf3, 0x0e, 0xbe, 0xc0, 0xb6, 0x85, 0xbd, 0x54, 0xe4, 0x03, 0x3e, 0x10, 0x13, 0xc4, 0xbd, 0x80, 0xda, 0xe3, 0xbc, 0x60, 0x3c, 0x5f, 0xbe, 0xb0, 0xf5, 0x62, 0x3d, 0x70, 0xf4, 0xc4, 0xbd, 0xd0, 0x2a, 0x76, 0xbe, 0xd0, 0x92, 0x63, 0x3d, 0x20, 0x16, 0xde, 0xbd, 0x45, 0x55, 0x21, 0x3e, 0xb8, 0x2b, 0xf5, 0x3d, 0xe8, 0xf3, 0x0b, 0x3e, 0x60, 0xe7, 0x94, 0x3c, 0x01, 0xff, 0x02, 0xbe, 0xb2, 0xf4, 0x0b, 0xbd, 0xd8, 0x50, 0x1e, 0x3e, 0xc8, 0xb9, 0x34, 0xbe, 0x9b, 0x78, 0x15, 0xbd, 0x92, 0x38, 0x77, 0x3e, 0xf2, 0x48, 0x2c, 0x3e, 0x9c, 0xd4, 0x04, 0x3e, 0xc8, 0x5c, 0xd1, 0xbd, 0xf3, 0x92, 0x38, 0x3e, 0xbe, 0x69, 0xda, 0x3d, 0x54, 0x49, 0x16, 0x3e, 0xe0, 0x8a, 0x57, 0xbe, 0xb3, 0x24, 0x11, 0x3e, 0x91, 0xeb, 0x80, 0xbd, 0x0f, 0x55, 0x1e, 0xbe, 0x7c, 0xca, 0x4d, 0xbd, 0x59, 0xad, 0xad, 0x3d, 0xd8, 0x0c, 0x65, 0x3e, 0x06, 0xcb, 0x3c, 0xbd, 0xe8, 0xd3, 0xec, 0x3d, 0x2e, 0x00, 0x1d, 0xbe, 0x40, 0xc4, 0xd4, 0x3d, 0xe3, 0x04, 0x92, 0xbe, 0xb1, 0xba, 0xf6, 0x3d, 0x6c, 0x41, 0x46, 0x3e, 0xd6, 0xa2, 0x7a, 0xbc, 0xf7, 0x4d, 0xae, 0x3c, 0x9b, 0xc5, 0xff, 0x3d, 0x11, 0xa4, 0x9b, 0x3d, 0x66, 0x51, 0xea, 0x3d, 0x10, 0x92, 0x52, 0xbe, 0xd1, 0xb0, 0x00, 0xbe, 0x99, 0xa7, 0x48, 0xbe, 0xc0, 0xf6, 0x44, 0xbd, 0x3d, 0xa9, 0x0d, 0xbe, 0xcb, 0x4e, 0x8c, 0x3d, 0x80, 0xdc, 0x03, 0x3d, 0x02, 0x98, 0x87, 0x3c, 0xd2, 0xb7, 0x58, 0xbd, 0xb8, 0xea, 0x36, 0xbe, 0xdd, 0x45, 0x72, 0xbd, 0xd2, 0x96, 0x32, 0xbe, 0xca, 0xbc, 0x01, 0x3d, 0x24, 0xf9, 0x35, 0x3e, 0x00, 0x52, 0xfb, 0x3b, 0xfc, 0x45, 0x2a, 0x3e, 0x78, 0xfb, 0x5b, 0xbd, 0x70, 0xfa, 0x72, 0x3d, 0x26, 0x7a, 0x02, 0xbf, 0xe0, 0x30, 0x64, 0xbe, 0xf8, 0xe5, 0x05, 0x3e, 0x20, 0x15, 0xc8, 0xbd, 0x28, 0x37, 0x8f, 0x3d, 0xac, 0x57, 0x73, 0x3e, 0x78, 0xc7, 0x27, 0x3e, 0x38, 0x27, 0x14, 0x3e, 0x3a, 0xba, 0x27, 0xbc, 0x23, 0x53, 0xc4, 0x3d, 0xb9, 0x41, 0xba, 0xbd, 0xd4, 0x86, 0x30, 0xbe, 0x4c, 0xac, 0x17, 0x3e, 0xc0, 0xe7, 0x14, 0x3d, 0x80, 0x24, 0x3b, 0xbd, 0x30, 0x3b, 0x6f, 0x3d, 0xac, 0x18, 0x57, 0xbe, 0x18, 0xc0, 0x4f, 0x3e, 0xe8, 0xab, 0x22, 0xbe, 0x20, 0x98, 0xe4, 0x3d, 0xe0, 0x97, 0xf6, 0xbc, 0xc0, 0x7a, 0xfc, 0xbc, 0x40, 0x8d, 0x2a, 0xbe, 0x00, 0xdd, 0xfd, 0x3c, 0x30, 0x8c, 0x51, 0xbe, 0x68, 0x9c, 0x3c, 0x3e, 0xf4, 0xb9, 0x06, 0xbe, 0xf4, 0xa1, 0x22, 0x3e, 0xe0, 0xf4, 0x2e, 0x3d, 0xa8, 0x2d, 0xa1, 0x3d, 0xa8, 0xf9, 0x0c, 0x3e, 0x50, 0x09, 0x18, 0xbe, 0x98, 0xbf, 0x38, 0xbe, 0xe8, 0x73, 0x94, 0xbd, 0x90, 0xe2, 0x3b, 0x3d, 0x4c, 0xd1, 0x5a, 0xbe, 0xf8, 0xd7, 0x35, 0xbe, 0x14, 0x1e, 0x3b, 0x3e, 0x00, 0xae, 0x6b, 0x3c, 0x74, 0xe0, 0x72, 0xbe, 0xb8, 0x99, 0x65, 0x3e, 0xd0, 0x98, 0xa4, 0x3d, 0x20, 0x00, 0x64, 0x3e, 0x00, 0x42, 0x47, 0xbb, 0x90, 0xc9, 0x2d, 0x3d, 0x30, 0xf1, 0x3c, 0x3d, 0x00, 0x78, 0xea, 0xbb, 0x00, 0xb0, 0xc5, 0x39, 0xb8, 0x64, 0x87, 0x3d, 0xc0, 0x86, 0xa5, 0x3c, 0xe4, 0xf3, 0x60, 0xbe, 0x48, 0x03, 0xa2, 0x3d, 0x78, 0x7c, 0xa1, 0xbd, 0x5c, 0xbe, 0x19, 0x3e, 0x38, 0x82, 0x9f, 0xbd, 0x0c, 0x8e, 0x03, 0x3e, 0x4c, 0xd7, 0x62, 0xbe, 0x28, 0xe7, 0xd3, 0xbd, 0x00, 0xf6, 0xf5, 0x3d, 0x60, 0x67, 0x0e, 0x3d, 0x58, 0xa1, 0x7d, 0x3e, 0x50, 0xdd, 0x3f, 0xbe, 0x90, 0xce, 0x67, 0xbe, 0x9c, 0xe3, 0x51, 0xbe, 0xa8, 0x58, 0xb0, 0xbd, 0x20, 0x96, 0x16, 0xbe, 0x38, 0xbc, 0x31, 0xbe, 0x00, 0x33, 0xd7, 0xbb, 0x8c, 0xea, 0x46, 0xbe, 0x80, 0xfc, 0x7c, 0x3e, 0xb8, 0xdb, 0x20, 0xbe, 0xf4, 0x6a, 0x28, 0xbe, 0xd0, 0x5d, 0xf4, 0xbd, 0x00, 0xb2, 0xb5, 0xbd, 0x00, 0x51, 0x6a, 0xbd, 0x4a, 0x09, 0xdf, 0x3d, 0xa8, 0x30, 0x81, 0x3d, 0xb3, 0x58, 0x57, 0x3e, 0x60, 0x9b, 0xd0, 0x3c, 0xd7, 0xeb, 0x48, 0x3e, 0x56, 0x32, 0x51, 0x3d, 0xe0, 0x1c, 0x2a, 0xbd, 0x98, 0xae, 0x0d, 0xbd, 0xad, 0x60, 0x5b, 0xbe, 0x4d, 0xb3, 0x7e, 0x3e, 0x50, 0xa1, 0xb3, 0x3d, 0xc9, 0x41, 0x18, 0x3e, 0x51, 0x6f, 0xc8, 0x3d, 0x8c, 0xa5, 0x51, 0xbe, 0x2a, 0xe7, 0xab, 0xbd, 0x04, 0xe2, 0x5d, 0xbe, 0x34, 0xbc, 0x72, 0xbe, 0x19, 0xd8, 0xf4, 0x3c, 0x03, 0x0f, 0xfc, 0xbd, 0x82, 0x59, 0x14, 0xbd, 0xd9, 0xaf, 0x0c, 0x3e, 0x10, 0x5d, 0x55, 0x3e, 0x68, 0xe3, 0x7b, 0xbe, 0x43, 0x0c, 0xdc, 0x3d, 0x18, 0x73, 0xfc, 0xbd, 0xfc, 0xe5, 0x32, 0xbd, 0x20, 0x05, 0x4a, 0x3d, 0xbe, 0x1e, 0x02, 0xbe, 0x15, 0xbd, 0x2c, 0x3e, 0x64, 0xc7, 0x01, 0xbe, 0xb2, 0x9d, 0xf3, 0x3d, 0xac, 0x9c, 0xc2, 0x3c, 0x74, 0xd3, 0x1b, 0x3e, 0x9e, 0x63, 0xe4, 0xbd, 0x52, 0x65, 0xa1, 0xbd, 0xf9, 0xfe, 0x25, 0xbe, 0x60, 0x54, 0x20, 0x3e, 0xe8, 0x59, 0x2f, 0x3c, 0x70, 0x2f, 0x51, 0xbe, 0xd5, 0x40, 0x19, 0xbe, 0x6b, 0xb1, 0x55, 0x3d, 0x78, 0x19, 0xc9, 0x3d, 0x55, 0x61, 0x1c, 0xbe, 0x11, 0x56, 0x2c, 0xbe, 0xa0, 0xb8, 0x9e, 0x3c, 0x64, 0x1c, 0x7e, 0xbd, 0x0d, 0xab, 0x3c, 0x3e, 0x91, 0xf4, 0xb3, 0xbd, 0x80, 0x67, 0x7c, 0x3e, 0xc8, 0xa6, 0xe6, 0xbd, 0xb8, 0x4f, 0x34, 0x3e, 0xfc, 0xcb, 0x78, 0xbe, 0xd8, 0xd3, 0x49, 0xbe, 0xfe, 0xaf, 0x8d, 0x3e, 0xbe, 0x84, 0xfc, 0x3d, 0x84, 0x69, 0x79, 0x3e, 0xd4, 0x23, 0x7a, 0xbe, 0x24, 0x64, 0x18, 0x3d, 0x84, 0x4c, 0x7e, 0xbe, 0x20, 0x7a, 0x44, 0x3e, 0xb8, 0x5f, 0xdc, 0x3d, 0x26, 0xee, 0x40, 0xbe, 0x47, 0x26, 0x8f, 0xbd, 0x06, 0x0f, 0x41, 0xbd, 0x35, 0x76, 0xa9, 0x3d, 0xe0, 0x01, 0xcc, 0xbc, 0x15, 0xe3, 0xcf, 0x3d, 0xfc, 0xff, 0x6c, 0xbe, 0x91, 0xac, 0x04, 0xbe, 0x31, 0xee, 0x1d, 0x3e, 0x44, 0x6a, 0x0a, 0x3e, 0xfb, 0x25, 0xd1, 0x3c, 0x9d, 0xdb, 0x9c, 0x3d, 0xd5, 0xf0, 0x96, 0xbd, 0xcf, 0x18, 0x45, 0x3e, 0x04, 0x95, 0x49, 0x3c, 0x05, 0x66, 0x6a, 0x3e, 0x90, 0x05, 0xf9, 0xbd, 0x2e, 0x32, 0xd8, 0x3d, 0x2c, 0x5c, 0x62, 0xbe, 0x84, 0x28, 0x53, 0xbe, 0x15, 0xc0, 0x96, 0xbe, 0x87, 0x59, 0x5e, 0xbe, 0x00, 0xd0, 0x6b, 0xbe, 0xe1, 0x9f, 0x0e, 0x3d, 0xf8, 0x72, 0x43, 0x3e, 0xa0, 0xf8, 0xb0, 0xbd, 0x4b, 0x38, 0x00, 0x3e, 0xc8, 0xce, 0x96, 0x3d, 0xbc, 0x53, 0x5f, 0xbe, 0x80, 0xd3, 0xf6, 0x3b, 0x63, 0xc4, 0xc2, 0x3d, 0x14, 0xc0, 0x26, 0xbe, 0xa8, 0x38, 0x73, 0x3c, 0x2b, 0xfe, 0x4c, 0x3c, 0x51, 0x23, 0x23, 0xbe, 0x1d, 0x1c, 0x79, 0x3d, 0x88, 0x32, 0x2e, 0xbe, 0x63, 0x06, 0x45, 0xbe, 0xe9, 0xd6, 0x28, 0xbe, 0xca, 0xd7, 0x3c, 0x3e, 0x49, 0xbf, 0x86, 0xbd, 0x40, 0xb3, 0x0a, 0x3e, 0x99, 0xd8, 0xd7, 0x3d, 0xda, 0x36, 0x7e, 0xbe, 0x88, 0x36, 0x1b, 0x3e, 0xa8, 0x47, 0x60, 0x3e, 0x5a, 0x2a, 0x44, 0xbe, 0x38, 0xe8, 0x8b, 0x3d, 0x64, 0x7a, 0x08, 0xbe, 0xc9, 0x19, 0x26, 0x3e, 0x77, 0xc9, 0x3c, 0x3e, 0x60, 0x51, 0x86, 0x3d, 0x80, 0x0b, 0xb2, 0xbb, 0x20, 0x20, 0x98, 0x3d, 0x49, 0xd9, 0xb9, 0x3c, 0xb8, 0x12, 0xa3, 0xbd, 0x09, 0x05, 0x88, 0x3e, 0xcf, 0xfc, 0xc3, 0x3d, 0x80, 0x3f, 0x9b, 0xbb, 0x00, 0xbf, 0x1c, 0xbd, 0x95, 0x40, 0x11, 0xbe, 0xc0, 0x02, 0x11, 0x3d, 0xa8, 0x96, 0x8d, 0xbd, 0x14, 0x06, 0x2a, 0xbe, 0xa8, 0x4f, 0x40, 0x3e, 0x8c, 0x74, 0xd3, 0x3d, 0xb9, 0x12, 0x0e, 0xbe, 0xa0, 0x41, 0x53, 0xbe, 0x00, 0x9a, 0xc3, 0xba, 0x5c, 0x93, 0x35, 0xbe, 0xc0, 0x46, 0x66, 0x3d, 0xc8, 0xf7, 0xc6, 0x3d, 0x00, 0x16, 0xd7, 0xbd, 0xbc, 0x4a, 0x48, 0x3e, 0x54, 0x2c, 0x1f, 0xbe, 0x70, 0xda, 0xed, 0xbd, 0x78, 0xa6, 0x37, 0x3e, 0x40, 0xd8, 0x75, 0x3c, 0x10, 0xac, 0xa7, 0x3d, 0x30, 0x4e, 0xc8, 0x3d, 0xec, 0xc9, 0x4c, 0x3e, 0x78, 0xbd, 0xd2, 0xbd, 0x08, 0xda, 0x62, 0xbe, 0x98, 0x99, 0x29, 0x3e, 0x2c, 0xcc, 0x47, 0x3e, 0xa0, 0xde, 0x46, 0x3e, 0x54, 0xdf, 0x19, 0x3e, 0x60, 0x2c, 0x48, 0xbe, 0x48, 0x3e, 0xda, 0x3d, 0x38, 0xe4, 0x7c, 0x3e, 0x54, 0xcb, 0x4f, 0x3e, 0x34, 0x01, 0x56, 0x3e, 0x90, 0x7a, 0xa3, 0xbd, 0x10, 0x42, 0xa7, 0xbd, 0x60, 0x02, 0x2d, 0xbd, 0x78, 0x41, 0x00, 0x3e, 0x40, 0xe3, 0x29, 0xbc, 0x60, 0xab, 0xdb, 0x3d, 0x40, 0x39, 0x06, 0xbd, 0x28, 0x87, 0x83, 0x3d, 0x5c, 0x29, 0x2d, 0xbe, 0x0c, 0x91, 0x5a, 0xbe, 0x4c, 0x78, 0x24, 0xbe, 0x98, 0xe2, 0x1c, 0x3e, 0x7c, 0xb5, 0x54, 0xbe, 0xd8, 0xba, 0x00, 0xbe, 0x64, 0x1b, 0x35, 0xbe, 0x70, 0x69, 0x0d, 0xbe, 0x10, 0xe5, 0x7d, 0x3d, 0x18, 0x69, 0xfc, 0xbd, 0xa0, 0x0c, 0x03, 0xbe, 0x14, 0x84, 0x6b, 0x3e, 0x40, 0xd9, 0x9c, 0xbd, 0x90, 0xe3, 0xda, 0xbd, 0x40, 0x53, 0x78, 0x3c, 0x3c, 0x5f, 0x54, 0xbe, 0xcc, 0xce, 0x1c, 0xbe, 0x08, 0x99, 0x6b, 0x3e, 0x38, 0x74, 0xc8, 0x3d, 0xc0, 0xe5, 0x89, 0xbc, 0x70, 0xaa, 0xc0, 0x3d, 0x3c, 0xd4, 0x57, 0xbe, 0xb0, 0xdd, 0x01, 0xbe, 0x38, 0x9a, 0x23, 0xbe, 0x14, 0xc3, 0x51, 0x3e, 0x78, 0x4d, 0x4a, 0xbe, 0x08, 0xf1, 0xe0, 0xbd, 0xe0, 0xd5, 0xd3, 0x3c, 0x94, 0xa6, 0x66, 0x3e, 0xf0, 0x35, 0xba, 0xbd, 0xf8, 0x6c, 0x4a, 0xbe, 0x2c, 0xda, 0x54, 0x3e, 0xb8, 0xe0, 0xb6, 0x3d, 0x87, 0x09, 0xce, 0x3d, 0x88, 0xe1, 0x76, 0x3e, 0xf0, 0x4e, 0xb4, 0xbc, 0xe0, 0xc8, 0xdf, 0x3d, 0x44, 0x96, 0x01, 0xbe, 0x51, 0x97, 0xa5, 0x3d, 0x89, 0x27, 0x16, 0x3e, 0x06, 0xcd, 0x47, 0x3b, 0xa3, 0x13, 0x82, 0x3d, 0x1c, 0x30, 0x66, 0xbe, 0x65, 0xe0, 0x29, 0x3e, 0x87, 0xcd, 0x1e, 0xbe, 0x1a, 0x48, 0x8a, 0xbe, 0x90, 0x55, 0x64, 0xbd, 0xbc, 0x06, 0x6e, 0xbe, 0xc2, 0x8c, 0x74, 0xbe, 0x10, 0xd4, 0x7f, 0xbe, 0x85, 0x14, 0x6f, 0xbe, 0xc7, 0x5a, 0x12, 0x3e, 0x28, 0x8d, 0x83, 0xbe, 0x80, 0x59, 0x2f, 0x3c, 0xc5, 0xa6, 0x1a, 0x3e, 0x68, 0xba, 0x88, 0x3d, 0x95, 0x5d, 0x88, 0x3e, 0x14, 0x3b, 0x10, 0xbe, 0xff, 0xfb, 0x05, 0xbe, 0x50, 0x8d, 0xa9, 0x3d, 0x33, 0x0a, 0xf3, 0xbc, 0x77, 0xc8, 0x74, 0xbe, 0x1a, 0x2c, 0x53, 0x3e, 0xd8, 0x1f, 0x35, 0xbe, 0xb5, 0xd4, 0x40, 0x3e, 0x3b, 0xe6, 0x2d, 0xbe, 0xa8, 0xca, 0xcb, 0xbd, 0x6e, 0x9c, 0x41, 0x3e, 0xec, 0xb4, 0x0f, 0xbe, 0x34, 0xc3, 0x3f, 0xbe, 0xe6, 0x97, 0x5e, 0x3e, 0x77, 0xca, 0xc0, 0xbc, 0xc0, 0x6d, 0xd5, 0xbc, 0xd9, 0xfd, 0xa4, 0x3d, 0x37, 0xf2, 0x3b, 0xbe, 0xe0, 0xcb, 0x54, 0xbe, 0x9e, 0x12, 0x13, 0xbe, 0x82, 0x89, 0x05, 0x3e, 0x4c, 0x93, 0x7c, 0x3d, 0xb4, 0x0e, 0x11, 0x3e, 0xdc, 0x74, 0x5e, 0xbe, 0x80, 0xfe, 0xf0, 0xbd, 0x8f, 0x9c, 0x21, 0x3c, 0xc0, 0xb7, 0x36, 0x3c, 0x45, 0x47, 0xde, 0x3b, 0xb1, 0x6d, 0x9e, 0x3d, 0x00, 0xda, 0xf8, 0x3c, 0x60, 0x0f, 0x37, 0x3e, 0x4b, 0xd1, 0xcb, 0x3d, 0x7c, 0x7b, 0x1c, 0xbe, 0x28, 0x88, 0xac, 0xbd, 0x60, 0xcf, 0x82, 0x3d, 0xe9, 0x5c, 0xe4, 0xbd, 0x70, 0xe5, 0x33, 0xbe, 0x36, 0x54, 0x48, 0xbe, 0xca, 0x9e, 0x58, 0x3e, 0xf4, 0x9b, 0x75, 0xbe, 0x35, 0x36, 0x5f, 0x3e, 0x94, 0xc3, 0x46, 0x3e, 0xb4, 0x20, 0x23, 0xbe, 0x24, 0x1c, 0x05, 0x3e, 0xa8, 0x71, 0x83, 0xbd, 0xa8, 0x96, 0x4f, 0xbe, 0x15, 0x5d, 0x3b, 0x3e, 0xef, 0x55, 0xe3, 0xbe, 0x66, 0x0a, 0x15, 0xbe, 0x3d, 0xaa, 0x38, 0xbe, 0xfb, 0x48, 0x24, 0xba, 0x3b, 0x63, 0x60, 0x3e, 0x38, 0x4c, 0x33, 0xbe, 0x00, 0x4a, 0x0a, 0xbc, 0xf0, 0x96, 0x68, 0xbe, 0x36, 0x19, 0x77, 0x3d, 0x53, 0xa9, 0xb9, 0xbc, 0x05, 0xfb, 0x42, 0x3d, 0x68, 0x7c, 0x8a, 0xbd, 0xed, 0xc5, 0x2b, 0x3e, 0x80, 0x05, 0x46, 0x3e, 0xfc, 0x01, 0xbf, 0x3c, 0x80, 0x14, 0x0a, 0xbd, 0x2b, 0xb4, 0x11, 0xbe, 0x3c, 0x80, 0x00, 0xbe, 0xfe, 0xdb, 0xa0, 0xbe, 0x7c, 0xe3, 0x48, 0xbe, 0x7f, 0x5f, 0x7c, 0xbe, 0x8a, 0x86, 0x21, 0x3d, 0x36, 0xf6, 0x18, 0xbf, 0xc6, 0x0d, 0xaf, 0x3c, 0xa0, 0x76, 0x61, 0x3e, 0x8d, 0xe6, 0x46, 0xbe, 0x90, 0x0d, 0x4a, 0xbe, 0xb9, 0xd0, 0x81, 0xbe, 0x23, 0x10, 0xc6, 0x3c, 0xe8, 0x48, 0x9a, 0xbd, 0x3f, 0x1f, 0xe7, 0xbd, 0x9f, 0xff, 0xa8, 0xbd, 0xe0, 0x94, 0xa8, 0x3c, 0xc7, 0x54, 0x20, 0x3e, 0x31, 0x24, 0x70, 0xbe, 0x80, 0x87, 0x7a, 0x3d, 0x41, 0xe4, 0x2f, 0xbd, 0xf1, 0x60, 0x93, 0xbd, 0x18, 0x4c, 0xa1, 0xbd, 0x00, 0x40, 0x72, 0x39, 0xf8, 0x41, 0x95, 0x3d, 0xa8, 0x86, 0x92, 0xbd, 0x69, 0x5d, 0xc0, 0xbd, 0xa8, 0xf5, 0x47, 0xbe, 0x2c, 0x4c, 0x60, 0x3d, 0xe0, 0x25, 0x1f, 0x3d, 0x40, 0x2f, 0xf3, 0xbd, 0xa0, 0x23, 0x9c, 0xbd, 0xd2, 0x07, 0x73, 0xbe, 0x70, 0x58, 0x4c, 0xbd, 0x80, 0x3e, 0xe4, 0xbc, 0x70, 0xbd, 0xd5, 0x3d, 0x9c, 0x55, 0x40, 0x3e, 0xeb, 0x5f, 0x02, 0x3f, 0x47, 0x41, 0x59, 0x3e, 0xd4, 0x00, 0x74, 0xbe, 0x0c, 0x66, 0x2d, 0x3e, 0x00, 0xdc, 0x1a, 0x3d, 0xa0, 0xee, 0xee, 0x3c, 0xd0, 0xad, 0x49, 0xbe, 0x60, 0xf3, 0x31, 0x3e, 0x70, 0x46, 0x5f, 0x3e, 0x88, 0x3c, 0xdd, 0x3d, 0x68, 0x94, 0xdc, 0xbd, 0xa0, 0x37, 0xd5, 0xbd, 0x3c, 0x8a, 0x6d, 0x3e, 0x58, 0xf7, 0xb7, 0xbd, 0xc8, 0x61, 0xdc, 0xbd, 0x00, 0xa5, 0xcc, 0xbd, 0xc4, 0xd7, 0x38, 0xbe, 0xdc, 0x60, 0x08, 0x3e, 0x40, 0x03, 0x42, 0x3c, 0x28, 0x27, 0x5e, 0xbe, 0x30, 0x7d, 0xfa, 0xbd, 0x40, 0xda, 0x8c, 0x3d, 0x20, 0x48, 0xee, 0xbd, 0xbc, 0x39, 0x55, 0x3e, 0x84, 0xbe, 0x69, 0xbe, 0xdc, 0x98, 0x3a, 0x3e, 0x70, 0x3f, 0x2a, 0x3d, 0x10, 0xe2, 0xdc, 0x3d, 0xf0, 0x5b, 0x08, 0x3e, 0x40, 0x50, 0x96, 0xbc, 0x00, 0xeb, 0x3e, 0x3e, 0xc8, 0xb6, 0x1a, 0xbe, 0x00, 0xbf, 0xe9, 0x3c, 0xc0, 0x70, 0x27, 0x3e, 0xec, 0x28, 0x6e, 0x3e, 0x30, 0xbb, 0x9b, 0xbd, 0x20, 0xa0, 0xdd, 0xbc, 0xe0, 0x96, 0xc2, 0x3d, 0xf0, 0x00, 0x5a, 0x3d, 0x94, 0x69, 0x25, 0xbe, 0x44, 0x7f, 0x04, 0x3e, 0x7c, 0xda, 0x49, 0x3e, 0xb4, 0x73, 0x4e, 0x3e, 0x28, 0xf9, 0xab, 0x3d, 0x20, 0x91, 0xef, 0x3d, 0x50, 0x67, 0xff, 0xbd, 0x38, 0x58, 0x55, 0xbe, 0xd0, 0x9f, 0x40, 0xbd, 0x08, 0x1a, 0x60, 0xbe, 0xb8, 0x35, 0x4d, 0xbe, 0x90, 0xea, 0x1a, 0xbe, 0x90, 0xa3, 0x94, 0xbd, 0xc8, 0x7d, 0x58, 0xbe, 0xc0, 0xae, 0x46, 0x3e, 0x08, 0x79, 0xf7, 0x3d, 0xc0, 0x05, 0xd7, 0xbc, 0xa4, 0x8e, 0x7a, 0x3e, 0xe0, 0xd2, 0x6f, 0xbe, 0xb8, 0x17, 0xaa, 0xbd, 0x20, 0x8c, 0x28, 0x3d, 0xf8, 0x64, 0xdd, 0x3d, 0x14, 0x2e, 0x7b, 0xbe, 0x40, 0x5b, 0x2f, 0x3d, 0xb8, 0xd8, 0x97, 0x3d, 0xe0, 0x0a, 0x29, 0x3d, 0x70, 0xef, 0x4c, 0xbe, 0x90, 0x63, 0xfd, 0xbd, 0x70, 0xb8, 0x4e, 0xbd, 0x84, 0x0d, 0x59, 0x3e, 0x24, 0xb0, 0x1b, 0x3e, 0x80, 0x13, 0x9b, 0xbc, 0xc0, 0xee, 0x62, 0x3d, 0xc0, 0x74, 0xe6, 0x3c, 0x00, 0x2d, 0x88, 0x3d, 0x40, 0x4c, 0x60, 0xbd, 0x6c, 0x8a, 0x36, 0xbe, 0xf0, 0x72, 0x31, 0x3e, 0x80, 0x44, 0xf9, 0x3c, 0x14, 0x83, 0x70, 0x3e, 0x84, 0x8d, 0x02, 0x3e, 0x78, 0x47, 0x32, 0xbe, 0x30, 0x1d, 0xa4, 0xbd, 0x00, 0x45, 0xf0, 0xbc, 0xa8, 0xd1, 0x05, 0xbe, 0xc0, 0x89, 0x4f, 0x3c, 0x50, 0x37, 0x25, 0xbd, 0x80, 0x68, 0xe4, 0xbd, 0xfc, 0xfe, 0x6c, 0xbe, 0xc0, 0xfa, 0xf9, 0xbd, 0xa8, 0x8f, 0x58, 0xbe, 0xd0, 0x47, 0xdb, 0xbd, 0x78, 0xab, 0x24, 0x3e, 0x8c, 0xe6, 0x0b, 0xbe, 0xf0, 0xa1, 0x2e, 0x3d, 0xe8, 0xa0, 0xe2, 0xbd, 0x7c, 0x74, 0x63, 0xbe, 0x60, 0x97, 0xf8, 0x3c, 0x3c, 0xcd, 0x7b, 0x3e, 0x58, 0xfe, 0xe5, 0xbd, 0x58, 0xf3, 0xf2, 0xbd, 0x70, 0x67, 0xb3, 0xbd, 0xd8, 0xfb, 0xac, 0x3d, 0x08, 0xea, 0xed, 0xbd, 0x00, 0xb3, 0x44, 0xbe, 0xfc, 0xa9, 0x45, 0xbe, 0xac, 0xa7, 0x53, 0xbe, 0xc0, 0xa6, 0x06, 0x3e, 0x68, 0x22, 0x35, 0xbe, 0x70, 0x63, 0x76, 0xbe, 0xf0, 0x23, 0x3c, 0x3d, 0xcc, 0xb8, 0x64, 0xbe, 0x60, 0x37, 0xc1, 0x3c, 0x48, 0x89, 0x91, 0x3d, 0xc0, 0x2a, 0x6f, 0x3d, 0x30, 0x14, 0xe7, 0xbd, 0x18, 0x60, 0x54, 0xbe, 0x10, 0x91, 0x77, 0x3e, 0x28, 0x7d, 0x4b, 0x3e, 0x1c, 0xe3, 0x05, 0xbe, 0xc0, 0x5d, 0x04, 0x3e, 0xe8, 0x76, 0x8d, 0x3d, 0xcc, 0xe7, 0x71, 0x3e, 0x40, 0x98, 0x11, 0x3e, 0x00, 0x9a, 0x6c, 0xbb, 0x48, 0xa9, 0xb8, 0xbd, 0xf0, 0x70, 0x06, 0xbd, 0xf4, 0xc9, 0x22, 0x3e, 0x08, 0x9a, 0xf7, 0x3d, 0x90, 0x77, 0xd1, 0xbd, 0x40, 0x9c, 0x5c, 0xbc, 0x56, 0x1b, 0x20, 0x3e, 0xdc, 0x56, 0x1b, 0x3e, 0x4d, 0xef, 0x1a, 0x3e, 0xe4, 0xaa, 0x06, 0xbe, 0x88, 0x51, 0xda, 0x3d, 0xf1, 0xf6, 0x60, 0xbd, 0x60, 0x10, 0x58, 0xbe, 0xf3, 0x06, 0x26, 0x3e, 0xf3, 0x3c, 0x1c, 0xbd, 0x40, 0x5c, 0xeb, 0xbd, 0x81, 0x4e, 0x2b, 0xbe, 0xa1, 0x5a, 0x3b, 0x3e, 0xd4, 0x29, 0x9d, 0x3d, 0xbe, 0x16, 0x40, 0x3e, 0x66, 0x00, 0xe2, 0x3d, 0xdc, 0xe5, 0x7b, 0xbe, 0x88, 0x7c, 0xc2, 0xbd, 0xa5, 0x98, 0xb2, 0xbc, 0xad, 0xfa, 0x53, 0xbd, 0x54, 0x77, 0x7c, 0xbe, 0x9f, 0xa4, 0xa8, 0x3b, 0xda, 0x0e, 0x42, 0x3e, 0x80, 0x66, 0x4f, 0xbc, 0x50, 0x3c, 0x2d, 0xbe, 0x00, 0x27, 0xe4, 0x3b, 0x36, 0x41, 0x3a, 0xbe, 0xc4, 0x5e, 0x3a, 0xbe, 0x3b, 0x50, 0xc5, 0xbc, 0xce, 0x7f, 0x0c, 0x3c, 0x85, 0x21, 0xd9, 0xba, 0x0d, 0x1a, 0x62, 0x3e, 0xed, 0x7d, 0x4f, 0x3e, 0x35, 0xcc, 0x4d, 0x3c, 0x55, 0x7b, 0x07, 0x3e, 0x31, 0xc4, 0x2b, 0xbe, 0xdb, 0x71, 0x70, 0xbd, 0x0c, 0xac, 0x39, 0x3d, 0x71, 0x2d, 0x19, 0xbe, 0x28, 0xc0, 0x0a, 0x3e, 0xe4, 0x68, 0x7d, 0x3e, 0x6f, 0x01, 0x46, 0xbe, 0xf8, 0xcb, 0x6a, 0x3e, 0x4f, 0x18, 0x1a, 0xbe, 0x4f, 0xa2, 0xaa, 0xba, 0x08, 0x93, 0x28, 0x3e, 0x30, 0x9a, 0x5b, 0x3e, 0x84, 0xd3, 0xf5, 0xbd, 0x0a, 0x7f, 0x75, 0xbe, 0x60, 0xc0, 0xe3, 0x3c, 0xa0, 0xf2, 0x52, 0xbd, 0x44, 0x24, 0x52, 0x3e, 0xcd, 0xc2, 0xe9, 0xbd, 0x30, 0xf0, 0x15, 0xbd, 0x8f, 0x30, 0x5a, 0x3d, 0x86, 0xc4, 0x2e, 0x3e, 0xc8, 0x20, 0x9f, 0xbd, 0x40, 0x17, 0x1c, 0x3d, 0x63, 0x8c, 0x13, 0xbd, 0xd8, 0x0e, 0xe1, 0xbd, 0x28, 0x0e, 0x46, 0x3e, 0xf4, 0xd0, 0x3c, 0x3e, 0x8a, 0x17, 0xbd, 0x3d, 0x1a, 0x4c, 0xd6, 0x3a, 0x70, 0x7f, 0x15, 0xbe, 0x40, 0x92, 0x98, 0xbc, 0x04, 0x7d, 0x63, 0x3e, 0x00, 0x82, 0x37, 0x3b, 0x58, 0x1a, 0x32, 0x3e, 0x00, 0x33, 0xa8, 0xbb, 0x24, 0x7d, 0x55, 0x3e, 0x64, 0x06, 0x3e, 0xbe, 0xa0, 0xe8, 0x48, 0xbd, 0xcc, 0x2b, 0x00, 0xbe, 0xb0, 0x69, 0x3c, 0xbe, 0x24, 0xc3, 0x7f, 0xbe, 0xc0, 0xb1, 0x34, 0xbd, 0x24, 0xe8, 0x18, 0xbe, 0x20, 0x69, 0x99, 0xbd, 0x34, 0x84, 0x3b, 0xbe, 0xe0, 0x77, 0x3c, 0x3e, 0x70, 0x9e, 0x6b, 0x3d, 0xb0, 0xa7, 0xf2, 0xbd, 0x94, 0xcd, 0x1c, 0x3e, 0x74, 0xc2, 0x4e, 0xbe, 0x58, 0xd4, 0x9a, 0xbd, 0x10, 0xcb, 0x6e, 0xbd, 0x00, 0x49, 0x36, 0x3e, 0xa0, 0x43, 0xf9, 0x3c, 0x40, 0xcd, 0x9e, 0xbd, 0x30, 0x37, 0xbf, 0xbd, 0x78, 0xc7, 0xf2, 0x3d, 0x90, 0xd9, 0x81, 0x3d, 0x68, 0x01, 0x46, 0x3e, 0x98, 0xb0, 0xd5, 0xbd, 0x68, 0xd1, 0x33, 0xbe, 0x48, 0x29, 0xbe, 0xbd, 0x78, 0xa9, 0xdf, 0x3d, 0x30, 0x8b, 0xa8, 0x3d, 0x7c, 0x87, 0x1a, 0xbe, 0x78, 0xe6, 0xa4, 0x3d, 0x80, 0x9e, 0x4f, 0x3d, 0xc0, 0xa2, 0x0a, 0x3c, 0xe0, 0x4c, 0x2c, 0x3d, 0x40, 0xa9, 0x6b, 0xbc, 0x44, 0xa0, 0x2f, 0x3e, 0xb0, 0x2a, 0x9e, 0x3d, 0x34, 0xb8, 0x48, 0xbe, 0xc4, 0x41, 0x1d, 0xbe, 0x60, 0xf8, 0x1a, 0xbe, 0x84, 0xbe, 0x42, 0x3e, 0x00, 0xca, 0xc7, 0x3a, 0x40, 0x44, 0x3b, 0x3e, 0xac, 0x7e, 0x14, 0x3e, 0x80, 0xd8, 0xff, 0xbb, 0xc0, 0x7e, 0xe6, 0x3d, 0x10, 0xb7, 0x6c, 0x3d, 0xd8, 0x9d, 0xd7, 0x3d, 0x1c, 0x91, 0x6b, 0x3e, 0xc4, 0xd7, 0x3f, 0x3e, 0x74, 0x69, 0x26, 0x3e, 0x80, 0x39, 0x53, 0xbd, 0x80, 0x62, 0x36, 0xbe, 0x68, 0x62, 0xe0, 0x3d, 0xd8, 0x2b, 0xcd, 0xbd, 0x88, 0xa5, 0x9c, 0x3d, 0x70, 0x8f, 0x37, 0x3d, 0x58, 0xae, 0xf6, 0xbd, 0x58, 0xf8, 0x73, 0x3e, 0xe3, 0x24, 0x1d, 0xbe, 0x40, 0x5a, 0xc4, 0x3c, 0xa1, 0xcc, 0x15, 0x3e, 0x0c, 0xe1, 0x2a, 0xbe, 0x93, 0xd3, 0xa5, 0xbd, 0x0f, 0x0b, 0x34, 0xbd, 0xa8, 0x5b, 0x32, 0xbe, 0x73, 0x91, 0x22, 0x3c, 0xd0, 0x2a, 0xfc, 0xbd, 0xdd, 0xd5, 0x4f, 0xbe, 0xdc, 0x42, 0x60, 0xbe, 0xae, 0x70, 0x1c, 0xbe, 0xba, 0xc8, 0x0a, 0xbe, 0x3b, 0xff, 0x8b, 0xbd, 0x62, 0xad, 0x66, 0x3d, 0xb4, 0xa5, 0x05, 0xbe, 0x30, 0xe4, 0xd5, 0xbd, 0xef, 0x22, 0xed, 0x3b, 0x1b, 0x01, 0xd6, 0x3c, 0x60, 0x19, 0x9e, 0xbd, 0xdc, 0x5f, 0x03, 0x3e, 0x62, 0xc9, 0x15, 0x3e, 0x00, 0xee, 0x38, 0x3c, 0xe4, 0x02, 0xf0, 0x3d, 0xf0, 0x8e, 0x14, 0xbe, 0xd7, 0x77, 0x3c, 0x3e, 0x68, 0x67, 0xff, 0x3d, 0x40, 0x78, 0x23, 0xbe, 0xb0, 0x4b, 0xe8, 0xbd, 0xaa, 0x9b, 0xd6, 0xbd, 0x0e, 0xdb, 0xbd, 0x3d, 0x8f, 0x99, 0x0c, 0x3e, 0xc3, 0xab, 0x51, 0x3e, 0xcd, 0x78, 0x70, 0x3e, 0xe3, 0x29, 0x2b, 0x3e, 0x06, 0x84, 0x9f, 0xbd, 0x2a, 0x37, 0x03, 0xbe, 0x48, 0x0e, 0xd4, 0x3d, 0x00, 0x64, 0x66, 0xbd, 0xa7, 0x4d, 0x52, 0x3e, 0x7c, 0x7d, 0x58, 0x3d, 0x40, 0x3c, 0x85, 0x3c, 0x09, 0xc5, 0x55, 0xbd, 0x69, 0x8b, 0xda, 0xbd, 0x50, 0xe4, 0x34, 0x3e, 0x14, 0x0a, 0xa5, 0xbd, 0x4e, 0x22, 0xae, 0x3d, 0xc8, 0x99, 0xb7, 0xbd, 0xe4, 0x7f, 0x62, 0xbe, 0xa8, 0xef, 0x37, 0xbe, 0x50, 0x11, 0xe7, 0xbd, 0x67, 0x1b, 0x3f, 0x3e, 0x00, 0x4c, 0xbe, 0x3a, 0x96, 0x2e, 0x7d, 0xbe, 0x1a, 0x91, 0x28, 0x3e, 0xf8, 0x86, 0x39, 0xbe, 0xbc, 0x4d, 0x33, 0x3e, 0xfb, 0xf0, 0x7a, 0x3e, 0x40, 0xf1, 0xe7, 0xbd, 0x24, 0x0b, 0x5d, 0x3e, 0x48, 0x7d, 0x5e, 0xbe, 0x60, 0x32, 0xd0, 0x3d, 0x75, 0x10, 0x1d, 0xbe, 0x1e, 0x77, 0x08, 0xbd, 0x57, 0x15, 0x7a, 0xbd, 0x0c, 0xcd, 0x51, 0xbe, 0x74, 0xad, 0x34, 0x3e, 0xf8, 0x45, 0x22, 0x3e, 0xee, 0xaf, 0xbd, 0xb9, 0xf8, 0xfa, 0xbb, 0x3d, 0xc8, 0x98, 0x97, 0xbd, 0x9f, 0x93, 0xe7, 0xbb, 0x1a, 0xe8, 0x48, 0xbd, 0xa0, 0xc6, 0x85, 0xbe, 0x14, 0xea, 0xec, 0xbd, 0x8d, 0xed, 0xb5, 0x3b, 0xee, 0x6d, 0xde, 0xbd, 0x3a, 0x90, 0x0e, 0x3d, 0xd0, 0xf3, 0x37, 0xbe, 0x40, 0x2d, 0x2f, 0x3e, 0x00, 0x67, 0x72, 0xbd, 0x3b, 0x09, 0x26, 0x3e, 0x66, 0x10, 0x18, 0xbe, 0x5e, 0xe0, 0x6d, 0xbd, 0xdc, 0x68, 0x58, 0xbe, 0x8d, 0x11, 0xa7, 0x3d, 0x50, 0x18, 0xc7, 0x3d, 0xfa, 0xea, 0x42, 0xbe, 0x00, 0xd8, 0xbe, 0x3c, 0x8e, 0x4b, 0x75, 0x3e, 0x80, 0x9c, 0xd3, 0xbd, 0x7f, 0xba, 0x7f, 0x3d, 0xfa, 0xb4, 0xe4, 0x3c, 0x73, 0x3e, 0x69, 0x3d, 0x49, 0xae, 0xff, 0xbd, 0x66, 0x47, 0x23, 0xbe, 0xe5, 0x43, 0xc3, 0x3b, 0x55, 0x76, 0x80, 0x3d, 0xbb, 0x88, 0xe2, 0x3b, 0xa9, 0xae, 0x80, 0x3d, 0x91, 0xee, 0x57, 0x3e, 0x58, 0x1e, 0x72, 0x3d, 0x40, 0x02, 0x34, 0x3c, 0x83, 0x95, 0xcc, 0x3d, 0x14, 0x4d, 0xcc, 0xbd, 0x9c, 0xec, 0x29, 0xbe, 0x39, 0xba, 0x06, 0x3d, 0x9b, 0x0f, 0xee, 0x3d, 0xc4, 0x82, 0x4c, 0xbe, 0x5f, 0xda, 0xf6, 0xbc, 0xe5, 0x1c, 0x2d, 0x3e, 0xf5, 0xae, 0xcd, 0x3d, 0xcc, 0x6f, 0x7d, 0x3e, 0xc0, 0xb8, 0x64, 0xbd, 0xb8, 0x3a, 0x6c, 0xbe, 0xf9, 0x8c, 0x05, 0x3d, 0x00, 0x76, 0xc4, 0xbc, 0x28, 0x05, 0x3d, 0x3c, 0x2b, 0x0f, 0x18, 0x3e, 0x80, 0x54, 0x1d, 0xbe, 0x40, 0x21, 0xf6, 0xbc, 0xe2, 0x8b, 0x9a, 0x3d, 0x4c, 0xf8, 0x6c, 0x3e, 0xa8, 0x28, 0x0b, 0x3e, 0xf0, 0x6a, 0x0a, 0xbe, 0x6f, 0x61, 0x8d, 0x3d, 0x46, 0x3b, 0x20, 0x3e, 0x60, 0xf3, 0xd5, 0xbc, 0x58, 0x4b, 0x28, 0xbe, 0x8c, 0x03, 0x6b, 0xbe, 0xf0, 0x2a, 0x13, 0x3d, 0x38, 0x0b, 0x98, 0x3d, 0xd0, 0x4d, 0x54, 0xbe, 0xb0, 0x6f, 0xe8, 0x3d, 0x10, 0x9e, 0xde, 0xbd, 0xc0, 0xed, 0x4d, 0xbe, 0x38, 0x57, 0xc5, 0x3d, 0x40, 0xba, 0x9a, 0xbc, 0x00, 0xf0, 0x39, 0x3a, 0xc4, 0x34, 0x21, 0xbe, 0xe0, 0x82, 0x51, 0xbd, 0x4c, 0x5a, 0x65, 0x3e, 0x8c, 0xde, 0x43, 0xbe, 0x30, 0xe1, 0xb3, 0xbd, 0xcc, 0xd2, 0x47, 0xbe, 0xe0, 0x51, 0x96, 0xbc, 0x00, 0x69, 0x29, 0xbd, 0xc0, 0xa7, 0x5f, 0xbd, 0x30, 0xb4, 0x7d, 0xbd, 0x00, 0xf1, 0x35, 0xbc, 0xa0, 0x74, 0x07, 0x3e, 0xe0, 0x03, 0x68, 0x3e, 0x3c, 0xc5, 0x09, 0x3e, 0xc0, 0xa5, 0x7e, 0x3c, 0x70, 0xb3, 0x6d, 0x3d, 0x88, 0x0f, 0x78, 0x3e, 0xcc, 0x07, 0x0d, 0xbe, 0x00, 0x88, 0xa5, 0xbc, 0x80, 0xea, 0x02, 0x3c, 0xc4, 0xd3, 0x17, 0x3e, 0xa0, 0x37, 0x5d, 0xbe, 0x58, 0x2b, 0xc4, 0xbd, 0x4c, 0xbb, 0x1d, 0xbe, 0x48, 0x79, 0xbb, 0x3d, 0x1c, 0x00, 0x3b, 0xbe, 0xc8, 0xb0, 0xd4, 0xbd, 0x98, 0xc3, 0xdd, 0x3d, 0xcc, 0x0b, 0x6c, 0xbe, 0x70, 0x82, 0xe7, 0xbd, 0x54, 0xcb, 0x21, 0x3e, 0x50, 0x10, 0x83, 0x3d, 0x64, 0xa2, 0x56, 0x3e, 0x28, 0xdf, 0xd1, 0xbd, 0x30, 0xc2, 0x02, 0x3d, 0x98, 0x04, 0x52, 0xbe, 0xa0, 0x06, 0xe4, 0x3c, 0x80, 0x3c, 0x8b, 0xbd, 0xd0, 0xbd, 0x0a, 0xbd, 0x00, 0xf1, 0xc3, 0xbb, 0xf0, 0x14, 0x1d, 0x3d, 0x2c, 0xbd, 0x57, 0x3e, 0xbc, 0x1c, 0x4e, 0xbe, 0x40, 0x5a, 0xb5, 0xbc, 0x00, 0xec, 0xe7, 0x3a, 0x70, 0x1f, 0x46, 0xbd, 0x70, 0x37, 0x44, 0xbd, 0x60, 0xa4, 0x1f, 0xbd, 0x68, 0x1b, 0x39, 0x3e, 0x3c, 0xc4, 0x19, 0x3e, 0xfc, 0x09, 0x51, 0x3e, 0x40, 0x76, 0x9a, 0xbc, 0x90, 0xf7, 0x35, 0xbe, 0xf2, 0xa1, 0x07, 0xbe, 0x88, 0xc3, 0x0a, 0x3e, 0x82, 0xbe, 0x11, 0x3d, 0xf4, 0x26, 0x77, 0xbe, 0xc6, 0xd3, 0x99, 0xbd, 0x21, 0xa3, 0xc9, 0x3d, 0xec, 0x9c, 0x78, 0xbe, 0x76, 0x10, 0x0b, 0x3d, 0x42, 0x8a, 0xfc, 0x3d, 0xcb, 0x5a, 0x29, 0x3e, 0x42, 0x5d, 0x69, 0x3e, 0xcd, 0x76, 0x17, 0xbd, 0x4c, 0x99, 0x55, 0x3e, 0xcf, 0x01, 0x68, 0xbd, 0xae, 0x0a, 0x65, 0x3d, 0x88, 0xdb, 0x90, 0xbd, 0xa4, 0x41, 0x6c, 0xbe, 0xef, 0x83, 0x88, 0x3c, 0xcb, 0x80, 0x1a, 0x3e, 0x12, 0xb8, 0x29, 0xbc, 0xc3, 0xee, 0x58, 0x3b, 0x5b, 0xe6, 0x9d, 0xbd, 0x28, 0x7d, 0x7d, 0x3e, 0x7d, 0x0f, 0xba, 0xbd, 0x24, 0x2f, 0x2f, 0x3e, 0xf2, 0xe2, 0xdf, 0x3d, 0x20, 0x96, 0x9b, 0x3d, 0x43, 0xc7, 0x7c, 0xbe, 0x33, 0x05, 0x4b, 0xbe, 0xff, 0x1a, 0x97, 0x3c, 0xf5, 0xa1, 0x34, 0xbe, 0xd6, 0x9e, 0x6d, 0xbe, 0xb4, 0x9c, 0x61, 0x3e, 0xc2, 0xad, 0x28, 0xbe, 0xc1, 0xbd, 0x83, 0x3c, 0x8d, 0x92, 0xb2, 0xbd, 0x71, 0x2a, 0x50, 0xbe, 0x9f, 0x6e, 0x62, 0x3e, 0xc0, 0x4e, 0xf4, 0x3d, 0x7c, 0xb3, 0x82, 0xbc, 0xf8, 0x5a, 0xa8, 0x3b, 0x10, 0x69, 0x56, 0x3d, 0x9c, 0xc1, 0x0a, 0x3e, 0x8b, 0x84, 0xfe, 0x3d, 0x00, 0x57, 0x62, 0x3d, 0x28, 0x5c, 0xd3, 0xbd, 0x34, 0x88, 0x74, 0x3e, 0x18, 0x22, 0x58, 0xbe, 0x9c, 0xb1, 0x21, 0xbe, 0xa0, 0x20, 0x0e, 0xbd, 0x10, 0x8b, 0xca, 0x3d, 0x63, 0xfd, 0x3b, 0x3e, 0x98, 0x34, 0x9d, 0x3d, 0x29, 0xf9, 0x9f, 0xbe, 0xa7, 0x45, 0x3c, 0x3d, 0xb0, 0x0e, 0x63, 0x3d, 0x48, 0xa6, 0x95, 0xbd, 0xa9, 0x30, 0x54, 0xbe, 0xa0, 0xad, 0x3f, 0x3e, 0x1c, 0x81, 0x76, 0xbe, 0xc0, 0x97, 0x51, 0xbc, 0xd7, 0x48, 0x4a, 0x3c, 0x6b, 0xd2, 0x7a, 0x3e, 0x1a, 0xf8, 0x38, 0x3e, 0x22, 0x39, 0x0a, 0x3e, 0x68, 0x11, 0x6d, 0x3e, 0x53, 0x73, 0x00, 0xbd, 0xf8, 0x99, 0x91, 0x3d, 0xc6, 0xf6, 0x16, 0xbe, 0xdc, 0x1a, 0x83, 0x3d, 0x80, 0x6d, 0xff, 0xbc, 0x5d, 0x43, 0x56, 0x3e, 0x00, 0x29, 0x86, 0x3d, 0x0a, 0xb9, 0xef, 0xbd, 0xd1, 0x07, 0x6b, 0x3e, 0x54, 0x10, 0xe3, 0xbd, 0x83, 0x5f, 0x1f, 0x3e, 0x96, 0xda, 0xa9, 0xbd, 0xbc, 0xda, 0xf3, 0xbc, 0x80, 0xbe, 0x37, 0x3e, 0xc0, 0x91, 0xfc, 0x3d, 0xba, 0x23, 0x7f, 0xbe, 0x19, 0x29, 0x06, 0x3e, 0x2d, 0x84, 0x2e, 0x3e, 0x61, 0xc3, 0xc4, 0x3d, 0xad, 0x40, 0x77, 0x3d, 0xf8, 0x9c, 0x23, 0xbe, 0xc2, 0x5e, 0x03, 0x3e, 0xd0, 0x2e, 0x68, 0x3e, 0xef, 0x59, 0xe2, 0x3d, 0x80, 0x98, 0x77, 0x3c, 0x7d, 0xdc, 0xfe, 0xbd, 0xdf, 0x1f, 0x7d, 0x3d, 0xb0, 0xde, 0x22, 0xbd, 0xd1, 0x5b, 0x4b, 0xbe, 0x83, 0x8e, 0x03, 0x3e, 0xfe, 0x3c, 0x41, 0xbd, 0xe9, 0x79, 0x50, 0xbd, 0x01, 0xf0, 0xbf, 0xbd, 0xa9, 0xea, 0x0c, 0x3e, 0x4f, 0x03, 0x73, 0xbe, 0x3b, 0xc3, 0x1c, 0x3e, 0xe0, 0x07, 0x74, 0xbd, 0x14, 0xb8, 0x47, 0xbe, 0xf9, 0x68, 0xc5, 0xbd, 0x90, 0x5b, 0x39, 0xbd, 0xfb, 0x52, 0x30, 0x3d, 0xa3, 0x8d, 0x4b, 0xbe, 0xc0, 0xf4, 0x68, 0x3e, 0x82, 0x19, 0x42, 0x3c, 0x4f, 0xd9, 0x12, 0x3e, 0xd4, 0xb3, 0x87, 0xbd, 0x4c, 0xad, 0x7f, 0x3e, 0x98, 0x2a, 0x3d, 0x3e, 0x10, 0x76, 0x4b, 0xbe, 0x84, 0x0b, 0x77, 0x3e, 0x40, 0xbb, 0x73, 0xbe, 0x85, 0xdc, 0x1e, 0xbe, 0x6a, 0x4d, 0x6b, 0xbe, 0x7c, 0x70, 0x3e, 0x3e, 0x28, 0xc2, 0x4e, 0xbe, 0x47, 0x62, 0xe4, 0x3b, 0xc0, 0x43, 0x7f, 0xbd, 0xbc, 0xb2, 0x1e, 0xbe, 0x0c, 0x89, 0x0b, 0xbe, 0xb7, 0xd2, 0xf5, 0x3d, 0xce, 0x37, 0xb3, 0xba, 0xb1, 0xc7, 0xb9, 0x3d, 0xe0, 0xe8, 0x57, 0xbe, 0x6c, 0xbb, 0x09, 0xbe, 0x60, 0xfc, 0x5a, 0xbe, 0xc8, 0x45, 0x7e, 0x3e, 0xc0, 0x6b, 0x5d, 0x3c, 0x48, 0x65, 0x78, 0x3e, 0x88, 0x8b, 0x1d, 0xbe, 0xd8, 0x1f, 0xe8, 0xbd, 0x80, 0x18, 0x40, 0xbc, 0xb4, 0x10, 0x70, 0x3e, 0x94, 0x60, 0x73, 0x3e, 0x10, 0x2f, 0x78, 0xbe, 0x18, 0x42, 0x4a, 0x3e, 0xd0, 0xc9, 0x55, 0xbe, 0x60, 0x29, 0xa8, 0xbc, 0xbc, 0x3c, 0x61, 0x3e, 0x00, 0x69, 0x20, 0x3b, 0xc0, 0xb3, 0x56, 0xbe, 0xdc, 0x43, 0x5c, 0x3e, 0x18, 0x4d, 0x41, 0xbe, 0xb8, 0x04, 0xec, 0x3d, 0x20, 0x22, 0x8d, 0x3d, 0x7c, 0xf6, 0x7b, 0xbe, 0x48, 0x03, 0xf2, 0x3d, 0x20, 0x98, 0xe6, 0xbc, 0x08, 0x7f, 0xb8, 0xbd, 0xa0, 0xd3, 0xf3, 0x3c, 0xc8, 0x74, 0xb2, 0xbd, 0x40, 0xb9, 0xe5, 0xbd, 0xb8, 0x82, 0xe3, 0x3d, 0xf4, 0x9f, 0x05, 0xbe, 0xc0, 0xcd, 0x07, 0x3c, 0xe8, 0xfe, 0xbd, 0x3d, 0x50, 0x5f, 0xbc, 0xbd, 0x00, 0x7b, 0x69, 0xbe, 0xe0, 0xc3, 0xde, 0xbc, 0x88, 0x9d, 0x80, 0xbd, 0x68, 0x0b, 0x7d, 0xbe, 0xa0, 0x8f, 0xea, 0xbc, 0x2c, 0xfc, 0x2f, 0x3e, 0x98, 0xb0, 0xb9, 0x3d, 0x8c, 0x1f, 0x6d, 0xbe, 0xe4, 0x0c, 0x16, 0xbe, 0x1c, 0x29, 0x52, 0xbe, 0x28, 0x40, 0xa8, 0x3d, 0xb0, 0x28, 0x03, 0x3e, 0xb8, 0xca, 0xf4, 0xbd, 0x9c, 0x4b, 0x32, 0xbe, 0x68, 0xbf, 0x7d, 0xbe, 0xa0, 0xe1, 0x8f, 0x3c, 0x2c, 0x49, 0x0a, 0xbe, 0x00, 0xbd, 0xf4, 0xbd, 0x14, 0xc4, 0x3f, 0x3e, 0xa0, 0x27, 0x59, 0xbd, 0x34, 0x26, 0x16, 0xbe, 0xd8, 0xff, 0xe6, 0xbd, 0x44, 0xad, 0x34, 0xbe, 0xd8, 0xcc, 0x4c, 0x3e, 0xa4, 0x73, 0x00, 0x3e, 0x40, 0xb2, 0x1b, 0x3d, 0xa8, 0xc0, 0x14, 0xbe, 0x2c, 0xef, 0x26, 0x3e, 0x00, 0x83, 0x38, 0xbe, 0x04, 0xc2, 0x20, 0xbe, 0xcc, 0xbf, 0x22, 0xbe, 0x60, 0x17, 0xa7, 0xbc, 0x98, 0x32, 0xe9, 0xbd, 0x40, 0x82, 0x54, 0xbe, 0xd4, 0x76, 0x6d, 0xbe, 0xd4, 0x5f, 0x4b, 0xbe, 0xe0, 0x57, 0xd6, 0x3c, 0x44, 0x5a, 0x36, 0xbe, 0x50, 0xbe, 0xc3, 0xbd, 0x48, 0x7b, 0x74, 0x3e, 0x00, 0x36, 0x14, 0xbb, 0x7c, 0xc7, 0x05, 0xbe, 0x94, 0xb8, 0x0d, 0xbe, 0xac, 0x7f, 0x66, 0x3e, 0x10, 0x47, 0xb1, 0x3d, 0x10, 0xe0, 0x31, 0xbe, 0xac, 0x94, 0x73, 0x3e, 0x3c, 0x53, 0x0f, 0x3e, 0x68, 0x4c, 0x6f, 0x3e, 0x70, 0x3e, 0xb0, 0xbd, 0xe8, 0x32, 0xb1, 0xbd, 0xd4, 0x57, 0x6d, 0x3e, 0xac, 0x01, 0x4a, 0x3e, 0xe0, 0x39, 0x23, 0x3e, 0x14, 0xf0, 0x30, 0x3e, 0x40, 0x13, 0xe5, 0x3d, 0x4c, 0x37, 0x27, 0xbe, 0xcc, 0xa7, 0x05, 0xbe, 0x88, 0xf0, 0x41, 0x3e, 0xa4, 0x65, 0x0d, 0x3e, 0xac, 0xba, 0x48, 0xbe, 0xe0, 0x60, 0x7d, 0xbe, 0x44, 0xf6, 0x40, 0x3e, 0xd0, 0x05, 0x01, 0xbe, 0xe0, 0xaa, 0x26, 0x3d, 0x70, 0xe4, 0x28, 0xbe, 0x90, 0x9a, 0xa0, 0xbd, 0x68, 0xa7, 0xfb, 0xbd, 0x24, 0x10, 0x57, 0x3e, 0xe8, 0x78, 0x6f, 0xbe, 0x90, 0x16, 0x43, 0xbd, 0xc0, 0x44, 0x29, 0xbc, 0xe0, 0xd6, 0xf9, 0x3c, 0x80, 0xf6, 0xf8, 0xbc, 0x78, 0x46, 0xb7, 0x3d, 0xc8, 0xfe, 0xa8, 0x3d, 0x9c, 0xf3, 0x6e, 0x3e, 0x60, 0x3f, 0x43, 0xbe, 0x1c, 0x88, 0x7d, 0x3e, 0x6c, 0x35, 0x08, 0x3e, 0xe0, 0x83, 0xd0, 0xbc, 0x00, 0x7c, 0x79, 0x3c, 0x44, 0xb4, 0x45, 0xbe, 0x18, 0xd2, 0x6b, 0xbe, 0x60, 0x8e, 0xb0, 0x3c, 0x40, 0x0b, 0x70, 0xbc, 0x20, 0x8a, 0xee, 0xbd, 0xa8, 0xa5, 0x23, 0x3e, 0x40, 0x9d, 0x7d, 0xbc, 0x08, 0x27, 0x86, 0x3d, 0xec, 0x29, 0x3d, 0xbe, 0x38, 0x3c, 0x20, 0x3e, 0x70, 0xb9, 0x7a, 0x3e, 0x78, 0xc5, 0x4b, 0xbe, 0xfa, 0x9b, 0x5c, 0xbe, 0x5c, 0x73, 0x6b, 0x3e, 0xf4, 0xf9, 0x26, 0x3e, 0x90, 0x28, 0xd6, 0x3d, 0xdc, 0x61, 0x54, 0x3e, 0x71, 0x10, 0xaf, 0x3d, 0x70, 0xdb, 0x62, 0xbd, 0x90, 0x8e, 0x19, 0x3d, 0x70, 0xff, 0x80, 0xbe, 0xee, 0xfc, 0x74, 0x3d, 0x12, 0xce, 0x0f, 0x3e, 0xa8, 0x84, 0x21, 0x3e, 0xeb, 0x79, 0x68, 0x3e, 0x03, 0x49, 0x66, 0xbe, 0x73, 0x1f, 0xd4, 0x3d, 0xb4, 0x47, 0x61, 0x3e, 0x9c, 0xea, 0x43, 0x3e, 0x7f, 0xef, 0x77, 0xbe, 0x22, 0x97, 0xcd, 0x3d, 0xd5, 0xdf, 0x8a, 0xbd, 0x3f, 0x4f, 0x48, 0xbc, 0x47, 0xb4, 0x65, 0xbe, 0xd0, 0xe7, 0x78, 0xbd, 0x97, 0x18, 0x5e, 0xbe, 0x28, 0xce, 0x7f, 0x3e, 0x8b, 0xfd, 0xc6, 0xbd, 0xe0, 0x74, 0xbd, 0xbc, 0x44, 0xb6, 0xef, 0x3d, 0x4a, 0x67, 0x1b, 0xbe, 0xb3, 0x43, 0x21, 0xbe, 0x76, 0x87, 0x50, 0x3e, 0x8f, 0x19, 0x42, 0x3e, 0xce, 0x73, 0xb1, 0xbd, 0x26, 0xc4, 0x57, 0x3e, 0xb5, 0xc7, 0x3d, 0x3e, 0x00, 0xd8, 0x3f, 0x3e, 0xae, 0x6c, 0x51, 0x3e, 0x1f, 0x7b, 0x5c, 0x3d, 0x28, 0x56, 0x60, 0x3e, 0x80, 0x1a, 0x95, 0xbd, 0xbe, 0xfe, 0x74, 0xbe, 0xd0, 0xe2, 0xf9, 0x3d, 0x4f, 0xca, 0x2b, 0xbe, 0x07, 0xe8, 0x9f, 0x3d, 0x70, 0x58, 0x7d, 0x3e, 0x23, 0x37, 0x57, 0xbe, 0x5e, 0x67, 0x12, 0xbe, 0x60, 0xd8, 0x05, 0xbe, 0xd4, 0x12, 0x5b, 0x3e, 0xe4, 0x29, 0x56, 0x3e, 0x30, 0xfa, 0x10, 0x3e, 0x22, 0x1d, 0x95, 0xbd, 0xa8, 0x6d, 0x63, 0x3e, 0xc0, 0xc4, 0xd4, 0x3c, 0x3a, 0xfd, 0x1a, 0x3d, 0xd0, 0xfb, 0x1a, 0x3e, 0x10, 0x19, 0x08, 0x3d, 0x24, 0xaf, 0x74, 0x3e, 0xc8, 0xd9, 0xf4, 0x3d, 0x18, 0xfe, 0x86, 0x3d, 0xb0, 0x3b, 0x0b, 0xbd, 0x41, 0xaa, 0xaa, 0x3d, 0x98, 0x6e, 0xfe, 0x3c, 0x5f, 0x9e, 0x10, 0xbe, 0x80, 0x8f, 0xc3, 0x3c, 0xe8, 0xb1, 0xd9, 0x3d, 0xc0, 0x4e, 0x7e, 0xbc, 0x40, 0xf9, 0xcd, 0x3c, 0xf8, 0x36, 0x4d, 0x3e, 0xf0, 0x00, 0x67, 0x3d, 0x98, 0xbc, 0xbc, 0x3d, 0xf8, 0xce, 0x68, 0x3e, 0x60, 0x1c, 0xa4, 0xbd, 0xa4, 0x8e, 0x3d, 0x3e, 0x60, 0xdb, 0x5c, 0xbe, 0x64, 0xda, 0x33, 0x3e, 0x10, 0xbb, 0x4c, 0x3d, 0x70, 0x14, 0x5a, 0xbe, 0xb8, 0x2e, 0xf0, 0x3d, 0x98, 0x5f, 0x5e, 0x3e, 0x50, 0x8d, 0x22, 0xbe, 0x60, 0xc0, 0x76, 0x3d, 0xe8, 0x38, 0x85, 0xbd, 0x08, 0xc7, 0xee, 0xbd, 0x20, 0xd9, 0xef, 0x3c, 0x98, 0x94, 0x46, 0xbe, 0xa8, 0xcf, 0xce, 0xbd, 0x10, 0xd7, 0x4a, 0xbe, 0xc8, 0xd4, 0x85, 0xbd, 0x54, 0x77, 0x08, 0x3e, 0xec, 0x54, 0x62, 0xbe, 0xa4, 0x13, 0x51, 0xbe, 0xc0, 0x74, 0xa5, 0x3d, 0xbc, 0x3e, 0x33, 0xbe, 0x10, 0x49, 0x0c, 0x3d, 0xe4, 0xd1, 0x38, 0x3e, 0x30, 0x7c, 0x1f, 0xbe, 0x10, 0x0a, 0x01, 0xbe, 0x10, 0xd4, 0xf8, 0xbd, 0x60, 0x3c, 0x1a, 0xbd, 0x40, 0xef, 0x0f, 0x3c, 0x60, 0x5e, 0x03, 0x3d, 0xf0, 0xc6, 0x33, 0x3e, 0xdc, 0x5a, 0x22, 0xbe, 0x40, 0x8e, 0xe2, 0x3d, 0x40, 0x48, 0xad, 0x3d, 0x10, 0x10, 0xd9, 0xbd, 0x88, 0xb7, 0xea, 0x3d, 0x60, 0x01, 0x65, 0xbd, 0xd0, 0xf0, 0xe1, 0xbd, 0x84, 0x4e, 0x7d, 0xbe, 0xc0, 0xa5, 0x1d, 0xbc, 0x74, 0xce, 0x40, 0x3e, 0x00, 0x1b, 0x39, 0x3d, 0xc0, 0x68, 0x46, 0xbc, 0xf8, 0x74, 0x3d, 0x3e, 0xa0, 0x0f, 0x91, 0x3d, 0x28, 0x9b, 0xb5, 0xbd, 0xd0, 0x5a, 0xca, 0x3d, 0xf8, 0x50, 0xdd, 0x3d, 0x88, 0x0a, 0xda, 0x3d, 0x30, 0x4d, 0x33, 0x3d, 0x50, 0x92, 0x6e, 0xbe, 0xa8, 0x3e, 0x97, 0xbd, 0x74, 0xa4, 0x6e, 0xbe, 0xa4, 0x95, 0x3b, 0x3e, 0x60, 0x7c, 0xb5, 0xbc, 0xc0, 0x83, 0x2f, 0xbc, 0x24, 0x4f, 0xf5, 0x3d, 0xc4, 0xba, 0x54, 0x3e, 0xe5, 0xa5, 0x6d, 0xbe, 0xc4, 0x68, 0x4c, 0xbe, 0x70, 0x16, 0xf3, 0xbd, 0x08, 0xbe, 0x20, 0x3e, 0x00, 0x82, 0xe8, 0xbc, 0x60, 0x27, 0xe8, 0x3c, 0x89, 0x18, 0xc3, 0xba, 0x37, 0x70, 0x3e, 0x3e, 0x06, 0x62, 0xb3, 0xbd, 0x36, 0x85, 0x6a, 0x3e, 0x70, 0x22, 0x1b, 0x3e, 0x3f, 0x9e, 0x04, 0xbe, 0x4e, 0x26, 0x27, 0x3e, 0x50, 0x64, 0x4a, 0xbd, 0xd8, 0xf1, 0x20, 0x3e, 0xc8, 0xe8, 0x79, 0xbe, 0x86, 0x61, 0x8a, 0x3c, 0xbb, 0x77, 0x43, 0x3e, 0xf9, 0xcc, 0x17, 0xbe, 0x9c, 0x21, 0x5f, 0xbe, 0xe8, 0x7b, 0xd3, 0x3d, 0xf3, 0xf9, 0x11, 0xbd, 0x1c, 0x24, 0x30, 0xbe, 0x8a, 0x45, 0x82, 0xbe, 0xc0, 0x3d, 0x77, 0x3d, 0xf5, 0xe7, 0x2c, 0xbe, 0xb9, 0x47, 0x5c, 0x3e, 0x9a, 0x67, 0x08, 0x3c, 0x7e, 0xad, 0x8f, 0xbd, 0x34, 0xe0, 0x59, 0xbe, 0xe3, 0xd1, 0xfe, 0xbd, 0x57, 0xc2, 0xc2, 0x3c, 0xad, 0x11, 0xcc, 0xbc, 0xf8, 0xe5, 0x8f, 0x3d, 0xda, 0xd4, 0xb4, 0x3d, 0xc7, 0x83, 0xa9, 0xbc, 0x00, 0x47, 0xde, 0x3b, 0x60, 0x34, 0x7c, 0xbe, 0xed, 0x13, 0xfb, 0xbd, 0xd4, 0xd0, 0x7c, 0xbe, 0x55, 0x49, 0xdf, 0x3d, 0x9c, 0x7d, 0x16, 0xbe, 0xd4, 0xe9, 0x6c, 0x3e, 0x27, 0x53, 0xf1, 0xbd, 0xfb, 0x03, 0x14, 0x3e, 0xec, 0xfe, 0x62, 0xbe, 0x68, 0xeb, 0xd4, 0x3d, 0x70, 0x7a, 0xf1, 0xbd, 0x00, 0xe3, 0x02, 0xbe, 0xbe, 0x52, 0x57, 0xbc, 0x78, 0x8c, 0x5d, 0xbe, 0xf0, 0x94, 0x58, 0x3d, 0xd9, 0xb9, 0x50, 0x3d, 0xc0, 0xf8, 0x8b, 0xbd, 0xf8, 0x83, 0x1e, 0x3e, 0xc7, 0xe3, 0xa7, 0x3d, 0x78, 0xef, 0xb2, 0x3d, 0xfc, 0x4a, 0x46, 0x3e, 0xe8, 0x7e, 0x53, 0x3e, 0x7b, 0x5d, 0x0a, 0x3e, 0x6d, 0xcd, 0xc0, 0xbc, 0xdf, 0xcc, 0x6b, 0x3d, 0xa1, 0x38, 0x17, 0xbe, 0xc0, 0x08, 0xe4, 0xbc, 0x30, 0xcd, 0x43, 0xbd, 0x30, 0xac, 0x4a, 0x3d, 0x82, 0x4d, 0x34, 0xbe, 0x18, 0x7e, 0x48, 0x3e, 0xa0, 0x18, 0x5d, 0x3d, 0x0b, 0xad, 0xb5, 0x3c, 0xf6, 0xda, 0x37, 0x3e, 0xb4, 0x78, 0xbb, 0x3d, 0xce, 0xe1, 0xcf, 0xbd, 0xeb, 0x8d, 0xa1, 0xbd, 0xed, 0xcc, 0x15, 0x3e, 0xd2, 0x19, 0x01, 0xbe, 0xe6, 0xd5, 0x4a, 0x3d, 0xd0, 0xe8, 0x71, 0x3e, 0x94, 0x54, 0x63, 0xbe, 0xec, 0x1d, 0x22, 0xbe, 0xd0, 0xa1, 0x0c, 0xbd, 0xf7, 0x4d, 0xb7, 0xbd, 0x31, 0xd0, 0x6c, 0x3e, 0x76, 0xbd, 0x3c, 0xbe, 0xf8, 0x24, 0xc5, 0x3d, 0xed, 0x55, 0x73, 0x3e, 0xb4, 0x69, 0x1d, 0xbe, 0xe3, 0xaa, 0x21, 0xbe, 0x00, 0x52, 0x59, 0x3c, 0xe1, 0x20, 0x7d, 0xbd, 0xe1, 0x4b, 0xc2, 0xbd, 0xd9, 0xcb, 0x6a, 0x3e, 0xb0, 0xaa, 0x8d, 0xbb, 0x07, 0x60, 0xcb, 0xbd, 0xc0, 0xe8, 0x4b, 0xbe, 0x49, 0x5b, 0x27, 0xbe, 0x36, 0x31, 0x3a, 0x3e, 0xcf, 0x35, 0x2a, 0x3e, 0xe2, 0x36, 0x92, 0xbb, 0x12, 0x49, 0x4b, 0xbe, 0xac, 0x1e, 0x21, 0x3e, 0xc9, 0x6f, 0x3f, 0x3c, 0x75, 0xf4, 0x7e, 0xbe, 0x20, 0x42, 0xb0, 0xbd, 0x19, 0x34, 0xc8, 0x3d, 0x2c, 0x06, 0x69, 0x3c, 0x80, 0x9a, 0x06, 0x3e, 0xec, 0xd0, 0x94, 0x3b, 0xe6, 0x4d, 0x4a, 0x3e, 0xd0, 0x7c, 0x08, 0x3e, 0xfc, 0xde, 0x27, 0x3e, 0x90, 0x77, 0xb1, 0xbd, 0x48, 0x1c, 0x69, 0x3e, 0xde, 0x48, 0x0a, 0xbe, 0x5c, 0x0c, 0x5e, 0xbe, 0xa0, 0xfe, 0xf3, 0x3d, 0x88, 0x72, 0xf5, 0xbd, 0xa0, 0xf9, 0xde, 0xbc, 0x60, 0xb2, 0xff, 0x3d, 0xed, 0xc3, 0x8f, 0xbc, 0x10, 0xd0, 0x06, 0x3d, 0x84, 0xd9, 0x07, 0xbe, 0x5c, 0xc5, 0x70, 0x3e, 0x36, 0x76, 0x41, 0xbc, 0x35, 0x85, 0x1e, 0xbe, 0x2c, 0xaf, 0xc5, 0xbd, 0x00, 0xe9, 0x7e, 0xbe, 0x48, 0x82, 0xed, 0x3d, 0x80, 0xbc, 0x8c, 0x3c, 0xb0, 0x52, 0x09, 0x3d, 0xb4, 0x66, 0x0f, 0xbe, 0x90, 0x2f, 0xc8, 0x3d, 0x70, 0x2a, 0xa6, 0xbd, 0x38, 0x95, 0xb7, 0x3d, 0xf8, 0x11, 0xa7, 0x3d, 0x20, 0x01, 0x8e, 0xbd, 0x20, 0x83, 0x53, 0x3e, 0x6c, 0x98, 0x08, 0xbe, 0x20, 0x12, 0x2b, 0xbe, 0xc8, 0x5f, 0x21, 0xbe, 0x40, 0x26, 0xd0, 0x3c, 0x5c, 0x86, 0x42, 0x3e, 0xf0, 0x44, 0xfd, 0xbd, 0x40, 0x21, 0x9e, 0xbd, 0x08, 0x0a, 0x77, 0x3e, 0x40, 0x6c, 0x18, 0x3d, 0x0c, 0xd9, 0x73, 0x3e, 0x38, 0xc0, 0x38, 0x3e, 0x5c, 0xd8, 0x4c, 0x3e, 0x38, 0xe5, 0xc1, 0x3d, 0x18, 0x33, 0x17, 0x3e, 0xb0, 0x3b, 0x24, 0xbd, 0xa0, 0x24, 0x7a, 0x3d, 0x4c, 0x59, 0x23, 0xbe, 0x3c, 0xef, 0x13, 0xbe, 0xf0, 0x8a, 0x6b, 0x3e, 0x60, 0xbd, 0x3e, 0x3e, 0xf0, 0x8c, 0x75, 0xbe, 0xa0, 0x55, 0x9e, 0xbc, 0x00, 0x39, 0xd4, 0xbd, 0x48, 0x98, 0x2f, 0xbe, 0xc0, 0x97, 0x61, 0x3c, 0xfc, 0x1f, 0x3f, 0xbe, 0xa4, 0x27, 0x55, 0xbe, 0x64, 0xe9, 0x4a, 0x3e, 0x00, 0x80, 0x23, 0xba, 0xe0, 0x4e, 0xf9, 0x3c, 0xa0, 0x61, 0x2e, 0x3d, 0x38, 0x22, 0x59, 0xbe, 0x30, 0x3b, 0x3a, 0xbe, 0xcc, 0x15, 0x25, 0x3e, 0x60, 0x81, 0x0f, 0xbd, 0x68, 0xd8, 0xe8, 0xbd, 0x20, 0xf7, 0x46, 0xbe, 0x80, 0xc0, 0x3c, 0xbe, 0x20, 0x29, 0xe1, 0x3c, 0x00, 0x82, 0x93, 0x3d, 0xc0, 0xe7, 0xd3, 0xbc, 0x30, 0x3a, 0x51, 0xbd, 0xf8, 0xce, 0x11, 0x3e, 0xe0, 0x16, 0xfa, 0x3d, 0xbc, 0x93, 0x3c, 0x3e, 0x20, 0xde, 0xff, 0xbc, 0x30, 0x68, 0x0d, 0x3e, 0xc0, 0xce, 0x7d, 0x3c, 0xb0, 0x7e, 0xcd, 0xbd, 0x2c, 0xf6, 0x38, 0x3e, 0x4c, 0xeb, 0x19, 0xbe, 0x20, 0xa6, 0xdc, 0xbc, 0x30, 0x00, 0xcd, 0xbd, 0x94, 0xce, 0x08, 0xbe, 0x60, 0x9c, 0xad, 0xbd, 0xcc, 0xe8, 0x55, 0xbe, 0x24, 0xcc, 0x0b, 0xbe, 0xe0, 0xfa, 0xcc, 0xbc, 0x48, 0xcb, 0x44, 0xbe, 0x00, 0x85, 0x20, 0xbe, 0x44, 0x31, 0x3b, 0xbe, 0x50, 0xe8, 0x4d, 0xbe, 0xbc, 0xcc, 0x0b, 0x3e, 0x70, 0xc8, 0x8d, 0x3d, 0x80, 0xcf, 0x59, 0x3c, 0x68, 0xb7, 0x4e, 0xbe, 0x10, 0xe5, 0x0a, 0xbe, 0xa0, 0x42, 0x5e, 0xbd, 0x80, 0x3d, 0x58, 0xbc, 0x40, 0x19, 0xcd, 0x3d, 0x90, 0xb3, 0x0e, 0x3e, 0xb8, 0xf9, 0xf8, 0xbd, 0x14, 0x25, 0x17, 0x3e, 0xf8, 0xab, 0xbe, 0x3d, 0x30, 0xf6, 0x36, 0xbd, 0x38, 0x5a, 0xe7, 0xbd, 0x18, 0xd2, 0x15, 0xbe, 0x08, 0x46, 0x80, 0xbd, 0x6c, 0x45, 0x19, 0xbe, 0x60, 0x58, 0x4a, 0x3e, 0x38, 0xb9, 0x32, 0x3e, 0xa0, 0x7f, 0xb2, 0x3d, 0x80, 0x9d, 0xf6, 0x3c, 0x38, 0x2f, 0x5a, 0x3e, 0x68, 0x20, 0xd1, 0x3d, 0xe0, 0x09, 0x0f, 0xbd, 0x34, 0xb0, 0x65, 0xbe, 0x08, 0xd5, 0xbf, 0x3d, 0xbc, 0x97, 0x5a, 0x3e, 0x94, 0xd6, 0x2f, 0xbe, 0x80, 0xa0, 0x6f, 0xbe, 0x00, 0x2a, 0xf5, 0xba, 0x44, 0x75, 0x79, 0x3e, 0xb0, 0x1c, 0x42, 0xbe, 0x38, 0x34, 0xd8, 0x3d, 0x58, 0xd8, 0xf9, 0x3d, 0xe8, 0x18, 0x0f, 0xbe, 0x50, 0x16, 0xee, 0x3d, 0x04, 0x13, 0x0d, 0xbe, 0x5c, 0xf5, 0x48, 0xbe, 0xa0, 0x2f, 0xd5, 0xbc, 0xf0, 0x64, 0x40, 0x3e, 0xc0, 0x1a, 0xf4, 0x3d, 0x1c, 0x0a, 0x34, 0xbe, 0x60, 0xd9, 0xfa, 0x3d, 0xe8, 0x4e, 0x4c, 0xbe, 0x7c, 0xd4, 0x62, 0xbe, 0x50, 0x99, 0x54, 0xbe, 0x68, 0x2f, 0x15, 0x3e, 0xf4, 0x8d, 0x0d, 0xbe, 0x80, 0x99, 0xd2, 0xbd, 0x10, 0xab, 0x5b, 0x3d, 0x70, 0x0e, 0x31, 0x3d, 0x00, 0x1a, 0xae, 0xbd, 0x30, 0x90, 0x8a, 0xbd, 0x1c, 0x4b, 0x7b, 0x3e, 0xe0, 0x25, 0x51, 0x3d, 0x50, 0xc7, 0x04, 0x3d, 0x84, 0xd9, 0x1f, 0x3e, 0xc4, 0x53, 0x3c, 0xbe, 0x30, 0x01, 0x36, 0x3d, 0xc0, 0x35, 0x1a, 0xbe, 0x70, 0x9f, 0x4a, 0x3d, 0xb0, 0xea, 0x51, 0xbd, 0x60, 0xe6, 0x58, 0xbd, 0x38, 0x9c, 0xb5, 0x3d, 0x60, 0xee, 0x17, 0xbd, 0x44, 0x58, 0x54, 0x3e, 0x00, 0x73, 0x16, 0xbb, 0x70, 0xaf, 0x0f, 0xbd, 0xc0, 0xea, 0x63, 0x3c, 0x08, 0xd4, 0x18, 0xbe, 0x94, 0x5b, 0x25, 0xbe, 0xb8, 0x9f, 0xd4, 0x3d, 0x3c, 0x4e, 0x44, 0xbe, 0x40, 0x8a, 0x9b, 0xbc, 0x48, 0xcb, 0x78, 0xbe, 0x8c, 0x87, 0x58, 0xbe, 0xe8, 0x48, 0xb8, 0x3d, 0x28, 0x70, 0x99, 0x3d, 0x30, 0x8b, 0x4a, 0x3d, 0x18, 0x1c, 0xe4, 0xbd, 0xd8, 0xb9, 0x5c, 0xbe, 0xc0, 0x29, 0x9c, 0xbc, 0x68, 0xa9, 0xb6, 0x3d, 0x54, 0xcb, 0x08, 0x3e, 0x58, 0xa9, 0xee, 0xbd, 0x04, 0xbb, 0x70, 0xbe, 0x64, 0x91, 0x43, 0x3e, 0x80, 0x6b, 0x58, 0xbc, 0x00, 0x6f, 0xa5, 0xbb, 0x90, 0x5c, 0x3d, 0xbd, 0xa4, 0x70, 0x25, 0x3e, 0xc0, 0x21, 0x4d, 0xbe, 0xe0, 0x5d, 0x22, 0x3d, 0xf0, 0x00, 0x0a, 0x3e, 0x00, 0x67, 0x8d, 0xbb, 0xe8, 0x8c, 0x0e, 0x3e, 0xc0, 0xda, 0xfb, 0x3d, 0x30, 0x63, 0xf6, 0xbd, 0xc0, 0x70, 0x26, 0xbd, 0xd0, 0xcf, 0x3b, 0xbd, 0x28, 0xca, 0x9e, 0x3d, 0x28, 0x72, 0x3a, 0xbe, 0xf8, 0x5a, 0xb7, 0xbd, 0x4c, 0x85, 0x7f, 0x3e, 0xa4, 0xab, 0x46, 0x3e, 0xf4, 0x5b, 0x32, 0xbe, 0xa8, 0x13, 0xd5, 0xbd, 0x50, 0x88, 0x68, 0xbe, 0x18, 0x7d, 0xa6, 0xbd, 0x4c, 0x13, 0x5c, 0xbe, 0xcc, 0xe9, 0x43, 0x3e, 0xf0, 0x0f, 0xa9, 0x3d, 0x70, 0x5b, 0x06, 0xbe, 0x08, 0x1e, 0x07, 0xbe, 0x68, 0x18, 0xca, 0x3d, 0xb8, 0xcf, 0xf2, 0xbd, 0x78, 0x24, 0x88, 0xbd, 0x10, 0x3f, 0x41, 0xbe, 0x20, 0xa6, 0x99, 0x3d, 0xc8, 0xf4, 0x26, 0xbd, 0x48, 0xdd, 0xc1, 0xbd, 0xa3, 0x48, 0x1b, 0x3e, 0x80, 0x32, 0x90, 0xbb, 0x4b, 0xfb, 0xfc, 0xbc, 0x1d, 0x18, 0xb4, 0x3d, 0xb0, 0xab, 0x41, 0x3d, 0x7b, 0x2d, 0x36, 0xbe, 0xad, 0xb8, 0xbb, 0x3c, 0xfc, 0x82, 0x86, 0xbc, 0xe7, 0xb7, 0x1f, 0x3e, 0x67, 0xdc, 0xe9, 0xbd, 0xc9, 0xb1, 0x3c, 0x3e, 0xbd, 0x36, 0x95, 0x3b, 0x02, 0x6c, 0x49, 0xbd, 0x80, 0x9a, 0xa3, 0xbd, 0x6c, 0xe3, 0x3f, 0x3e, 0x13, 0x2d, 0x98, 0xbd, 0x34, 0x54, 0x2a, 0xbe, 0x8b, 0x5e, 0x14, 0x3d, 0xae, 0x29, 0x4c, 0xbe, 0xf7, 0xbd, 0x10, 0xbe, 0x68, 0x2c, 0xc8, 0x3d, 0xe2, 0xd5, 0x01, 0xbe, 0xac, 0x8f, 0x20, 0x3e, 0x2a, 0x8b, 0xb6, 0x3c, 0xfc, 0xfc, 0x3f, 0xbe, 0x49, 0xb9, 0x38, 0x3c, 0xcd, 0x7c, 0x14, 0xbd, 0x6e, 0xea, 0xb5, 0xbb, 0x5e, 0x5e, 0x3a, 0x3e, 0x70, 0x4d, 0x2f, 0xbd, 0x0f, 0xf7, 0x8e, 0x3b, 0x21, 0x7d, 0xd8, 0x3c, 0xd6, 0x34, 0x09, 0xbe, 0x91, 0x93, 0x87, 0x3d, 0x52, 0x8a, 0x76, 0xbd, 0x5e, 0xdb, 0x34, 0xbe, 0xe0, 0xf2, 0x8f, 0xbd, 0x83, 0x1c, 0x36, 0xbd, 0x03, 0xaf, 0x62, 0x3e, 0xb4, 0xca, 0x6a, 0xbe, 0x40, 0x17, 0x5f, 0x3e, 0x7a, 0xf5, 0x86, 0xbb, 0x50, 0xa0, 0x89, 0x3d, 0x53, 0x07, 0x74, 0x3e, 0xef, 0x32, 0x01, 0x3e, 0x19, 0xd2, 0xdd, 0xbd, 0xb4, 0xc7, 0x12, 0xbe, 0xfc, 0x3e, 0x69, 0x3e, 0xfc, 0x1a, 0x52, 0x3e, 0x3f, 0xc6, 0x2c, 0x3e, 0x74, 0x05, 0x02, 0xbe, 0xd3, 0xce, 0xa9, 0x3d, 0x18, 0xf3, 0x16, 0xbe, 0xf0, 0x37, 0x06, 0x3d, 0xfc, 0x6a, 0x44, 0xbe, 0x00, 0x45, 0xbe, 0x3d, 0x40, 0xe8, 0x06, 0xbe, 0x48, 0xe4, 0x87, 0x3d, 0x30, 0x71, 0x80, 0xbd, 0xb9, 0x90, 0xff, 0x3b, 0x02, 0x7d, 0x37, 0x3e, 0xf8, 0xfe, 0x26, 0x3e, 0xda, 0xc1, 0x67, 0xbd, 0x3c, 0x09, 0x6c, 0xbe, 0xc5, 0x9f, 0x30, 0xbd, 0xd8, 0xad, 0xa9, 0x3d, 0xf1, 0xf6, 0x2b, 0xbe, 0xf6, 0xe1, 0x82, 0x3e, 0x6c, 0x16, 0x23, 0xbe, 0x9d, 0x3c, 0x8c, 0xbe, 0x2f, 0xdf, 0x45, 0x3e, 0xcd, 0xf1, 0x85, 0xbe, 0xc6, 0x2d, 0x1e, 0x3d, 0xc1, 0x9c, 0x10, 0x3e, 0xe9, 0x0a, 0xbb, 0xbd, 0xb2, 0xd8, 0x57, 0xbe, 0xe9, 0x50, 0x05, 0xbe, 0x74, 0xbf, 0x4f, 0xbe, 0x48, 0x14, 0xe7, 0x3d, 0xdf, 0xb6, 0x09, 0xbe, 0xdc, 0x05, 0x48, 0xbe, 0x67, 0xaf, 0xae, 0x3d, 0xe8, 0x0e, 0x60, 0x3e, 0x63, 0xb1, 0x6e, 0xbe, 0x80, 0x41, 0x8c, 0xbc, 0x0e, 0x0c, 0xb7, 0xbd, 0x30, 0x97, 0xd4, 0xbd, 0xba, 0x30, 0xda, 0xbb, 0xc0, 0x65, 0x63, 0x3c, 0xa2, 0xe3, 0x17, 0x3e, 0x5c, 0x86, 0x16, 0xbe, 0xc7, 0xbd, 0x3f, 0x3d, 0x2e, 0xc2, 0x7e, 0x3e, 0x53, 0xff, 0x22, 0x3e, 0x93, 0x94, 0xc5, 0xbd, 0xa2, 0x7a, 0x21, 0xbe, 0xe8, 0x25, 0xda, 0xbc, 0x7a, 0x66, 0xe8, 0xbd, 0xd1, 0xf1, 0x5f, 0x3d, 0x5d, 0xa3, 0xe9, 0xbd, 0x8c, 0x98, 0x74, 0xbe, 0xb4, 0xb7, 0x26, 0x3e, 0x4c, 0xd7, 0x82, 0x3d, 0x80, 0x9d, 0x23, 0xbe, 0x91, 0x14, 0x80, 0x3e, 0x7c, 0x99, 0x8b, 0x3c, 0xcc, 0xf8, 0x44, 0xbe, 0x67, 0xdd, 0x0c, 0x3e, 0xf8, 0x84, 0xa5, 0x3d, 0x2a, 0x39, 0xda, 0xbd, 0x18, 0x05, 0xbc, 0x3d, 0x38, 0x4d, 0xd2, 0xbd, 0x28, 0xc4, 0x5e, 0x3e, 0x09, 0x61, 0x83, 0xbd, 0x20, 0x30, 0x1c, 0xbd, 0x11, 0xfe, 0xb0, 0x3d, 0x42, 0xea, 0xaf, 0xbe, 0x10, 0x70, 0x07, 0x3e, 0x90, 0xd8, 0xb7, 0xbd, 0x0b, 0x54, 0x7c, 0x3d, 0xc0, 0xa5, 0x41, 0xbe, 0x3c, 0xdf, 0x26, 0xbe, 0x70, 0xb0, 0x99, 0xbd, 0x90, 0xf4, 0x27, 0x3e, 0xa6, 0x7d, 0xbf, 0x3d, 0x56, 0x85, 0xe4, 0xbc, 0xa9, 0xaf, 0x1f, 0x3e, 0x7c, 0x66, 0x3f, 0x3e, 0xf0, 0x5d, 0x1a, 0x3e, 0x40, 0x5c, 0x3e, 0xbe, 0x90, 0x7b, 0x10, 0xbe, 0x98, 0x32, 0xca, 0xbd, 0x78, 0x34, 0xac, 0xbd, 0x1c, 0x93, 0x08, 0xbc, 0xce, 0x49, 0x3a, 0x3e, 0x1c, 0x88, 0x53, 0xbe, 0x6a, 0x2b, 0xff, 0x3d, 0x8f, 0xa9, 0x92, 0x3d, 0xbb, 0x68, 0x31, 0x3e, 0xb3, 0x17, 0x7b, 0x3d, 0x4c, 0xbd, 0x57, 0xbe, 0xa8, 0xfb, 0x1c, 0xbe, 0xf8, 0xfa, 0x12, 0x3e, 0xbb, 0xc6, 0xef, 0x3d, 0xd4, 0x3e, 0x0a, 0xbd, 0x55, 0xc4, 0xfa, 0xbd, 0x6e, 0x78, 0x1e, 0xbe, 0xef, 0xc7, 0xce, 0x3d, 0x60, 0x39, 0x4a, 0xbe, 0xca, 0x3e, 0xc5, 0x3d, 0x40, 0xf6, 0x13, 0x3e, 0xca, 0x5a, 0xa5, 0xbd, 0x70, 0x1b, 0xfb, 0x3d, 0xec, 0x71, 0x4d, 0xbe, 0x4e, 0xcf, 0x75, 0x3d, 0x05, 0x36, 0x20, 0x3e, 0x0b, 0x6a, 0x0c, 0xbd, 0xa2, 0x79, 0xa7, 0xbd, 0x37, 0xbd, 0x3f, 0xbe, 0x97, 0x47, 0x9a, 0xbd, 0xb9, 0x6b, 0x78, 0xbd, 0xaa, 0xa4, 0x74, 0x3e, 0x53, 0x45, 0x17, 0xbe, 0x64, 0x57, 0xcf, 0xbd, 0xe0, 0x94, 0x7d, 0xbd, 0xa1, 0x3c, 0x56, 0xbd, 0xfb, 0x7b, 0xfd, 0xbd, 0x50, 0xe5, 0xae, 0xbd, 0x60, 0x54, 0x03, 0xbe, 0xb0, 0x76, 0x90, 0xbd, 0x00, 0xfa, 0x96, 0xbd, 0xc5, 0x52, 0x6b, 0xbe, 0x80, 0xdd, 0x6f, 0x3e, 0x4c, 0x2b, 0x43, 0xbe, 0xc0, 0x05, 0x8c, 0x3c, 0xe0, 0x82, 0xc8, 0x3d, 0xc8, 0xd4, 0xd8, 0xbd, 0x8b, 0x3b, 0x3f, 0x3e, 0x60, 0x00, 0x2d, 0x3d, 0x6c, 0xce, 0x35, 0xbe, 0x72, 0x31, 0x2d, 0xbe, 0xe8, 0x81, 0x91, 0xbd, 0x90, 0xfa, 0x7e, 0xbe, 0x10, 0xef, 0x08, 0xbc, 0x78, 0x5c, 0xb0, 0xbd, 0xf8, 0x0b, 0x9f, 0x3d, 0x0c, 0x7d, 0x71, 0xbe, 0x0a, 0x96, 0x06, 0xbe, 0xd4, 0x0b, 0x4d, 0xbe, 0x15, 0xbe, 0x2c, 0xbc, 0xe7, 0xfb, 0x80, 0xbd, 0x48, 0x93, 0x01, 0xbe, 0xd7, 0x55, 0x9f, 0xbd, 0x00, 0xd9, 0x4b, 0xbc, 0x6a, 0xad, 0x16, 0xbb, 0xbb, 0x61, 0xdc, 0x3d, 0x68, 0x96, 0xda, 0x3d, 0xd3, 0x83, 0xfe, 0x3d, 0x75, 0x79, 0x41, 0x3e, 0xb1, 0xa5, 0x5b, 0xbd, 0xce, 0xc9, 0x3e, 0xbd, 0x78, 0xc2, 0x20, 0x3e, 0xee, 0xeb, 0x80, 0xbe, 0x85, 0x4e, 0x9e, 0x3d, 0xb9, 0x7b, 0xff, 0xbd, 0x08, 0xa9, 0xf0, 0x3d, 0xa0, 0x3e, 0x82, 0x3c, 0x26, 0x15, 0xa7, 0x3a, 0x4c, 0xce, 0x65, 0x3d, 0xa8, 0x42, 0x93, 0xbd, 0x1d, 0x0e, 0x83, 0xbd, 0x9c, 0x7a, 0xfc, 0xbc, 0xec, 0xd5, 0x03, 0xbe, 0x93, 0xc3, 0x1e, 0xbd, 0x84, 0x37, 0x73, 0xbe, 0x74, 0x74, 0x05, 0x3d, 0xf0, 0x82, 0x3b, 0x3e, 0x39, 0x8f, 0x1c, 0xbd, 0x32, 0x7d, 0xae, 0x3d, 0x6f, 0x7e, 0x51, 0x3e, 0xdb, 0x9c, 0x2c, 0x3e, 0xda, 0x60, 0x72, 0x3d, 0x93, 0xeb, 0xc5, 0xbd, 0x80, 0x5f, 0x0d, 0x3d, 0xda, 0x58, 0xc8, 0x3d, 0xd8, 0x6c, 0x27, 0xbe, 0xeb, 0x57, 0x10, 0x3e, 0x6f, 0x06, 0xe5, 0xbd, 0xf0, 0x1b, 0x0b, 0x3e, 0xc5, 0x46, 0x98, 0x3d, 0x5f, 0x6c, 0x81, 0x3d, 0x18, 0xa1, 0x2c, 0x3e, 0x6e, 0xac, 0x56, 0xbd, 0x6c, 0x57, 0x47, 0xbb, 0x7c, 0xaf, 0x78, 0x3e, 0x84, 0xaf, 0x1d, 0x3d, 0x76, 0x43, 0x61, 0x3e, 0xc2, 0x7d, 0xc7, 0x3d, 0x50, 0x61, 0x05, 0x3d, 0xc0, 0x34, 0xde, 0x3c, 0x70, 0xec, 0x3d, 0xbd, 0xac, 0x19, 0xf7, 0xbd, 0x34, 0x2f, 0x3c, 0x3e, 0x9d, 0xc1, 0x11, 0x3e, 0xdc, 0x4b, 0xac, 0x3d, 0xe8, 0x72, 0x2d, 0x3e, 0xd0, 0x33, 0x1e, 0xbe, 0x0e, 0xb6, 0x28, 0xbe, 0x48, 0x25, 0x18, 0x3e, 0xa0, 0xdf, 0x00, 0x3e, 0xb0, 0x75, 0xbc, 0x3d, 0x23, 0x8a, 0x86, 0x3e, 0xc8, 0x10, 0x00, 0xbe, 0xb9, 0xb0, 0x2a, 0x3e, 0xe4, 0xeb, 0x77, 0xbe, 0xd8, 0xfc, 0x30, 0xbe, 0x68, 0xfe, 0x9d, 0x3d, 0x94, 0x70, 0x72, 0x3e, 0x00, 0xb0, 0xa3, 0xb9, 0xd8, 0xae, 0xd0, 0x3d, 0x34, 0xa4, 0x30, 0xbe, 0xd0, 0xb7, 0x5c, 0xbd, 0x80, 0xb8, 0xc7, 0x3b, 0xa8, 0xc3, 0xb9, 0xbd, 0xe0, 0x38, 0x15, 0xbe, 0xa8, 0xd1, 0x9f, 0xbd, 0xe8, 0xdd, 0x30, 0xbe, 0xd0, 0x4d, 0x04, 0x3e, 0x38, 0x80, 0x4d, 0xbe, 0x18, 0xa0, 0x51, 0x3e, 0x80, 0x5b, 0x61, 0x3c, 0xd0, 0x7e, 0x00, 0xbd, 0xf0, 0x7a, 0x72, 0xbd, 0xd0, 0xf6, 0x42, 0x3d, 0x68, 0x0a, 0x66, 0xbe, 0xf0, 0x6f, 0x22, 0x3d, 0xf0, 0xcc, 0x77, 0xbd, 0x00, 0x7c, 0x83, 0xbd, 0x64, 0x4b, 0x1d, 0xbe, 0x88, 0x63, 0xf7, 0xbd, 0x80, 0x1c, 0x4c, 0xbe, 0x58, 0x95, 0x1c, 0x3e, 0xf0, 0x9d, 0x3c, 0x3d, 0x70, 0x43, 0xab, 0xbd, 0xa4, 0xb4, 0x7d, 0xbe, 0x40, 0xf7, 0x07, 0x3e, 0xb0, 0xcb, 0x8c, 0x3d, 0x80, 0x9a, 0x05, 0x3e, 0x84, 0x32, 0x7a, 0x3e, 0xa0, 0xb0, 0x1a, 0x3d, 0x08, 0x02, 0x5d, 0xbe, 0xe0, 0x4f, 0x61, 0xbe, 0x00, 0xff, 0x53, 0x3b, 0xcc, 0x0e, 0x46, 0x3e, 0x20, 0x2d, 0x83, 0xbd, 0x70, 0x26, 0x22, 0xbe, 0x80, 0x94, 0x0e, 0xbd, 0x50, 0x57, 0xe7, 0x3d, 0x7c, 0x73, 0x07, 0xbe, 0x80, 0xe3, 0xcb, 0x3b, 0x48, 0xb8, 0xf3, 0xbd, 0xa0, 0x5d, 0xab, 0xbd, 0x00, 0x2c, 0x0e, 0xbc, 0xe0, 0xb1, 0x4a, 0xbe, 0x40, 0x72, 0xcc, 0xbd, 0x78, 0x79, 0xf9, 0x3d, 0xec, 0xff, 0x58, 0xbe, 0x20, 0x3a, 0x68, 0x3e, 0xa0, 0x6e, 0x60, 0xbd, 0xf8, 0x17, 0x59, 0x3e, 0xa0, 0xe2, 0x31, 0xbe, 0xec, 0xba, 0x0c, 0x3e, 0x00, 0xbc, 0x44, 0x3d, 0x88, 0xc5, 0xfa, 0xbd, 0x40, 0xd5, 0x6a, 0x3e, 0x70, 0x20, 0x47, 0x3e, 0x90, 0x31, 0x0a, 0xbe, 0x00, 0x54, 0xfa, 0x3b, 0x8a, 0xfa, 0xff, 0xff, 0x04, 0x00, 0x00, 0x00, 0x00, 0x04, 0x00, 0x00, 0x12, 0xcf, 0x32, 0x3d, 0xce, 0xdb, 0x2c, 0x3e, 0x35, 0x2f, 0x28, 0xbe, 0xa2, 0x00, 0x8a, 0x3e, 0x5e, 0x65, 0xb2, 0xbd, 0xc0, 0x8f, 0x37, 0xbc, 0x70, 0x99, 0xdc, 0xbc, 0x5b, 0x82, 0x21, 0xbe, 0x4c, 0xfe, 0x1d, 0x3e, 0x6c, 0x72, 0x96, 0xbe, 0xb5, 0x4f, 0x75, 0x3e, 0x8f, 0x2d, 0x8c, 0x3e, 0xe6, 0x2a, 0x34, 0xbe, 0xa0, 0x5f, 0x40, 0x3c, 0xaa, 0x37, 0x92, 0xbd, 0x30, 0x2c, 0xd1, 0xbc, 0x17, 0x06, 0x5d, 0x3e, 0xdd, 0xd4, 0x14, 0xbe, 0x9b, 0xe6, 0x86, 0x3e, 0x50, 0x8b, 0x94, 0xbe, 0x07, 0xc1, 0x87, 0x3e, 0xcf, 0x47, 0x11, 0xbe, 0x20, 0x21, 0xb4, 0xbd, 0xd7, 0x39, 0x73, 0x3d, 0x95, 0x7b, 0x3a, 0xbe, 0x08, 0xe2, 0x8e, 0x3d, 0x6c, 0x39, 0xac, 0x3d, 0x10, 0x20, 0x8e, 0xbd, 0x83, 0x32, 0x48, 0x3e, 0xb1, 0xee, 0xb3, 0xbd, 0x08, 0x8b, 0xee, 0x3c, 0x24, 0xf5, 0x0b, 0xbe, 0x33, 0xad, 0x9d, 0x3d, 0x2e, 0x44, 0x90, 0x3e, 0xf4, 0x74, 0x07, 0x3e, 0x79, 0x71, 0xc4, 0x3d, 0x45, 0x3f, 0xc2, 0xbd, 0xa2, 0x19, 0x9e, 0x3e, 0x04, 0x5e, 0x91, 0xbd, 0x38, 0x2b, 0x63, 0xbd, 0x15, 0x9e, 0x85, 0x3e, 0x01, 0x0d, 0x13, 0xbe, 0x8e, 0x6a, 0x45, 0xbe, 0x14, 0x3c, 0x84, 0x3e, 0x1f, 0x18, 0x81, 0x3e, 0xf3, 0xec, 0xaa, 0xbd, 0xe8, 0x01, 0x08, 0xbc, 0x97, 0x8e, 0xf1, 0x3d, 0x97, 0x54, 0x47, 0x3e, 0x43, 0x11, 0x63, 0xbe, 0xe4, 0x9f, 0x31, 0x3e, 0xb2, 0x55, 0xf7, 0x3d, 0xe9, 0x85, 0x9a, 0x3d, 0xe8, 0x07, 0x0c, 0xbe, 0x7f, 0xd3, 0x2a, 0xbe, 0x86, 0xc1, 0x68, 0x3e, 0x0d, 0x41, 0x78, 0xbd, 0xb2, 0x87, 0x58, 0x3d, 0x65, 0x83, 0x8d, 0x3e, 0xc0, 0x34, 0xd2, 0x3d, 0x0a, 0x65, 0x8e, 0x3e, 0x12, 0xd8, 0x94, 0xbe, 0x75, 0x33, 0x1f, 0xbe, 0x8a, 0xca, 0xf4, 0xbd, 0x98, 0x7e, 0x57, 0x3e, 0x9a, 0xcd, 0x00, 0x3e, 0x1c, 0xae, 0x7c, 0xbe, 0x86, 0x55, 0xf3, 0xbd, 0xb3, 0x2d, 0x53, 0x3e, 0x23, 0xfb, 0x46, 0xbe, 0x60, 0xe5, 0x60, 0xbe, 0xe2, 0xcc, 0xdc, 0x3d, 0xb3, 0x33, 0x6c, 0x3e, 0x26, 0xc0, 0x84, 0xbe, 0x6e, 0x9e, 0x81, 0xbe, 0x09, 0xde, 0xe9, 0x3d, 0xdc, 0x5c, 0x4f, 0x3d, 0x50, 0x18, 0x98, 0x3d, 0xcc, 0xe2, 0x61, 0xbe, 0x1f, 0x5f, 0x89, 0x3e, 0x31, 0xa6, 0x78, 0xbe, 0x24, 0xec, 0x71, 0x3d, 0x6e, 0x86, 0x17, 0xbd, 0xe1, 0x8d, 0x54, 0x3e, 0xed, 0x88, 0xfe, 0x3c, 0x32, 0xe5, 0x29, 0x3e, 0x06, 0xa8, 0x77, 0x3e, 0xef, 0xcd, 0x89, 0xbd, 0x00, 0xb0, 0x56, 0xba, 0x24, 0xf0, 0x3e, 0xbe, 0x35, 0xc0, 0x7c, 0xbe, 0x81, 0x25, 0x6c, 0xbe, 0xeb, 0xc2, 0x39, 0xbe, 0x25, 0x91, 0xe1, 0x3c, 0xfe, 0xc0, 0x1a, 0x3d, 0x29, 0xcb, 0x14, 0x3e, 0x66, 0x80, 0x18, 0x3e, 0x20, 0xef, 0x56, 0xbe, 0x42, 0x7d, 0x89, 0xbd, 0xb0, 0x00, 0x82, 0x3c, 0xec, 0x92, 0x6c, 0x3e, 0xb9, 0x51, 0x60, 0x3d, 0xbb, 0xe8, 0x54, 0x3e, 0xab, 0x0e, 0x49, 0xbe, 0x68, 0x65, 0xaf, 0x3d, 0xc0, 0xb3, 0x7e, 0x3d, 0x2c, 0x64, 0x95, 0xbe, 0x0c, 0x71, 0xac, 0xbd, 0xa4, 0x9b, 0x79, 0xbe, 0xf7, 0x37, 0xb3, 0x3c, 0xcc, 0x02, 0x0a, 0x3e, 0xeb, 0xf6, 0xa7, 0x3d, 0xe7, 0xd4, 0xa0, 0xbd, 0xfa, 0x0d, 0x8c, 0x3c, 0xfa, 0x7a, 0x6d, 0x3e, 0xf3, 0x56, 0x7b, 0xbd, 0xd3, 0x03, 0x6b, 0x3e, 0xdc, 0x09, 0x41, 0x3e, 0x00, 0x66, 0x8b, 0x3e, 0xea, 0x25, 0x98, 0xbd, 0x17, 0x1c, 0x43, 0x3d, 0xf9, 0x20, 0x76, 0xbe, 0x27, 0x22, 0x85, 0x3e, 0xa8, 0xe2, 0x14, 0x3e, 0x2e, 0xe5, 0xe3, 0x3d, 0x56, 0x0d, 0x30, 0xbc, 0x0b, 0x5c, 0x66, 0x3e, 0x4c, 0x45, 0x0f, 0xbe, 0x65, 0xb6, 0xa1, 0xbd, 0xa4, 0x47, 0x76, 0xbb, 0x0d, 0x95, 0x7a, 0xbe, 0x54, 0x8e, 0x4a, 0x3e, 0xeb, 0x4d, 0x66, 0xbb, 0xb2, 0x89, 0x87, 0x3d, 0x29, 0x70, 0xbc, 0x3d, 0xca, 0xae, 0x55, 0x3a, 0x97, 0xa5, 0x95, 0x3e, 0x30, 0x71, 0x80, 0x3d, 0x98, 0x45, 0x47, 0x3e, 0x60, 0xfe, 0xff, 0x3c, 0x22, 0xeb, 0x4d, 0x3b, 0xfe, 0x87, 0x79, 0x3e, 0x7f, 0xbb, 0xb9, 0xbd, 0x7c, 0x47, 0x21, 0xbe, 0x76, 0x98, 0x42, 0x3e, 0xe1, 0x55, 0x0a, 0x3d, 0xda, 0x70, 0x49, 0x3e, 0x80, 0x56, 0x96, 0x3c, 0x64, 0xd8, 0x6d, 0x3d, 0x4a, 0xfe, 0x10, 0x3e, 0xa1, 0x8b, 0x5f, 0x3e, 0x32, 0xb6, 0x30, 0x3e, 0x47, 0xf1, 0x28, 0xbe, 0x16, 0x78, 0x66, 0xbe, 0x4a, 0x1f, 0x91, 0x3e, 0x0e, 0xaa, 0x44, 0xbe, 0x33, 0x2d, 0x24, 0xbe, 0x0e, 0xe2, 0x89, 0x3e, 0xe5, 0x0e, 0x4d, 0x3e, 0x68, 0x1a, 0x15, 0x3e, 0xca, 0xe3, 0xd6, 0x3d, 0x6f, 0x89, 0x3a, 0xbe, 0xda, 0xb1, 0x8d, 0x3e, 0xa2, 0x2b, 0xb5, 0x3d, 0x60, 0xfd, 0x2e, 0x3e, 0x78, 0x2f, 0x73, 0xbe, 0x18, 0x85, 0xe2, 0x3d, 0x23, 0xf6, 0x53, 0xbe, 0x09, 0x54, 0xeb, 0x3d, 0xd8, 0x1c, 0xfc, 0xbd, 0xb6, 0x26, 0x6b, 0xbd, 0xdd, 0x2f, 0xb6, 0x3d, 0xb9, 0xad, 0x31, 0xbe, 0xab, 0x60, 0x7b, 0x3e, 0x4e, 0xe6, 0x75, 0x3e, 0xae, 0x52, 0xc8, 0xbd, 0x66, 0x48, 0x6a, 0xbe, 0x80, 0xb6, 0x21, 0xbb, 0x86, 0xd0, 0x8f, 0xbe, 0x07, 0x37, 0x2e, 0xbe, 0x78, 0x25, 0x9a, 0x3c, 0xf9, 0x4d, 0x8b, 0x3e, 0xa8, 0xde, 0x99, 0xbd, 0xb4, 0x5e, 0x14, 0x3d, 0xf8, 0xd5, 0x34, 0x3e, 0x36, 0x8f, 0x0a, 0x3e, 0x61, 0x0e, 0x92, 0xbc, 0x16, 0x6c, 0x55, 0xbc, 0x7f, 0x26, 0x9a, 0xbe, 0x49, 0xb3, 0x80, 0x3e, 0x4b, 0xf6, 0x47, 0x3d, 0xf3, 0xa4, 0x8c, 0xbd, 0x94, 0xa6, 0xdf, 0xbd, 0xec, 0x08, 0x66, 0x3e, 0xa0, 0xe2, 0x4d, 0xbc, 0x3c, 0xf6, 0x3c, 0xbe, 0x33, 0xfc, 0x7f, 0xbe, 0xc4, 0x59, 0xf1, 0xbd, 0xb0, 0x25, 0x8e, 0xbc, 0xcc, 0x66, 0xc4, 0x3d, 0x40, 0x70, 0x01, 0xbd, 0x58, 0x2c, 0x92, 0x3d, 0x90, 0x8a, 0xa2, 0x3c, 0xf6, 0x63, 0xd0, 0xbd, 0xaf, 0x75, 0x1e, 0x3d, 0x32, 0xba, 0x4d, 0xbe, 0x39, 0x99, 0x2a, 0x3e, 0x69, 0x75, 0x5f, 0x3e, 0x20, 0x73, 0x86, 0xbe, 0x40, 0x8a, 0xca, 0x3b, 0x32, 0x7b, 0x44, 0xbe, 0x44, 0xa3, 0xb2, 0xbd, 0x4b, 0x5a, 0x6a, 0xbd, 0xf2, 0x86, 0x2c, 0xbe, 0x44, 0x70, 0x63, 0x3e, 0x0d, 0xdd, 0xea, 0xba, 0x10, 0x68, 0xe4, 0x3b, 0x98, 0x81, 0x8f, 0xbe, 0x11, 0xc5, 0x6c, 0xbe, 0x7b, 0x73, 0x50, 0x3e, 0x29, 0x6b, 0x86, 0xbe, 0x7a, 0xc9, 0x3c, 0xbe, 0x98, 0x99, 0x0d, 0xbe, 0x50, 0x7c, 0xad, 0xbd, 0x02, 0x1a, 0x62, 0xbe, 0x1d, 0x0f, 0x90, 0xbe, 0x3a, 0x5e, 0x6b, 0xbe, 0xc0, 0x5a, 0xea, 0x3b, 0x90, 0xc8, 0x0e, 0xbe, 0x11, 0x04, 0x4d, 0x3e, 0x50, 0x96, 0xac, 0xbd, 0xe9, 0xb6, 0x9d, 0x3d, 0xc4, 0xd3, 0xcb, 0xbd, 0x77, 0x26, 0x2e, 0xbe, 0x4c, 0x75, 0x27, 0x3e, 0xf8, 0x5b, 0x49, 0xbe, 0x40, 0xf0, 0x80, 0x3b, 0x16, 0xd1, 0x66, 0xbe, 0xac, 0xf8, 0x02, 0x3e, 0x48, 0x91, 0x71, 0xbd, 0x20, 0x3d, 0x24, 0x3c, 0x3c, 0x9c, 0xb1, 0xbd, 0xc4, 0x3a, 0xbb, 0x3d, 0x3e, 0xe2, 0xa1, 0xbd, 0x21, 0xcc, 0x5d, 0xbd, 0x25, 0x65, 0x3e, 0x3e, 0xb7, 0x15, 0x5c, 0xbe, 0x9c, 0x7d, 0xb6, 0x3d, 0x8e, 0x1f, 0x31, 0xbe, 0x66, 0xab, 0x75, 0x3e, 0xf3, 0x02, 0x95, 0x3d, 0x58, 0x8a, 0xe8, 0xbc, 0x60, 0xe9, 0xf5, 0xbd, 0x5f, 0x53, 0x6e, 0x3d, 0xee, 0x93, 0x50, 0xbc, 0x7f, 0x45, 0x3c, 0x3e, 0x96, 0xfe, 0xff, 0xff, 0x04, 0x00, 0x00, 0x00, 0x00, 0x01, 0x00, 0x00, 0x24, 0xf1, 0xa8, 0xbd, 0x00, 0x00, 0x00, 0x00, 0x37, 0x39, 0x25, 0x3d, 0x00, 0x00, 0x00, 0x00, 0xd7, 0x75, 0x02, 0xbd, 0x48, 0x75, 0x24, 0xbd, 0x00, 0x00, 0x00, 0x00, 0x17, 0x9c, 0x97, 0xbb, 0xc2, 0x20, 0x18, 0xbe, 0xa8, 0x99, 0xb3, 0x3f, 0x34, 0xa0, 0xa0, 0x3e, 0x35, 0xa1, 0xaa, 0x3f, 0xf8, 0x22, 0x16, 0x3d, 0x0c, 0x32, 0x0d, 0xbe, 0x58, 0x80, 0xf4, 0xbd, 0x00, 0x00, 0x00, 0x00, 0x00, 0x00, 0x00, 0x00, 0x73, 0x5c, 0x1a, 0xc0, 0x0c, 0x85, 0xf5, 0xbf, 0x60, 0xc0, 0x44, 0xbf, 0xfa, 0xce, 0xef, 0x3d, 0x13, 0x4c, 0xf5, 0x3c, 0x00, 0x00, 0x00, 0x00, 0x7a, 0x4d, 0x35, 0x3e, 0x00, 0x00, 0x00, 0x00, 0x5e, 0x81, 0x9b, 0x3f, 0x00, 0x00, 0x00, 0x00, 0x54, 0xbf, 0xb4, 0xbe, 0x7a, 0x9e, 0x57, 0xbf, 0x83, 0x4b, 0x23, 0x3e, 0x5b, 0x24, 0x22, 0x3e, 0xdb, 0x3a, 0xb6, 0xbe, 0x53, 0x60, 0x46, 0x3e, 0x9a, 0x0d, 0x64, 0xbe, 0xed, 0x86, 0x9c, 0x3d, 0x53, 0xca, 0x08, 0xbd, 0x50, 0xc9, 0x0e, 0x3e, 0xd9, 0xcd, 0x04, 0xbe, 0x00, 0x00, 0x00, 0x00, 0x42, 0x8c, 0x13, 0xbe, 0xbb, 0x25, 0xc5, 0x3d, 0x00, 0x00, 0x00, 0x00, 0x53, 0x7f, 0x5b, 0xbf, 0x4c, 0x0a, 0xeb, 0x3f, 0x00, 0x00, 0x00, 0x00, 0xac, 0xb6, 0x16, 0xbe, 0x50, 0xbf, 0x7e, 0x3e, 0x8e, 0xd5, 0xd3, 0xbd, 0x00, 0x00, 0x00, 0x00, 0x00, 0x00, 0x00, 0x00, 0x00, 0x00, 0x00, 0x00, 0xdb, 0x56, 0xf6, 0xbe, 0x00, 0x00, 0x00, 0x00, 0xce, 0xb5, 0x63, 0xbf, 0x19, 0xaf, 0x6e, 0x3f, 0x00, 0x00, 0x00, 0x00, 0x00, 0x00, 0x00, 0x00, 0xe4, 0x47, 0x10, 0x3e, 0x00, 0x00, 0x00, 0x00, 0x00, 0x00, 0x00, 0x00, 0x00, 0x00, 0x00, 0x00, 0xaf, 0xd3, 0x3e, 0xbf, 0x51, 0xc3, 0xdc, 0xbf, 0xc3, 0xe0, 0x31, 0xbd, 0xa2, 0xff, 0xff, 0xff, 0x04, 0x00, 0x00, 0x00, 0x04, 0x00, 0x00, 0x00, 0x7b, 0x22, 0x08, 0x3e, 0xb2, 0xff, 0xff, 0xff, 0x04, 0x00, 0x00, 0x00, 0x40, 0x00, 0x00, 0x00, 0xcf, 0xbb, 0x94, 0x3e, 0x8e, 0x10, 0x01, 0xc0, 0x00, 0x00, 0x00, 0x00, 0x34, 0x3a, 0x27, 0xbd, 0x75, 0xdb, 0x32, 0xbf, 0x9d, 0x0d, 0xd7, 0xbe, 0x00, 0x00, 0x00, 0x00, 0x2a, 0xfe, 0x38, 0xbd, 0x29, 0x57, 0x07, 0xbe, 0x00, 0x00, 0x00, 0x00, 0xf0, 0x8f, 0x70, 0xbc, 0x85, 0x12, 0x08, 0x3e, 0x3a, 0xf4, 0x7d, 0x3d, 0x8f, 0x3b, 0xa6, 0x3c, 0x00, 0x00, 0x00, 0x00, 0x1c, 0xd5, 0x99, 0x3e, 0x00, 0x00, 0x06, 0x00, 0x08, 0x00, 0x04, 0x00, 0x06, 0x00, 0x00, 0x00, 0x04, 0x00, 0x00, 0x00, 0x80, 0x00, 0x00, 0x00, 0x00, 0x00, 0x00, 0x00, 0x00, 0x00, 0x00, 0x00, 0xee, 0xe1, 0x03, 0xbd, 0x00, 0x00, 0x00, 0x00, 0x00, 0x31, 0x89, 0x3e, 0xfb, 0xc4, 0x0e, 0xbd, 0x00, 0x00, 0x00, 0x00, 0x25, 0x8b, 0xe0, 0xbc, 0x9a, 0xa4, 0xb4, 0xbf, 0x00, 0x00, 0x00, 0x00, 0x00, 0x00, 0x00, 0x00, 0x43, 0x4d, 0x8e, 0xbe, 0x00, 0x00, 0x00, 0x00, 0x28, 0xcc, 0xf6, 0xbc, 0x07, 0x6e, 0x72, 0xbd, 0x00, 0x00, 0x00, 0x00, 0x4d, 0xec, 0x26, 0x3d, 0x87, 0xe9, 0xce, 0xbd, 0x00, 0x00, 0x00, 0x00, 0x00, 0x00, 0x00, 0x00, 0x83, 0x20, 0x15, 0xbc, 0x00, 0x00, 0x00, 0x00, 0x66, 0x0a, 0x83, 0xbb, 0x60, 0x6a, 0xe3, 0xba, 0x00, 0x00, 0x00, 0x00, 0x00, 0x00, 0x00, 0x00, 0x00, 0x00, 0x00, 0x00, 0x99, 0x2c, 0x5a, 0x3b, 0xb3, 0x4a, 0xd0, 0xbd, 0x45, 0x88, 0xb3, 0x3e, 0xcc, 0xaa, 0xfe, 0x3d, 0x00, 0x00, 0x00, 0x00, 0x84, 0xf9, 0xff, 0xff, 0x88, 0xf9, 0xff, 0xff, 0x0f, 0x00, 0x00, 0x00, 0x4d, 0x4c, 0x49, 0x52, 0x20, 0x43, 0x6f, 0x6e, 0x76, 0x65, 0x72, 0x74, 0x65, 0x64, 0x2e, 0x00, 0x01, 0x00, 0x00, 0x00, 0x14, 0x00, 0x00, 0x00, 0x00, 0x00, 0x0e, 0x00, 0x18, 0x00, 0x14, 0x00, 0x10, 0x00, 0x0c, 0x00, 0x08, 0x00, 0x04, 0x00, 0x0e, 0x00, 0x00, 0x00, 0x14, 0x00, 0x00, 0x00, 0x1c, 0x00, 0x00, 0x00, 0x10, 0x01, 0x00, 0x00, 0x14, 0x01, 0x00, 0x00, 0x18, 0x01, 0x00, 0x00, 0x04, 0x00, 0x00, 0x00, 0x6d, 0x61, 0x69, 0x6e, 0x00, 0x00, 0x00, 0x00, 0x04, 0x00, 0x00, 0x00, 0xb8, 0x00, 0x00, 0x00, 0x70, 0x00, 0x00, 0x00, 0x38, 0x00, 0x00, 0x00, 0x04, 0x00, 0x00, 0x00, 0x66, 0xff, 0xff, 0xff, 0x10, 0x00, 0x00, 0x00, 0x00, 0x00, 0x00, 0x08, 0x0c, 0x00, 0x00, 0x00, 0x10, 0x00, 0x00, 0x00, 0x04, 0xfa, 0xff, 0xff, 0x01, 0x00, 0x00, 0x00, 0x0c, 0x00, 0x00, 0x00, 0x03, 0x00, 0x00, 0x00, 0x0b, 0x00, 0x00, 0x00, 0x08, 0x00, 0x00, 0x00, 0x03, 0x00, 0x00, 0x00, 0x96, 0xff, 0xff, 0xff, 0x10, 0x00, 0x00, 0x00, 0x00, 0x00, 0x00, 0x08, 0x10, 0x00, 0x00, 0x00, 0x14, 0x00, 0x00, 0x00, 0x86, 0xff, 0xff, 0xff, 0x00, 0x00, 0x00, 0x01, 0x01, 0x00, 0x00, 0x00, 0x0b, 0x00, 0x00, 0x00, 0x03, 0x00, 0x00, 0x00, 0x0a, 0x00, 0x00, 0x00, 0x07, 0x00, 0x00, 0x00, 0x02, 0x00, 0x00, 0x00, 0xca, 0xff, 0xff, 0xff, 0x10, 0x00, 0x00, 0x00, 0x00, 0x00, 0x00, 0x08, 0x10, 0x00, 0x00, 0x00, 0x14, 0x00, 0x00, 0x00, 0xba, 0xff, 0xff, 0xff, 0x00, 0x00, 0x00, 0x01, 0x01, 0x00, 0x00, 0x00, 0x0a, 0x00, 0x00, 0x00, 0x03, 0x00, 0x00, 0x00, 0x09, 0x00, 0x00, 0x00, 0x06, 0x00, 0x00, 0x00, 0x01, 0x00, 0x00, 0x00, 0x00, 0x00, 0x0e, 0x00, 0x16, 0x00, 0x00, 0x00, 0x10, 0x00, 0x0c, 0x00, 0x0b, 0x00, 0x04, 0x00, 0x0e, 0x00, 0x00, 0x00, 0x18, 0x00, 0x00, 0x00, 0x00, 0x00, 0x00, 0x08, 0x18, 0x00, 0x00, 0x00, 0x1c, 0x00, 0x00, 0x00, 0x00, 0x00, 0x06, 0x00, 0x08, 0x00, 0x07, 0x00, 0x06, 0x00, 0x00, 0x00, 0x00, 0x00, 0x00, 0x01, 0x01, 0x00, 0x00, 0x00, 0x09, 0x00, 0x00, 0x00, 0x03, 0x00, 0x00, 0x00, 0x00, 0x00, 0x00, 0x00, 0x05, 0x00, 0x00, 0x00, 0x04, 0x00, 0x00, 0x00, 0x01, 0x00, 0x00, 0x00, 0x0c, 0x00, 0x00, 0x00, 0x01, 0x00, 0x00, 0x00, 0x00, 0x00, 0x00, 0x00, 0x0d, 0x00, 0x00, 0x00, 0xf0, 0x04, 0x00, 0x00, 0x80, 0x04, 0x00, 0x00, 0x0c, 0x04, 0x00, 0x00, 0xb0, 0x03, 0x00, 0x00, 0x58, 0x03, 0x00, 0x00, 0x0c, 0x03, 0x00, 0x00, 0xc0, 0x02, 0x00, 0x00, 0x70, 0x02, 0x00, 0x00, 0x20, 0x02, 0x00, 0x00, 0x8c, 0x01, 0x00, 0x00, 0xf8, 0x00, 0x00, 0x00, 0x60, 0x00, 0x00, 0x00, 0x04, 0x00, 0x00, 0x00, 0x5a, 0xfb, 0xff, 0xff, 0x00, 0x00, 0x00, 0x01, 0x14, 0x00, 0x00, 0x00, 0x1c, 0x00, 0x00, 0x00, 0x1c, 0x00, 0x00, 0x00, 0x0d, 0x00, 0x00, 0x00, 0x34, 0x00, 0x00, 0x00, 0x02, 0x00, 0x00, 0x00, 0xff, 0xff, 0xff, 0xff, 0x01, 0x00, 0x00, 0x00, 0x44, 0xfb, 0xff, 0xff, 0x19, 0x00, 0x00, 0x00, 0x53, 0x74, 0x61, 0x74, 0x65, 0x66, 0x75, 0x6c, 0x50, 0x61, 0x72, 0x74, 0x69, 0x74, 0x69, 0x6f, 0x6e, 0x65, 0x64, 0x43, 0x61, 0x6c, 0x6c, 0x3a, 0x30, 0x00, 0x00, 0x00, 0x02, 0x00, 0x00, 0x00, 0x01, 0x00, 0x00, 0x00, 0x01, 0x00, 0x00, 0x00, 0xb2, 0xfb, 0xff, 0xff, 0x00, 0x00, 0x00, 0x01, 0x14, 0x00, 0x00, 0x00, 0x1c, 0x00, 0x00, 0x00, 0x1c, 0x00, 0x00, 0x00, 0x0c, 0x00, 0x00, 0x00, 0x70, 0x00, 0x00, 0x00, 0x02, 0x00, 0x00, 0x00, 0xff, 0xff, 0xff, 0xff, 0x10, 0x00, 0x00, 0x00, 0x9c, 0xfb, 0xff, 0xff, 0x55, 0x00, 0x00, 0x00, 0x73, 0x65, 0x71, 0x75, 0x65, 0x6e, 0x74, 0x69, 0x61, 0x6c, 0x5f, 0x32, 0x2f, 0x64, 0x65, 0x6e, 0x73, 0x65, 0x5f, 0x31, 0x30, 0x2f, 0x4d, 0x61, 0x74, 0x4d, 0x75, 0x6c, 0x3b, 0x73, 0x65, 0x71, 0x75, 0x65, 0x6e, 0x74, 0x69, 0x61, 0x6c, 0x5f, 0x32, 0x2f, 0x64, 0x65, 0x6e, 0x73, 0x65, 0x5f, 0x31, 0x30, 0x2f, 0x52, 0x65, 0x6c, 0x75, 0x3b, 0x73, 0x65, 0x71, 0x75, 0x65, 0x6e, 0x74, 0x69, 0x61, 0x6c, 0x5f, 0x32, 0x2f, 0x64, 0x65, 0x6e, 0x73, 0x65, 0x5f, 0x31, 0x30, 0x2f, 0x42, 0x69, 0x61, 0x73, 0x41, 0x64, 0x64, 0x00, 0x00, 0x00, 0x02, 0x00, 0x00, 0x00, 0x01, 0x00, 0x00, 0x00, 0x10, 0x00, 0x00, 0x00, 0x46, 0xfc, 0xff, 0xff, 0x00, 0x00, 0x00, 0x01, 0x14, 0x00, 0x00, 0x00, 0x1c, 0x00, 0x00, 0x00, 0x1c, 0x00, 0x00, 0x00, 0x0b, 0x00, 0x00, 0x00, 0x6c, 0x00, 0x00, 0x00, 0x02, 0x00, 0x00, 0x00, 0xff, 0xff, 0xff, 0xff, 0x20, 0x00, 0x00, 0x00, 0x30, 0xfc, 0xff, 0xff, 0x52, 0x00, 0x00, 0x00, 0x73, 0x65, 0x71, 0x75, 0x65, 0x6e, 0x74, 0x69, 0x61, 0x6c, 0x5f, 0x32, 0x2f, 0x64, 0x65, 0x6e, 0x73, 0x65, 0x5f, 0x39, 0x2f, 0x4d, 0x61, 0x74, 0x4d, 0x75, 0x6c, 0x3b, 0x73, 0x65, 0x71, 0x75, 0x65, 0x6e, 0x74, 0x69, 0x61, 0x6c, 0x5f, 0x32, 0x2f, 0x64, 0x65, 0x6e, 0x73, 0x65, 0x5f, 0x39, 0x2f, 0x52, 0x65, 0x6c, 0x75, 0x3b, 0x73, 0x65, 0x71, 0x75, 0x65, 0x6e, 0x74, 0x69, 0x61, 0x6c, 0x5f, 0x32, 0x2f, 0x64, 0x65, 0x6e, 0x73, 0x65, 0x5f, 0x39, 0x2f, 0x42, 0x69, 0x61, 0x73, 0x41, 0x64, 0x64, 0x00, 0x00, 0x02, 0x00, 0x00, 0x00, 0x01, 0x00, 0x00, 0x00, 0x20, 0x00, 0x00, 0x00, 0xd6, 0xfc, 0xff, 0xff, 0x00, 0x00, 0x00, 0x01, 0x14, 0x00, 0x00, 0x00, 0x1c, 0x00, 0x00, 0x00, 0x1c, 0x00, 0x00, 0x00, 0x0a, 0x00, 0x00, 0x00, 0x6c, 0x00, 0x00, 0x00, 0x02, 0x00, 0x00, 0x00, 0xff, 0xff, 0xff, 0xff, 0x40, 0x00, 0x00, 0x00, 0xc0, 0xfc, 0xff, 0xff, 0x52, 0x00, 0x00, 0x00, 0x73, 0x65, 0x71, 0x75, 0x65, 0x6e, 0x74, 0x69, 0x61, 0x6c, 0x5f, 0x32, 0x2f, 0x64, 0x65, 0x6e, 0x73, 0x65, 0x5f, 0x38, 0x2f, 0x4d, 0x61, 0x74, 0x4d, 0x75, 0x6c, 0x3b, 0x73, 0x65, 0x71, 0x75, 0x65, 0x6e, 0x74, 0x69, 0x61, 0x6c, 0x5f, 0x32, 0x2f, 0x64, 0x65, 0x6e, 0x73, 0x65, 0x5f, 0x38, 0x2f, 0x52, 0x65, 0x6c, 0x75, 0x3b, 0x73, 0x65, 0x71, 0x75, 0x65, 0x6e, 0x74, 0x69, 0x61, 0x6c, 0x5f, 0x32, 0x2f, 0x64, 0x65, 0x6e, 0x73, 0x65, 0x5f, 0x38, 0x2f, 0x42, 0x69, 0x61, 0x73, 0x41, 0x64, 0x64, 0x00, 0x00, 0x02, 0x00, 0x00, 0x00, 0x01, 0x00, 0x00, 0x00, 0x40, 0x00, 0x00, 0x00, 0xd2, 0xfd, 0xff, 0xff, 0x00, 0x00, 0x00, 0x01, 0x10, 0x00, 0x00, 0x00, 0x10, 0x00, 0x00, 0x00, 0x09, 0x00, 0x00, 0x00, 0x2c, 0x00, 0x00, 0x00, 0x40, 0xfd, 0xff, 0xff, 0x1c, 0x00, 0x00, 0x00, 0x73, 0x65, 0x71, 0x75, 0x65, 0x6e, 0x74, 0x69, 0x61, 0x6c, 0x5f, 0x32, 0x2f, 0x64, 0x65, 0x6e, 0x73, 0x65, 0x5f, 0x31, 0x31, 0x2f, 0x4d, 0x61, 0x74, 0x4d, 0x75, 0x6c, 0x00, 0x00, 0x00, 0x00, 0x02, 0x00, 0x00, 0x00, 0x01, 0x00, 0x00, 0x00, 0x10, 0x00, 0x00, 0x00, 0x1e, 0xfe, 0xff, 0xff, 0x00, 0x00, 0x00, 0x01, 0x10, 0x00, 0x00, 0x00, 0x10, 0x00, 0x00, 0x00, 0x08, 0x00, 0x00, 0x00, 0x2c, 0x00, 0x00, 0x00, 0x8c, 0xfd, 0xff, 0xff, 0x1c, 0x00, 0x00, 0x00, 0x73, 0x65, 0x71, 0x75, 0x65, 0x6e, 0x74, 0x69, 0x61, 0x6c, 0x5f, 0x32, 0x2f, 0x64, 0x65, 0x6e, 0x73, 0x65, 0x5f, 0x31, 0x30, 0x2f, 0x4d, 0x61, 0x74, 0x4d, 0x75, 0x6c, 0x00, 0x00, 0x00, 0x00, 0x02, 0x00, 0x00, 0x00, 0x10, 0x00, 0x00, 0x00, 0x20, 0x00, 0x00, 0x00, 0x6a, 0xfe, 0xff, 0xff, 0x00, 0x00, 0x00, 0x01, 0x10, 0x00, 0x00, 0x00, 0x10, 0x00, 0x00, 0x00, 0x07, 0x00, 0x00, 0x00, 0x28, 0x00, 0x00, 0x00, 0xd8, 0xfd, 0xff, 0xff, 0x1b, 0x00, 0x00, 0x00, 0x73, 0x65, 0x71, 0x75, 0x65, 0x6e, 0x74, 0x69, 0x61, 0x6c, 0x5f, 0x32, 0x2f, 0x64, 0x65, 0x6e, 0x73, 0x65, 0x5f, 0x39, 0x2f, 0x4d, 0x61, 0x74, 0x4d, 0x75, 0x6c, 0x00, 0x02, 0x00, 0x00, 0x00, 0x20, 0x00, 0x00, 0x00, 0x40, 0x00, 0x00, 0x00, 0xb2, 0xfe, 0xff, 0xff, 0x00, 0x00, 0x00, 0x01, 0x10, 0x00, 0x00, 0x00, 0x10, 0x00, 0x00, 0x00, 0x06, 0x00, 0x00, 0x00, 0x28, 0x00, 0x00, 0x00, 0x20, 0xfe, 0xff, 0xff, 0x1b, 0x00, 0x00, 0x00, 0x73, 0x65, 0x71, 0x75, 0x65, 0x6e, 0x74, 0x69, 0x61, 0x6c, 0x5f, 0x32, 0x2f, 0x64, 0x65, 0x6e, 0x73, 0x65, 0x5f, 0x38, 0x2f, 0x4d, 0x61, 0x74, 0x4d, 0x75, 0x6c, 0x00, 0x02, 0x00, 0x00, 0x00, 0x40, 0x00, 0x00, 0x00, 0x04, 0x00, 0x00, 0x00, 0xfa, 0xfe, 0xff, 0xff, 0x00, 0x00, 0x00, 0x01, 0x10, 0x00, 0x00, 0x00, 0x10, 0x00, 0x00, 0x00, 0x05, 0x00, 0x00, 0x00, 0x38, 0x00, 0x00, 0x00, 0x68, 0xfe, 0xff, 0xff, 0x2b, 0x00, 0x00, 0x00, 0x73, 0x65, 0x71, 0x75, 0x65, 0x6e, 0x74, 0x69, 0x61, 0x6c, 0x5f, 0x32, 0x2f, 0x64, 0x65, 0x6e, 0x73, 0x65, 0x5f, 0x38, 0x2f, 0x42, 0x69, 0x61, 0x73, 0x41, 0x64, 0x64, 0x2f, 0x52, 0x65, 0x61, 0x64, 0x56, 0x61, 0x72, 0x69, 0x61, 0x62, 0x6c, 0x65, 0x4f, 0x70, 0x00, 0x01, 0x00, 0x00, 0x00, 0x40, 0x00, 0x00, 0x00, 0x4e, 0xff, 0xff, 0xff, 0x00, 0x00, 0x00, 0x01, 0x10, 0x00, 0x00, 0x00, 0x10, 0x00, 0x00, 0x00, 0x04, 0x00, 0x00, 0x00, 0x3c, 0x00, 0x00, 0x00, 0xbc, 0xfe, 0xff, 0xff, 0x2c, 0x00, 0x00, 0x00, 0x73, 0x65, 0x71, 0x75, 0x65, 0x6e, 0x74, 0x69, 0x61, 0x6c, 0x5f, 0x32, 0x2f, 0x64, 0x65, 0x6e, 0x73, 0x65, 0x5f, 0x31, 0x31, 0x2f, 0x42, 0x69, 0x61, 0x73, 0x41, 0x64, 0x64, 0x2f, 0x52, 0x65, 0x61, 0x64, 0x56, 0x61, 0x72, 0x69, 0x61, 0x62, 0x6c, 0x65, 0x4f, 0x70, 0x00, 0x00, 0x00, 0x00, 0x01, 0x00, 0x00, 0x00, 0x01, 0x00, 0x00, 0x00, 0xa6, 0xff, 0xff, 0xff, 0x00, 0x00, 0x00, 0x01, 0x10, 0x00, 0x00, 0x00, 0x10, 0x00, 0x00, 0x00, 0x03, 0x00, 0x00, 0x00, 0x3c, 0x00, 0x00, 0x00, 0x14, 0xff, 0xff, 0xff, 0x2c, 0x00, 0x00, 0x00, 0x73, 0x65, 0x71, 0x75, 0x65, 0x6e, 0x74, 0x69, 0x61, 0x6c, 0x5f, 0x32, 0x2f, 0x64, 0x65, 0x6e, 0x73, 0x65, 0x5f, 0x31, 0x30, 0x2f, 0x42, 0x69, 0x61, 0x73, 0x41, 0x64, 0x64, 0x2f, 0x52, 0x65, 0x61, 0x64, 0x56, 0x61, 0x72, 0x69, 0x61, 0x62, 0x6c, 0x65, 0x4f, 0x70, 0x00, 0x00, 0x00, 0x00, 0x01, 0x00, 0x00, 0x00, 0x10, 0x00, 0x00, 0x00, 0x00, 0x00, 0x16, 0x00, 0x18, 0x00, 0x14, 0x00, 0x00, 0x00, 0x10, 0x00, 0x0c, 0x00, 0x08, 0x00, 0x00, 0x00, 0x00, 0x00, 0x00, 0x00, 0x07, 0x00, 0x16, 0x00, 0x00, 0x00, 0x00, 0x00, 0x00, 0x01, 0x10, 0x00, 0x00, 0x00, 0x10, 0x00, 0x00, 0x00, 0x02, 0x00, 0x00, 0x00, 0x38, 0x00, 0x00, 0x00, 0x84, 0xff, 0xff, 0xff, 0x2b, 0x00, 0x00, 0x00, 0x73, 0x65, 0x71, 0x75, 0x65, 0x6e, 0x74, 0x69, 0x61, 0x6c, 0x5f, 0x32, 0x2f, 0x64, 0x65, 0x6e, 0x73, 0x65, 0x5f, 0x39, 0x2f, 0x42, 0x69, 0x61, 0x73, 0x41, 0x64, 0x64, 0x2f, 0x52, 0x65, 0x61, 0x64, 0x56, 0x61, 0x72, 0x69, 0x61, 0x62, 0x6c, 0x65, 0x4f, 0x70, 0x00, 0x01, 0x00, 0x00, 0x00, 0x20, 0x00, 0x00, 0x00, 0x00, 0x00, 0x16, 0x00, 0x1c, 0x00, 0x18, 0x00, 0x00, 0x00, 0x14, 0x00, 0x10, 0x00, 0x0c, 0x00, 0x00, 0x00, 0x00, 0x00, 0x08, 0x00, 0x07, 0x00, 0x16, 0x00, 0x00, 0x00, 0x00, 0x00, 0x00, 0x01, 0x14, 0x00, 0x00, 0x00, 0x20, 0x00, 0x00, 0x00, 0x20, 0x00, 0x00, 0x00, 0x01, 0x00, 0x00, 0x00, 0x38, 0x00, 0x00, 0x00, 0x02, 0x00, 0x00, 0x00, 0xff, 0xff, 0xff, 0xff, 0x04, 0x00, 0x00, 0x00, 0x04, 0x00, 0x04, 0x00, 0x04, 0x00, 0x00, 0x00, 0x19, 0x00, 0x00, 0x00, 0x73, 0x65, 0x72, 0x76, 0x69, 0x6e, 0x67, 0x5f, 0x64, 0x65, 0x66, 0x61, 0x75, 0x6c, 0x74, 0x5f, 0x69, 0x6e, 0x70, 0x75, 0x74, 0x5f, 0x32, 0x3a, 0x30, 0x00, 0x00, 0x00, 0x02, 0x00, 0x00, 0x00, 0x01, 0x00, 0x00, 0x00, 0x04, 0x00, 0x00, 0x00, 0x01, 0x00, 0x00, 0x00, 0x10, 0x00, 0x00, 0x00, 0x0c, 0x00, 0x0c, 0x00, 0x0b, 0x00, 0x00, 0x00, 0x00, 0x00, 0x04, 0x00, 0x0c, 0x00, 0x00, 0x00, 0x09, 0x00, 0x00, 0x00, 0x00, 0x00, 0x00, 0x09 };